<unk>	0
<s>	0
</s>	0
<pad>	0
，	-3.01944
。	-3.59092
的	-3.70158
▁	-3.92521
、	-4.37585
年	-4.54341
（	-4.92663
在	-4.9329
）	-5.22572
和	-5.26473
月	-5.34306
是	-5.46966
中	-5.58236
日	-5.62016
人	-5.63655
：	-5.65594
大	-5.90359
為	-5.91846
有	-5.92468
了	-5.9267
》	-5.97392
《	-5.98861
「	-6.00634
·	-6.01093
與	-6.07894
以	-6.09739
上	-6.11999
为	-6.16284
及	-6.21705
於	-6.22932
而	-6.23514
被	-6.24228
1	-6.25964
之	-6.27377
一	-6.31194
“	-6.35688
不	-6.4203
」	-6.45646
他	-6.45889
等	-6.45901
2	-6.46274
3	-6.49906
後	-6.50611
由	-6.52942
-	-6.55073
子	-6.61153
；	-6.61302
4	-6.65311
到	-6.65456
其	-6.66116
時	-6.67213
山	-6.71481
下	-6.7254
也	-6.72706
与	-6.73096
5	-6.73944
德	-6.74166
但	-6.75887
新	-6.76695
名	-6.77479
家	-6.77485
三	-6.77699
地	-6.78593
所	-6.79695
前	-6.81479
多	-6.82139
至	-6.8271
6	-6.83629
西	-6.83911
或	-6.84656
小	-6.86012
于	-6.86225
高	-6.87445
7	-6.87974
”	-6.90664
后	-6.90832
10	-6.91364
斯	-6.91448
會	-6.91756
特	-6.91871
市	-6.92343
8	-6.924
），	-6.92513
文	-6.92615
出	-6.92722
王	-6.93445
9	-6.96487
道	-6.96728
天	-6.97174
水	-7.00326
並	-7.00336
法	-7.0219
將	-7.02482
者	-7.03307
南	-7.03667
站	-7.04696
12	-7.05704
第	-7.07553
部	-7.08734
州	-7.09588
對	-7.10879
海	-7.11083
成	-7.12588
可	-7.13214
用	-7.13854
性	-7.14023
分	-7.1509
科	-7.16403
都	-7.16763
城	-7.16851
里	-7.16968
外	-7.18286
路	-7.19331
克	-7.20158
安	-7.20409
長	-7.20416
11	-7.20816
因	-7.21338
林	-7.21464
金	-7.21557
向	-7.21866
拉	-7.22705
生	-7.24116
國	-7.24294
本	-7.26295
自	-7.26785
区	-7.27025
利	-7.28994
使用	-7.2918
日本	-7.29621
时	-7.29902
米	-7.30209
对	-7.3083
香港	-7.31511
)	-7.32681
二	-7.32759
化	-7.32897
村	-7.34893
區	-7.34961
原	-7.35056
明	-7.35714
比	-7.35816
北	-7.35982
并	-7.37237
美	-7.38261
）。	-7.38605
線	-7.38774
县	-7.38923
阿	-7.4064
來	-7.40693
光	-7.40921
以及	-7.41093
四	-7.41887
会	-7.43154
馬	-7.43491
中国	-7.43663
李	-7.44132
政府	-7.44221
力	-7.44294
河	-7.44331
內	-7.44625
将	-7.45111
正	-7.45485
平	-7.45912
台	-7.46044
可以	-7.47095
石	-7.47234
神	-7.49225
卡	-7.494
就	-7.49974
18	-7.50754
如	-7.50896
從	-7.50925
包括	-7.51011
任	-7.51606
軍	-7.51645
號	-7.5186
全	-7.5198
长	-7.52246
国	-7.52309
行	-7.52358
曾	-7.5265
東	-7.53043
田	-7.54197
加	-7.54311
重	-7.54604
公	-7.54754
心	-7.54758
20	-7.55267
作	-7.55417
内	-7.55449
(	-7.55552
能	-7.55718
公司	-7.56507
/	-7.56713
同	-7.57155
,	-7.57322
手	-7.57657
▁《	-7.5803
五	-7.58523
军	-7.59029
.	-7.59455
入	-7.59821
元	-7.59924
▁-	-7.60171
要	-7.60257
位	-7.60377
她	-7.60607
面	-7.60865
式	-7.61299
爾	-7.61663
已	-7.63507
省	-7.63855
該	-7.63904
巴	-7.64469
（）	-7.64732
又	-7.65268
花	-7.6531
白	-7.6551
女	-7.65714
17	-7.65924
江	-7.66002
此	-7.66049
尔	-7.66831
尼	-7.66833
因此	-7.66951
16	-7.6735
成為	-7.67399
集	-7.67409
主	-7.67616
:	-7.68381
型	-7.68538
格	-7.69136
从	-7.69178
次	-7.70325
使	-7.70491
A	-7.71407
事	-7.71592
台灣	-7.71657
15	-7.71823
基	-7.72242
立	-7.7225
清	-7.72364
無	-7.72388
縣	-7.72798
局	-7.73223
古	-7.73292
东	-7.73418
世界	-7.73511
其中	-7.73648
星	-7.73844
亦	-7.73964
則	-7.74096
龍	-7.74152
马	-7.74172
更	-7.74339
美國	-7.74972
定	-7.74989
口	-7.75737
史	-7.76995
派	-7.77133
最	-7.77542
字	-7.77895
兩	-7.78585
方	-7.78752
即	-7.78927
该	-7.7948
s	-7.79579
回	-7.79835
主要	-7.80025
之一	-7.80047
這	-7.80584
著	-7.80627
我	-7.80719
个	-7.81224
C	-7.81232
波	-7.81449
起	-7.81534
中國	-7.81568
世	-7.81885
車	-7.8285
度	-7.82948
一個	-7.83124
羅	-7.83449
－	-7.83803
士	-7.84018
民	-7.84114
塔	-7.84268
武	-7.84872
學	-7.84925
得	-7.85007
頭	-7.85322
夫	-7.85352
受	-7.85878
B	-7.86135
伊	-7.86199
一个	-7.86615
木	-7.86873
過	-7.86919
首	-7.87222
布	-7.87242
▁在	-7.87246
30	-7.87319
平方公里	-7.87546
14	-7.87627
門	-7.87736
達	-7.88238
制	-7.88532
号	-7.88532
来	-7.88576
島	-7.88592
隊	-7.88889
通	-7.89096
機	-7.89279
线	-7.90041
開始	-7.90221
13	-7.90236
镇	-7.90336
各	-7.90457
」，	-7.90871
八	-7.91022
宗	-7.91134
合	-7.91205
氏	-7.91339
」。	-7.91412
大学	-7.91443
▁(	-7.91504
今	-7.91679
沙	-7.91705
中心	-7.92143
代	-7.92538
第一	-7.9259
場	-7.92821
約	-7.93131
研究	-7.93218
文化	-7.93361
再	-7.93423
把	-7.93457
M	-7.93525
其他	-7.93578
說	-7.94371
亞	-7.94464
兵	-7.94757
個	-7.95068
共	-7.95491
相	-7.95539
當	-7.96061
罗	-7.96168
工作	-7.96234
商	-7.9635
川	-7.96583
）、	-7.97157
普	-7.97278
英	-7.97317
座	-7.97365
開	-7.97507
音	-7.97839
華	-7.98031
建	-7.98275
信	-7.98324
官	-7.98349
野	-7.98515
大學	-7.9871
表示	-7.98719
六	-7.9919
戰	-7.99512
”。	-7.99926
打	-7.99927
代表	-8.00426
流	-8.00615
版	-8.00724
球	-8.00874
它	-8.00987
進行	-8.01251
学	-8.0152
部分	-8.01814
周	-8.01843
S	-8.02051
去	-8.02219
因為	-8.02414
美国	-8.02628
體	-8.02644
政	-8.02659
老	-8.02963
器	-8.03052
港	-8.03239
好	-8.03439
張	-8.03468
D	-8.03712
F	-8.04219
處	-8.04666
那	-8.05289
T	-8.05564
街	-8.06009
郡	-8.06666
量	-8.06718
中的	-8.06787
勒	-8.06805
自己	-8.06847
反	-8.07257
位于	-8.07377
恩	-8.07378
国家	-8.08129
雷	-8.08327
门	-8.08341
陳	-8.08402
吉	-8.08866
黑	-8.09159
電影	-8.09949
教	-8.10007
真	-8.10099
P	-8.1015
非	-8.10353
之後	-8.10396
太	-8.10423
瓦	-8.1046
第二	-8.10481
常	-8.10625
两	-8.10743
管理	-8.1128
語	-8.11601
福	-8.11621
才	-8.12038
風	-8.1208
未	-8.1219
萬	-8.12259
位於	-8.12408
（），	-8.1277
副	-8.12821
書	-8.13112
院	-8.13275
便	-8.13296
系	-8.13339
數	-8.13508
九	-8.13577
志	-8.13632
點	-8.13923
身	-8.15281
段	-8.15364
19	-8.15394
期	-8.15714
火	-8.15751
令	-8.15892
愛	-8.15931
公里	-8.15947
达	-8.1646
發	-8.16472
班	-8.16498
賽	-8.1657
25	-8.16623
國家	-8.16647
沒有	-8.16853
工	-8.16942
社	-8.17595
森	-8.17762
一些	-8.18256
成立	-8.18304
中央	-8.18409
华	-8.18658
物	-8.18766
改	-8.18768
讓	-8.19072
G	-8.19124
經	-8.19279
正式	-8.19416
七	-8.19493
府	-8.19551
堂	-8.19681
万	-8.20072
这	-8.20424
车	-8.20617
總	-8.20887
提供	-8.20888
无	-8.21038
语	-8.21148
城市	-8.21174
年代	-8.21626
开始	-8.21684
不同	-8.21773
成为	-8.21927
湖	-8.21963
列	-8.22098
空	-8.2237
他們	-8.22996
教育	-8.2313
体	-8.23155
地区	-8.23244
青	-8.23481
指	-8.23612
交	-8.23697
形	-8.23924
张	-8.24049
只	-8.24375
所有	-8.24489
族	-8.24888
還	-8.25157
半	-8.25232
當時	-8.25252
屬	-8.25313
角	-8.25449
但是	-8.25614
地區	-8.25819
解	-8.25882
師	-8.26029
修	-8.26061
由於	-8.26183
奇	-8.26779
認為	-8.27209
校	-8.27258
纳	-8.27297
先	-8.27464
过	-8.27801
21	-8.27823
曼	-8.28088
界	-8.28453
朝	-8.28503
稱	-8.28594
他的	-8.28613
曲	-8.28633
一般	-8.28672
也是	-8.29224
梅	-8.29237
——	-8.29515
哈	-8.29522
”，	-8.29556
永	-8.2957
取	-8.29626
康	-8.29727
聖	-8.29767
色	-8.29781
英國	-8.30282
约	-8.30336
龙	-8.30409
开	-8.30598
迪	-8.30703
土	-8.30809
事件	-8.30899
》，	-8.30985
意	-8.3113
亚	-8.31208
进行	-8.31284
往	-8.31393
治	-8.31401
点	-8.31441
國際	-8.31706
洛	-8.31756
》、《	-8.31829
24	-8.31837
处	-8.31856
机	-8.31865
称	-8.31897
甲	-8.32106
H	-8.32141
近	-8.3221
总	-8.32474
还	-8.32707
直	-8.3289
第三	-8.32937
托	-8.33011
泰	-8.33148
死	-8.33164
伯	-8.33186
工程	-8.33256
百	-8.33546
漢	-8.33729
松	-8.33741
看	-8.33754
片	-8.3389
博	-8.34017
则	-8.3406
連	-8.34234
町	-8.34391
納	-8.34649
間	-8.34725
深	-8.3477
唐	-8.34916
室	-8.34952
保	-8.34954
率	-8.35001
居	-8.35011
落	-8.35103
若	-8.35175
且	-8.35338
：「	-8.35508
塞	-8.35726
黃	-8.35743
E	-8.35882
系統	-8.36004
傳	-8.36021
例如	-8.36056
可能	-8.36165
見	-8.36361
蘭	-8.36401
進	-8.36496
歲	-8.36548
说	-8.36646
理	-8.3687
草	-8.36873
船	-8.36897
寺	-8.36912
景	-8.37097
皮	-8.37154
北京	-8.37335
每	-8.3739
K	-8.37429
发	-8.37554
十	-8.37691
均	-8.37741
姆	-8.3797
上海	-8.38737
獲得	-8.38754
品	-8.38832
成功	-8.39098
乡	-8.39356
管	-8.39502
歌	-8.39532
通过	-8.39596
22	-8.39641
人口	-8.39698
級	-8.40049
书	-8.40117
N	-8.40136
23	-8.40312
作為	-8.40402
最後	-8.40439
宮	-8.4054
政治	-8.40561
電	-8.40597
臺灣	-8.40608
帝	-8.40644
50	-8.40667
作品	-8.40831
接	-8.40935
組	-8.41121
權	-8.41285
言	-8.41286
》（	-8.41365
轉	-8.41624
需要	-8.41755
28	-8.41904
战	-8.41985
：）	-8.42042
案	-8.42215
香	-8.42216
所以	-8.42218
要求	-8.42372
学名	-8.42501
給	-8.42603
L	-8.42622
-{	-8.42648
發展	-8.42847
春	-8.42911
党	-8.43103
属	-8.4344
情	-8.43443
獎	-8.43699
報	-8.43832
尾	-8.43843
维	-8.44059
動	-8.44169
数	-8.44382
佛	-8.44396
源	-8.44526
千	-8.44672
氣	-8.44998
紅	-8.45241
头	-8.4531
做	-8.45416
卻	-8.45519
選	-8.45556
群	-8.45703
索	-8.45744
建立	-8.45937
母	-8.46044
擔任	-8.46096
走	-8.46312
26	-8.46334
章	-8.46431
仁	-8.4654
藏	-8.46643
夏	-8.46937
自由	-8.46961
根	-8.47012
当	-8.47159
表	-8.47197
後來	-8.47361
封	-8.47399
同時	-8.47578
完成	-8.47822
故	-8.48022
種	-8.48582
师	-8.48764
受到	-8.48787
：“	-8.4944
低	-8.49517
像	-8.49538
車站	-8.49632
超	-8.49673
雙	-8.50074
希	-8.50228
y	-8.50494
27	-8.50621
卷	-8.50645
強	-8.50698
登	-8.50853
上的	-8.50933
樂	-8.50942
司	-8.51037
只有	-8.51067
音樂	-8.51133
雅	-8.51139
提	-8.51169
R	-8.51197
经	-8.51311
作为	-8.51404
很	-8.51423
越	-8.51423
场	-8.51567
兰	-8.51632
级	-8.5164
玉	-8.51795
队	-8.52028
没有	-8.52369
具有	-8.52413
義	-8.52529
季	-8.52612
初	-8.52701
客	-8.52713
想	-8.52909
控制	-8.5299
同年	-8.53335
維	-8.53753
聲	-8.53755
莫	-8.53917
艾	-8.54095
瑞	-8.54269
少	-8.54293
他们	-8.54383
目前	-8.54541
食	-8.54731
學校	-8.54772
發現	-8.55025
這個	-8.55371
劉	-8.5556
獲	-8.5567
京	-8.55764
設計	-8.55808
黄	-8.56165
兼	-8.56423
你	-8.56442
支	-8.56595
服務	-8.5669
奧	-8.56796
威	-8.56809
鄉	-8.56816
病	-8.56946
属于	-8.57012
仍	-8.57082
O	-8.57087
铁路	-8.573
嘉	-8.57301
活動	-8.57351
胡	-8.57451
期間	-8.5752
然而	-8.57556
圣	-8.5764
黨	-8.57651
放	-8.57693
支持	-8.57759
人民	-8.57821
加入	-8.58122
系列	-8.58193
何	-8.58336
认为	-8.58482
就是	-8.58683
樓	-8.58736
收	-8.58748
層	-8.58966
31	-8.59013
除	-8.59043
奥	-8.5908
寶	-8.59186
合作	-8.59262
阳	-8.59445
時間	-8.59451
圖	-8.59522
得到	-8.59642
系统	-8.59691
知	-8.59871
守	-8.60251
29	-8.60368
這些	-8.60385
房	-8.60657
條	-8.60712
目	-8.60826
汉	-8.60988
較	-8.60999
牌	-8.61217
富	-8.61506
着	-8.61592
"	-8.61742
n	-8.61958
谷	-8.62042
朱	-8.62045
節	-8.6209
非常	-8.62193
員	-8.62411
發生	-8.62539
通常	-8.62574
40	-8.62649
核	-8.62687
鎮	-8.6291
票	-8.63069
升	-8.63122
隆	-8.63162
赫	-8.63337
魚	-8.63542
葉	-8.63869
屆	-8.63884
井	-8.63905
社會	-8.63942
男	-8.6413
帶	-8.64301
應	-8.64342
梁	-8.64416
都是	-8.64511
留	-8.64613
方面	-8.64641
X	-8.64715
报	-8.64786
造成	-8.65122
U	-8.65497
雪	-8.65502
密	-8.65599
前往	-8.65626
电	-8.65679
思	-8.65738
諾	-8.65818
節目	-8.65984
遊戲	-8.65991
国际	-8.6608
秀	-8.66121
左	-8.66306
提出	-8.66379
2010	-8.66428
之后	-8.66563
置	-8.6661
W	-8.66711
　	-8.66716
類	-8.6681
端	-8.67006
m	-8.67043
V	-8.67058
埃	-8.67392
血	-8.67395
岛	-8.674
由于	-8.67512
杜	-8.67577
另外	-8.6758
学院	-8.67715
生活	-8.67807
这个	-8.67977
t	-8.68123
宋	-8.68322
溪	-8.68405
图	-8.68408
。”	-8.68556
值	-8.68564
單	-8.6858
話	-8.68692
首次	-8.68885
组织	-8.68887
权	-8.68931
命	-8.69215
素	-8.69354
出現	-8.69409
丁	-8.69517
进	-8.69534
蒙	-8.69727
關	-8.70036
毛	-8.70113
学校	-8.70166
業	-8.70198
刘	-8.70244
店	-8.70337
风	-8.7037
陈	-8.70382
0	-8.70679
获得	-8.70958
館	-8.70965
為了	-8.71012
丹	-8.71041
任何	-8.71054
电影	-8.71191
如果	-8.71322
印度	-8.71339
裡	-8.71412
蒂	-8.71564
甚至	-8.71657
f	-8.71727
—	-8.71752
板	-8.71778
航空	-8.71811
给	-8.71888
接受	-8.72283
飛	-8.72529
诺	-8.72669
營	-8.72713
出版	-8.72845
失	-8.72847
架	-8.72885
完全	-8.72988
團	-8.73154
夜	-8.73161
因为	-8.73178
君	-8.73253
雄	-8.73341
转	-8.73437
陽	-8.7348
英国	-8.73549
程	-8.7377
擁有	-8.7382
勝	-8.73975
聯	-8.74034
增加	-8.74193
桥	-8.74274
动	-8.74537
鐵	-8.74616
直接	-8.74718
i	-8.74731
組織	-8.74746
眼	-8.74881
zh	-8.74944
・	-8.75035
间	-8.75066
果	-8.75115
雲	-8.75142
雖然	-8.75144
I	-8.75324
熱	-8.75543
奖	-8.75841
昌	-8.75927
送	-8.75991
)，	-8.76118
}-	-8.76205
排	-8.76277
住	-8.76325
自己的	-8.76326
骨	-8.76356
包	-8.76449
萨	-8.7645
親	-8.7649
这些	-8.76581
经济	-8.7662
調	-8.76684
興	-8.76798
团	-8.76823
宣布	-8.77007
方式	-8.77143
莱	-8.77184
苏	-8.77239
2000	-8.77265
取得	-8.77334
影	-8.7735
忠	-8.77371
层	-8.77394
油	-8.7754
一直	-8.77692
感	-8.77757
朗	-8.77844
不能	-8.77888
跟	-8.77892
具	-8.78123
重新	-8.78322
祖	-8.78334
100	-8.78532
地方	-8.78553
红	-8.78633
變	-8.78657
成員	-8.78806
存在	-8.78908
遠	-8.79032
舊	-8.79087
良	-8.79158
短	-8.79389
利用	-8.79425
視	-8.79429
決定	-8.79595
节	-8.79627
酒	-8.79643
形成	-8.79962
孫	-8.79996
牛	-8.80021
2008	-8.80166
盛	-8.80166
不過	-8.80248
學生	-8.80397
60	-8.80464
魯	-8.80627
參與	-8.80825
進入	-8.80849
底	-8.80854
一次	-8.81086
双	-8.81229
救	-8.81332
蘇	-8.8159
已經	-8.81592
智	-8.81596
同时	-8.81601
惠	-8.81621
种	-8.81729
切	-8.81781
邊	-8.82024
稱為	-8.82101
吳	-8.82128
設	-8.82392
並且	-8.8242
精	-8.82473
增	-8.82534
之前	-8.82548
佐	-8.82592
强	-8.82641
最終	-8.82689
时期	-8.82706
最佳	-8.82966
单	-8.83157
微	-8.83291
自然	-8.8331
降	-8.83397
设计	-8.83557
除了	-8.83578
造	-8.83887
;	-8.83954
皆	-8.83982
能力	-8.83987
赛	-8.84116
c	-8.84277
施	-8.84414
右	-8.84589
主席	-8.84648
學院	-8.84719
法国	-8.8497
善	-8.85104
世纪	-8.85189
廣	-8.85203
防	-8.8527
署	-8.85278
他在	-8.85334
第四	-8.85375
快	-8.85404
传	-8.85449
新聞	-8.85676
气	-8.8578
時期	-8.85894
實	-8.85925
經濟	-8.85935
德国	-8.85984
叶	-8.85994
影響	-8.86015
延	-8.86072
2007	-8.86166
2006	-8.86285
運動	-8.86348
发展	-8.86394
届	-8.86625
鲁	-8.86769
2012	-8.86774
法國	-8.86929
冠軍	-8.86948
橋	-8.87053
考	-8.87072
尚	-8.8709
歐	-8.87212
薩	-8.8725
樹	-8.87346
推	-8.87395
。」	-8.87398
占	-8.87402
2009	-8.87418
设	-8.8745
女性	-8.87477
摩	-8.87503
最高	-8.87523
警	-8.87524
許多	-8.87574
交通	-8.8777
此外	-8.87817
总面积	-8.87945
無法	-8.87958
早	-8.8798
堡	-8.88036
而且	-8.88062
速	-8.88084
照	-8.88136
問題	-8.88185
建筑	-8.88423
航	-8.88557
类	-8.88674
角色	-8.88777
热	-8.88893
通過	-8.88924
久	-8.89105
查	-8.89107
務	-8.89275
庄	-8.89484
參加	-8.89611
電視	-8.89674
／	-8.89772
比賽	-8.89966
让	-8.90045
足	-8.90054
峰	-8.90102
殿	-8.90142
論	-8.90202
虎	-8.90334
组	-8.90416
擊	-8.90644
委員會	-8.90704
调	-8.90704
e	-8.90793
共同	-8.91035
也有	-8.9106
邦	-8.9112
in	-8.91128
80	-8.91142
业	-8.91158
选	-8.91277
全国	-8.91377
行政	-8.91514
功	-8.91646
版本	-8.91653
戴	-8.91692
製作	-8.91841
秦	-8.91927
兴	-8.91985
世紀	-8.91991
条	-8.92091
安全	-8.92152
革命	-8.92164
连	-8.92165
輪	-8.92193
委员会	-8.92337
直到	-8.92468
再次	-8.92516
植物	-8.92633
極	-8.92634
倫	-8.92671
魔	-8.92679
承	-8.92695
2011	-8.92706
投	-8.92896
宁	-8.92986
望	-8.9302
已经	-8.93032
演出	-8.93199
宣	-8.93204
職	-8.93219
旗	-8.93268
雨	-8.93375
一起	-8.93396
奈	-8.93444
關係	-8.93543
依	-8.93583
法律	-8.93625
居民	-8.93713
皇	-8.9372
关	-8.93902
罪	-8.93948
er	-8.94024
担任	-8.94074
杨	-8.94081
政策	-8.94162
an	-8.9419
記	-8.94262
質	-8.94362
中華民國	-8.94374
教授	-8.94407
射	-8.94534
宝	-8.9463
k	-8.94634
哥	-8.94651
篇	-8.94693
籍	-8.94697
竹	-8.94772
）：	-8.94794
」（	-8.94856
方向	-8.94916
p	-8.94932
技术	-8.94993
社会	-8.95095
差	-8.95232
整	-8.95306
r	-8.95311
印	-8.95315
歐洲	-8.95369
委	-8.95422
边	-8.9543
当时	-8.95465
足球	-8.95672
戰爭	-8.96084
寫	-8.96098
異	-8.96142
J	-8.96536
斯特	-8.96604
臣	-8.96663
停	-8.96688
根据	-8.9672
云	-8.96737
許	-8.96781
假	-8.96829
配	-8.96837
帕	-8.97007
a	-8.97038
佩	-8.97195
冠	-8.97281
僅	-8.97351
屋	-8.97505
广	-8.97531
人口密度	-8.97561
营	-8.97686
散	-8.97793
』	-8.97909
徐	-8.97938
『	-8.97953
楊	-8.97978
菲	-8.97989
耶	-8.97994
屬於	-8.98059
計劃	-8.98187
劍	-8.9838
靈	-8.9838
編	-8.98433
〉	-8.98586
网	-8.98715
余	-8.9878
服	-8.98991
裝	-8.9927
友	-8.99333
展	-8.99555
or	-8.99625
人物	-8.99647
對於	-8.99681
声	-9.00003
▁飾	-9.00012
的一个	-9.00016
存	-9.00045
冰	-9.00074
孙	-9.00152
岩	-9.00154
求	-9.00218
义	-9.00225
乐	-9.00321
退	-9.0033
民族	-9.00522
獨立	-9.00522
街道	-9.00604
寧	-9.00632
洪	-9.00647
攻擊	-9.00757
等人	-9.0077
發行	-9.01018
負責	-9.01094
泉	-9.01143
秋	-9.01372
麗	-9.01397
時代	-9.0143
德國	-9.01433
联	-9.01508
带	-9.01577
圈	-9.01703
專	-9.01841
孔	-9.01858
易	-9.01859
〈	-9.0191
全球	-9.02132
民主	-9.02355
貝	-9.02448
破	-9.02606
禮	-9.02682
拜	-9.02686
生物	-9.02722
al	-9.0276
是由	-9.02802
演	-9.02916
b	-9.03104
楼	-9.03189
娜	-9.03273
麻	-9.03302
参加	-9.03315
活动	-9.03325
陵	-9.03335
大部分	-9.03342
90	-9.03402
女子	-9.03409
希望	-9.03451
年至	-9.0354
沃	-9.03677
70	-9.03754
南部	-9.03786
故事	-9.0385
北部	-9.03858
附近	-9.03878
%	-9.03924
时间	-9.04212
郭	-9.04352
兒	-9.04394
复	-9.04443
列車	-9.04724
津	-9.04729
頓	-9.04737
变	-9.04753
款	-9.04777
远	-9.05166
然	-9.05205
歸	-9.05218
彈	-9.05311
包含	-9.05442
使得	-9.05514
園	-9.05552
两个	-9.05553
以下	-9.05571
吴	-9.05582
魏	-9.05675
導致	-9.05807
步	-9.05875
灣	-9.05953
▁第	-9.0596
網	-9.0604
庫	-9.0614
根據	-9.06178
l	-9.06253
運	-9.06259
后来	-9.06277
问题	-9.06442
戶	-9.06463
总人口	-9.06503
仙	-9.06515
兩個	-9.06535
进入	-9.06629
2005	-9.0673
期间	-9.07113
路線	-9.07118
澤	-9.07205
領	-9.07258
致	-9.0742
殺	-9.07431
计划	-9.07437
衣	-9.07441
詞	-9.0752
酸	-9.07608
溫	-9.07686
地球	-9.07784
巴士	-9.07825
境	-9.07837
選舉	-9.08081
紀	-9.08111
離	-9.0815
父	-9.08161
游戏	-9.08306
～	-9.08333
特別	-9.08347
拿	-9.08372
刀	-9.08493
西班牙	-9.0852
到了	-9.08626
发现	-9.0867
」、「	-9.08713
发生	-9.08717
倒	-9.08798
年度	-9.0887
方法	-9.08909
技術	-9.08935
驻	-9.0897
畫	-9.09103
仍然	-9.09336
全部	-9.09387
极	-9.09535
乃	-9.09604
d	-9.09694
伦	-9.09752
偏	-9.09793
振	-9.09842
应	-9.09872
重要	-9.09931
佳	-9.09956
的人	-9.10013
費	-9.10095
個人	-9.10374
功能	-9.10509
一名	-9.10558
推出	-9.10565
傷	-9.10565
遭	-9.10734
员	-9.10741
干	-9.10835
运动	-9.10842
按	-9.10926
中共	-9.10962
舉行	-9.10979
大量	-9.11016
萊	-9.11032
榮	-9.11056
贝	-9.11207
行動	-9.1124
之間	-9.11432
供	-9.11528
这一	-9.11668
实	-9.11734
播出	-9.11741
人士	-9.11763
加拿大	-9.11895
弗	-9.11943
洋	-9.11968
皇帝	-9.12364
形式	-9.12478
2004	-9.1258
2013	-9.12807
制度	-9.12815
游	-9.13018
桑	-9.13038
結果	-9.13066
藍	-9.13073
学生	-9.13094
現	-9.13098
歌曲	-9.13137
澳門	-9.13416
主持	-9.13568
写	-9.13723
渡	-9.13785
平均	-9.13814
00	-9.13991
產	-9.14052
音乐	-9.14085
滿	-9.14129
圓	-9.14134
追	-9.1417
旅	-9.14186
專輯	-9.14343
歷史	-9.14417
on	-9.14428
詩	-9.14484
什	-9.14501
宫	-9.14961
南京	-9.15105
决定	-9.15116
不同的	-9.15126
宗教	-9.15163
获	-9.15263
建築	-9.15327
面積	-9.15345
铁	-9.15448
家庭	-9.1559
35	-9.15724
模式	-9.15734
產生	-9.15746
武器	-9.15883
戈	-9.15887
略	-9.16032
茨	-9.16057
孝	-9.1614
独立	-9.16347
．	-9.16362
動畫	-9.1637
霍	-9.16468
死亡	-9.16583
末	-9.16589
股	-9.16617
容	-9.16706
岁	-9.1672
茶	-9.1675
球隊	-9.16751
库	-9.1687
！	-9.16873
繼續	-9.16963
環	-9.17063
浦	-9.17085
青年	-9.17136
來自	-9.1725
官方	-9.17306
许多	-9.17557
洞	-9.17696
树	-9.17741
公路	-9.17846
介	-9.17918
论	-9.17987
作家	-9.18065
见	-9.18162
槍	-9.18222
吃	-9.18239
u	-9.1828
結	-9.18432
第五	-9.18458
穆	-9.18467
历史	-9.18539
菜	-9.18703
爱	-9.18706
莉	-9.18834
慶	-9.18844
引	-9.18863
超過	-9.18874
这种	-9.19048
或者	-9.19049
象	-9.19065
肉	-9.19101
人類	-9.19124
炮	-9.19327
公共	-9.19365
臺	-9.19434
面积	-9.19519
h	-9.19554
园	-9.19558
词	-9.19559
g	-9.19565
欧洲	-9.19639
▁S	-9.19674
劇	-9.19732
幾	-9.19744
？	-9.19759
工业	-9.19905
藤	-9.20067
卫	-9.20156
豪	-9.20396
有關	-9.20399
质	-9.2045
單位	-9.20503
晚	-9.20549
喜	-9.20743
号线	-9.20822
鄭	-9.20892
透過	-9.20901
典	-9.2091
導	-9.20977
齊	-9.2103
飾演	-9.21138
指出	-9.2128
产	-9.21337
集團	-9.21485
藝術	-9.21512
赤	-9.21585
是在	-9.2159
地下	-9.21728
家族	-9.21918
池	-9.21976
侯	-9.22011
烏	-9.22029
战争	-9.22039
有限公司	-9.22137
建设	-9.22166
們	-9.22177
最终	-9.22225
不是	-9.22392
遭到	-9.22441
等地	-9.22492
o	-9.22503
乘	-9.22521
東京	-9.22583
一位	-9.22595
柱	-9.22627
傳統	-9.2269
轮	-9.2284
越南	-9.22864
附	-9.22894
意大利	-9.23015
注	-9.23033
順	-9.232
機場	-9.23254
件	-9.2329
這種	-9.23308
温	-9.23353
命名	-9.23416
例	-9.23426
姓	-9.23568
陸	-9.23623
最大的	-9.2364
必須	-9.23705
衛	-9.2372
需	-9.23729
聯盟	-9.23737
翼	-9.23763
載	-9.23778
鳥	-9.23809
分別	-9.2389
助	-9.2392
厂	-9.23922
叫	-9.23958
養	-9.24026
共有	-9.24042
傑	-9.24129
席	-9.24291
生產	-9.24347
车站	-9.24454
en	-9.24463
十分	-9.24489
開發	-9.24521
敏	-9.24561
潮	-9.24573
第一次	-9.24629
改為	-9.24638
別	-9.24656
英文	-9.247
征	-9.2483
刻	-9.2483
舉	-9.24958
隨	-9.24959
ar	-9.2506
蒙古	-9.25062
告	-9.25077
三年	-9.25244
廳	-9.25293
設有	-9.25438
舞	-9.25568
结构	-9.25606
復	-9.25659
授	-9.25696
蔡	-9.25789
銀	-9.25804
部隊	-9.25867
生产	-9.25888
攻	-9.25972
位置	-9.26031
改革	-9.26085
不久	-9.26104
份	-9.26377
柏	-9.2649
採用	-9.26498
豐	-9.26653
柯	-9.2666
露	-9.26694
大型	-9.26762
鐵路	-9.2677
环	-9.26784
沒	-9.26849
著名	-9.26865
杰	-9.26867
很多	-9.26951
归	-9.26987
部份	-9.27045
2020	-9.27047
欧	-9.2705
2003	-9.27052
击	-9.27112
科技	-9.27126
毒	-9.27298
兄弟	-9.27415
馆	-9.27427
相關	-9.27443
信息	-9.27456
道路	-9.27459
健	-9.27482
男子	-9.27511
ing	-9.27603
奉	-9.27677
回到	-9.27699
Y	-9.27708
冷	-9.2771
辛	-9.27764
中华人民共和国	-9.27767
勢	-9.27796
零	-9.27798
難	-9.27822
計畫	-9.27851
郎	-9.27892
始	-9.28085
只是	-9.28132
左右	-9.28185
200	-9.28194
曾經	-9.28218
燕	-9.28277
戰鬥	-9.28325
2001	-9.28343
主义	-9.28413
幼	-9.28423
韓國	-9.28449
尊	-9.28469
羽	-9.2847
觀	-9.28483
每年	-9.28487
灵	-9.28488
演員	-9.28553
鬼	-9.2861
▁B	-9.28618
小說	-9.28652
元年	-9.2867
絲	-9.28732
45	-9.28766
（，）	-9.28787
Z	-9.28977
出现	-9.29047
务	-9.29051
套	-9.29135
洲	-9.29143
十二	-9.29211
晋	-9.29218
聽	-9.2934
48	-9.29425
相當	-9.2944
遊	-9.29527
台北	-9.29569
曹	-9.29586
凱	-9.29626
但在	-9.29633
关系	-9.29655
分析	-9.29792
re	-9.2987
描述	-9.29879
另一	-9.29896
以上	-9.29899
性的	-9.29983
拥有	-9.30161
藥	-9.30202
謝	-9.30209
剧	-9.30266
一樣	-9.30272
新的	-9.30298
中文	-9.30354
公尺	-9.30403
保護	-9.30469
运	-9.30517
瑪	-9.30537
結束	-9.30806
歌手	-9.30841
飾	-9.30854
固	-9.30855
公園	-9.30863
艦	-9.30936
职	-9.30945
西部	-9.30998
人員	-9.31023
批	-9.31025
銀行	-9.31089
▁A	-9.31158
駐	-9.31306
服务	-9.31322
耳	-9.31353
持	-9.31409
的主要	-9.31447
內容	-9.31504
護	-9.31566
味	-9.31604
廠	-9.31688
玩家	-9.31813
天津	-9.31995
請	-9.31998
鱼	-9.32022
早期	-9.32093
讀	-9.32107
主任	-9.32209
眾	-9.32304
称为	-9.32321
记	-9.3237
扎	-9.32449
表演	-9.32453
倍	-9.32472
能夠	-9.32552
齐	-9.32679
柳	-9.32725
顯示	-9.32745
▁2012	-9.32841
赵	-9.32842
私	-9.32855
苏联	-9.32967
會議	-9.3302
珠	-9.33058
装	-9.3306
现	-9.33094
军事	-9.33097
料	-9.33157
榜	-9.33166
移	-9.33221
有些	-9.33284
製	-9.33289
语言	-9.33315
父親	-9.33374
芳	-9.33416
并且	-9.33416
亞洲	-9.33427
用于	-9.33467
其後	-9.33497
500	-9.33579
農	-9.33581
呈	-9.33583
趙	-9.33604
禁	-9.33634
亮	-9.33665
礼	-9.33672
影响	-9.33856
元素	-9.33916
項	-9.33924
語言	-9.34092
犯	-9.34102
1990	-9.34173
麥	-9.34242
區域	-9.343
總統	-9.3431
集团	-9.3433
基地	-9.34402
年起	-9.34467
茲	-9.34478
調查	-9.34697
作用	-9.34746
去世	-9.34796
動物	-9.35006
我們	-9.35087
御	-9.35098
童	-9.35122
資料	-9.35208
32	-9.35259
原本	-9.35329
el	-9.35337
含	-9.35347
甘	-9.3537
分子	-9.3544
抗	-9.35472
遂	-9.35477
赴	-9.35529
2002	-9.35534
公主	-9.35546
環境	-9.35555
俊	-9.35659
主義	-9.35751
側	-9.35834
凡	-9.35889
於是	-9.3593
問	-9.35954
相同	-9.35966
基本	-9.35969
▁李	-9.36015
之间	-9.3612
熊	-9.36174
le	-9.36175
帝國	-9.36225
列车	-9.36328
域	-9.36371
境内	-9.36416
昭	-9.3643
標	-9.36433
机构	-9.36446
經過	-9.3645
速度	-9.36593
卢	-9.36634
当地	-9.36643
聯合	-9.36722
保持	-9.36853
是下辖的一个乡镇级行政单位	-9.36923
當地	-9.36958
兹	-9.37012
狀	-9.37014
乌	-9.3706
费	-9.37096
拍	-9.37165
組成	-9.37169
琴	-9.3724
現在	-9.37264
z	-9.37288
最初	-9.37305
唯一	-9.37333
▁C	-9.37377
1998	-9.37404
距離	-9.37455
她的	-9.37597
2014	-9.37649
招	-9.37649
保护	-9.37732
科學	-9.37741
背	-9.37847
夢	-9.37894
限	-9.37931
算	-9.38058
限制	-9.38074
思想	-9.38077
至今	-9.38095
清朝	-9.3813
随	-9.38202
最大	-9.38218
並在	-9.38256
市場	-9.3828
祥	-9.38375
中學	-9.38395
1999	-9.38439
漫畫	-9.38517
土地	-9.38735
獨	-9.38742
关于	-9.38747
36	-9.38826
寬	-9.38827
儿	-9.38839
舍	-9.38886
資	-9.3893
话	-9.38933
探	-9.39097
西北	-9.39276
x	-9.39327
农	-9.39356
▁2010	-9.39399
成员	-9.39419
会议	-9.39434
出任	-9.39682
画	-9.39795
紫	-9.39803
首都	-9.39865
us	-9.39882
科学	-9.39904
巨	-9.39911
高中	-9.39944
全國	-9.40071
活	-9.40208
的一個	-9.40258
協會	-9.40262
→	-9.40371
球員	-9.40373
取代	-9.4039
俄罗斯	-9.40414
丘	-9.40434
楚	-9.40471
▁P	-9.40647
選擇	-9.40652
默	-9.40725
警察	-9.40745
休	-9.40761
组成	-9.40826
賽事	-9.40846
岡	-9.40852
引起	-9.40875
執行	-9.40962
总统	-9.41053
掉	-9.41215
研究所	-9.41268
是法国	-9.41293
敬	-9.41305
軍事	-9.41347
旁	-9.41371
糖	-9.41393
發表	-9.41428
一種	-9.41467
擊敗	-9.41486
曰	-9.41495
急	-9.41655
对于	-9.41661
離開	-9.41892
新加坡	-9.41898
述	-9.41904
俄	-9.41946
錢	-9.41951
w	-9.42004
普通	-9.42019
電子	-9.4207
加上	-9.42107
申	-9.42112
和平	-9.42147
范	-9.4215
精神	-9.42171
則是	-9.42199
王朝	-9.42208
盧	-9.42258
1997	-9.42316
是一个	-9.42346
户	-9.424
喜歡	-9.42458
當中	-9.42491
價	-9.42502
项	-9.42548
待	-9.42555
紀錄	-9.4259
海軍	-9.42632
尤	-9.4275
頂	-9.42819
宜	-9.42823
團體	-9.42844
腳	-9.42909
盡	-9.42923
顶	-9.4298
宇	-9.4299
艺术	-9.42998
標準	-9.43029
反应	-9.43071
▁F	-9.43116
▁M	-9.43125
'	-9.43165
一年	-9.43173
市镇	-9.43179
唱	-9.43221
省的一个市镇	-9.43231
岸	-9.43239
大臣	-9.43288
弱	-9.43317
是否	-9.4332
現代	-9.43402
刺	-9.4346
▁2013	-9.4361
却	-9.43688
餘	-9.4374
仅	-9.43775
▁2011	-9.43802
38	-9.43808
编	-9.43866
輕	-9.43898
斗	-9.44036
专	-9.44092
還有	-9.4419
二年	-9.44306
+	-9.4439
證	-9.44401
结	-9.44462
巴黎	-9.44516
墓	-9.4471
在此	-9.44742
伏	-9.44808
益	-9.44854
黎	-9.44926
勇	-9.44928
協助	-9.4495
庆	-9.44979
流行	-9.45025
反對	-9.45048
烈	-9.45048
羊	-9.45049
部队	-9.45062
奏	-9.45062
乙	-9.45112
彭	-9.45112
創作	-9.45169
兩人	-9.45274
盤	-9.45459
過去	-9.45597
建造	-9.45609
▁2008	-9.45685
33	-9.45693
據	-9.45738
博士	-9.4577
跳	-9.45844
多次	-9.45857
臨	-9.45871
潘	-9.45877
荷	-9.45966
暴	-9.46014
將軍	-9.46153
军队	-9.46304
絕	-9.46415
采用	-9.46509
迷	-9.4655
跨	-9.46552
媒體	-9.46635
機構	-9.467
37	-9.4673
及其	-9.46768
另	-9.46829
醫院	-9.4684
中学	-9.46869
蓋	-9.46893
優	-9.47017
载	-9.4712
先生	-9.47175
宽	-9.47184
設立	-9.47193
崇	-9.47232
創	-9.47251
蛇	-9.47269
彩	-9.47333
鹿	-9.47395
几	-9.47411
貴	-9.47485
机场	-9.47504
2015	-9.47532
偉	-9.47534
議員	-9.4755
苦	-9.47573
出生	-9.47593
二世	-9.47674
處理	-9.47702
西南	-9.47713
企业	-9.47775
1980	-9.47785
桂	-9.47921
塘	-9.47961
昂	-9.48015
还有	-9.48122
生命	-9.48181
韓	-9.48204
接近	-9.48206
工業	-9.48427
綠	-9.48432
-1	-9.48475
這是	-9.48479
試	-9.48677
導演	-9.48917
完	-9.48927
举	-9.4893
計	-9.49043
教堂	-9.49129
必	-9.49134
紀念	-9.49136
廷	-9.49217
▁2009	-9.49244
聚	-9.4929
为了	-9.49292
浙江	-9.49386
葛	-9.494
陣	-9.49406
不可	-9.49502
飞	-9.49573
因而	-9.49583
厅	-9.49608
力量	-9.4961
据	-9.49654
術	-9.49681
玄	-9.49694
34	-9.49821
控	-9.49822
俄羅斯	-9.49823
2016	-9.4991
莎	-9.49943
不再	-9.49991
临	-9.50008
我们	-9.50021
是一個	-9.50108
序	-9.50204
较	-9.50265
不會	-9.50266
第六	-9.50311
示	-9.5038
泽	-9.50446
敗	-9.50476
旧	-9.50544
理论	-9.50589
开发	-9.50624
杯	-9.5063
珍	-9.50706
太陽	-9.50714
炎	-9.50764
名稱	-9.50772
莊	-9.50914
宏	-9.50917
掌	-9.50942
經營	-9.51016
製造	-9.51046
虽然	-9.51124
曾任	-9.5117
停止	-9.5119
隨著	-9.51221
獸	-9.51232
方案	-9.51238
晉	-9.513
观	-9.51305
粉	-9.51321
数据	-9.51393
監	-9.51465
類似	-9.51529
冠军	-9.51531
訓練	-9.51672
沈	-9.51683
快速	-9.51734
项目	-9.51814
孟	-9.51815
牙	-9.51861
毫米	-9.51958
”（	-9.52004
庭	-9.52059
牧	-9.52079
一世	-9.5212
須	-9.52179
厚	-9.52198
播	-9.52261
廟	-9.52295
诗	-9.52325
範圍	-9.52329
300	-9.52337
崎	-9.52345
都有	-9.52347
祭	-9.52496
2021	-9.52553
别	-9.52578
經常	-9.52657
繼	-9.52659
藩	-9.52696
日起	-9.52697
材料	-9.52717
壽	-9.52731
坐	-9.52731
（，），	-9.52739
賢	-9.52782
興建	-9.52796
名為	-9.52826
标准	-9.52857
諸	-9.52858
或是	-9.52872
暗	-9.52941
2019	-9.52961
银行	-9.52972
杀	-9.52974
领导	-9.53064
弟	-9.53119
隔	-9.53171
堅	-9.5321
一定	-9.53264
圍	-9.53339
斷	-9.53427
議	-9.53485
一种	-9.53485
壓	-9.53497
同意	-9.53498
最后	-9.53579
：《	-9.53615
鼓	-9.53691
文學	-9.53711
返回	-9.53712
四川	-9.53801
天主教	-9.5383
仔	-9.53863
歷	-9.53962
亲	-9.54003
止	-9.54008
人员	-9.54055
广州	-9.54104
亂	-9.54105
少年	-9.54107
盃	-9.54148
ur	-9.54178
区域	-9.5423
辦	-9.54324
句	-9.54438
夫人	-9.54486
念	-9.54491
举行	-9.54532
仲	-9.5454
儀	-9.54549
是指	-9.5456
地位	-9.54587
满	-9.54605
现代	-9.54697
電腦	-9.54752
它们	-9.54757
东北	-9.54788
导致	-9.54796
免	-9.5484
▁大	-9.54938
太平洋	-9.55011
岳	-9.55072
负责	-9.55109
商業	-9.55154
1996	-9.55189
胜	-9.55218
灰	-9.55223
項目	-9.55275
皇后	-9.5529
克斯	-9.5545
is	-9.55484
剛	-9.5551
壁	-9.55594
经过	-9.55595
硬	-9.55598
委员	-9.55702
西方	-9.5574
舉辦	-9.55815
只能	-9.55827
浮	-9.55889
陶	-9.5594
药	-9.55958
离	-9.55975
银	-9.55981
设立	-9.56117
基督教	-9.562
震	-9.56207
空間	-9.56259
佔	-9.5632
佛教	-9.56414
身份	-9.56442
激	-9.56463
济	-9.56501
55	-9.56521
靜	-9.56558
宇宙	-9.56579
軍隊	-9.56608
传统	-9.56665
异	-9.56692
唱片	-9.56712
]	-9.56764
如此	-9.56783
冬	-9.56796
支援	-9.56939
各種	-9.56991
資訊	-9.57017
专业	-9.57091
借	-9.5714
历	-9.57168
2017	-9.57348
知道	-9.57462
重建	-9.57482
出版社	-9.57503
芬	-9.57627
它的	-9.5763
橫	-9.57658
非洲	-9.57666
▁2014	-9.57861
拍攝	-9.57929
嚴重	-9.58
徒	-9.5808
初期	-9.58144
聯賽	-9.58285
有效	-9.58285
学习	-9.58291
沿	-9.58322
制作	-9.58332
文件	-9.58396
額	-9.58429
文字	-9.58447
顺	-9.58453
律	-9.58529
台湾	-9.58639
滑	-9.58643
理論	-9.58686
南方	-9.58735
,000	-9.58866
肯	-9.58871
39	-9.58907
結構	-9.58962
护	-9.59046
▁2007	-9.59077
涅	-9.59086
穿	-9.59094
状	-9.5912
為主	-9.59154
联合	-9.59155
亭	-9.59323
細	-9.59339
瑟	-9.59357
继续	-9.59362
逃	-9.59431
超級	-9.59433
國王	-9.59436
视	-9.59436
不少	-9.59437
症	-9.59489
浪	-9.59613
湾	-9.59667
刑	-9.59674
尖	-9.59677
補	-9.59736
公民	-9.59742
任務	-9.59827
勤	-9.59849
程度	-9.59875
瓜	-9.59877
居住	-9.5994
孩子	-9.59984
2018	-9.60208
以前	-9.60329
皇家	-9.60424
其它	-9.60428
耀	-9.60452
钱	-9.60528
朝鲜	-9.60553
改为	-9.60618
分鐘	-9.6063
威廉	-9.60666
顿	-9.60696
姬	-9.60738
庙	-9.60745
刊	-9.60779
備	-9.60873
察	-9.60879
而在	-9.60939
英雄	-9.61023
中華	-9.61025
播放	-9.61031
某	-9.61077
命令	-9.6108
导	-9.61092
韦	-9.61103
收入	-9.61138
以來	-9.61139
at	-9.61156
47	-9.6116
标	-9.6116
1995	-9.61224
文学	-9.61452
现在	-9.61614
直至	-9.61629
们	-9.61633
婚	-9.61643
終	-9.61655
参	-9.61683
环境	-9.61692
並於	-9.61844
未能	-9.61899
目標	-9.61902
1994	-9.61919
企業	-9.6201
联邦	-9.62033
特殊	-9.62066
電視劇	-9.62068
燈	-9.62071
分布于	-9.6213
欲	-9.62133
超过	-9.62178
丰	-9.62197
国王	-9.62284
充	-9.62301
予	-9.62306
邨	-9.62328
福建	-9.62486
网络	-9.62582
坦	-9.62618
影片	-9.62633
學習	-9.62703
的一部分	-9.62741
公分	-9.62762
准	-9.628
三個	-9.62813
魔法	-9.62842
改變	-9.62889
压	-9.62925
評	-9.62942
时代	-9.62956
球队	-9.63026
逐漸	-9.63126
的地方	-9.63135
提高	-9.63258
电子	-9.63275
玛	-9.63331
主教	-9.63392
”、“	-9.63413
来自	-9.63446
持續	-9.63541
筆	-9.63562
輝	-9.63575
億	-9.63587
飛機	-9.63604
呂	-9.63645
並不	-9.63653
高度	-9.63737
最早	-9.63758
之外	-9.63789
列表	-9.63806
这是	-9.63809
職業	-9.63811
小時	-9.63944
相关	-9.64068
枚	-9.64077
磁	-9.64131
旋	-9.64204
联赛	-9.64217
▁2006	-9.64217
再度	-9.64233
盖	-9.64296
弘	-9.64298
浩	-9.64417
1993	-9.64422
妻	-9.64484
貓	-9.64487
程序	-9.64524
金融	-9.64536
达到	-9.64578
裕	-9.64657
一同	-9.64843
效	-9.65015
年間	-9.65097
課	-9.65136
濟	-9.65147
物理	-9.6515
賀	-9.65284
四年	-9.65322
各地	-9.65382
本身	-9.65405
75	-9.65407
茂	-9.65453
公開	-9.65484
）；	-9.65521
断	-9.65558
的方式	-9.65685
一座	-9.65697
隧道	-9.65845
听	-9.65883
新闻	-9.65917
距离	-9.65937
中部	-9.65948
随后	-9.6595
森林	-9.66016
枝	-9.66126
……	-9.66149
看到	-9.66212
发行	-9.6625
46	-9.66265
湖南	-9.66274
哲	-9.66279
第七	-9.66343
动物	-9.66359
–	-9.66374
賣	-9.66415
變成	-9.6643
作曲	-9.66451
慈	-9.66485
1992	-9.66491
取消	-9.66491
役	-9.66515
琳	-9.66538
许	-9.66559
負	-9.66591
空间	-9.66592
乾	-9.66719
明朝	-9.66724
42	-9.66728
医院	-9.66818
参与	-9.66843
凯	-9.6687
砲	-9.66882
沉	-9.6698
幕	-9.67065
独	-9.67126
距	-9.67127
《》	-9.67186
陰	-9.67191
领	-9.67235
昭和	-9.67291
週	-9.67376
棋	-9.67453
感到	-9.67495
蘇聯	-9.675
葬	-9.67504
策	-9.67548
呼	-9.6755
笑	-9.67552
采	-9.67565
議會	-9.67602
之下	-9.67638
建成	-9.67676
海军	-9.67735
主演	-9.67736
韋	-9.67748
▁G	-9.67776
錄	-9.67788
坊	-9.67959
報告	-9.6798
巴西	-9.67984
登場	-9.68065
折	-9.68067
名字	-9.6811
甚	-9.68166
避免	-9.68196
一家	-9.68282
作戰	-9.68299
換	-9.68339
配合	-9.68439
乘客	-9.68497
談	-9.68513
帝国	-9.68515
纪	-9.68521
學者	-9.68531
妮	-9.6869
日至	-9.68705
44	-9.68776
投票	-9.68792
僧	-9.68827
韩	-9.68833
重要的	-9.68888
丸	-9.68888
模	-9.68908
簡稱	-9.68957
化学	-9.68985
单位	-9.69044
豆	-9.69086
相似	-9.69131
害	-9.69177
嚴	-9.69207
簡	-9.69229
无法	-9.69293
：），	-9.69306
迁	-9.69334
陸軍	-9.69397
逝世	-9.69408
河南	-9.69479
▁|	-9.69514
敵	-9.69551
裂	-9.69625
亦有	-9.69642
丽	-9.69658
秒	-9.69659
ol	-9.69691
大陸	-9.69708
事務	-9.69831
爆	-9.69848
隨後	-9.69851
地铁	-9.69851
背景	-9.69879
設置	-9.69895
集中	-9.69899
ri	-9.69914
鏡	-9.69915
韩国	-9.69983
遺	-9.70036
白色	-9.70044
结果	-9.70159
原因	-9.70238
制造	-9.7026
同樣	-9.70261
la	-9.70361
大樓	-9.7038
法院	-9.70385
2022	-9.7042
敦	-9.70492
跑	-9.70506
爲	-9.70539
男性	-9.70575
酒店	-9.70578
设有	-9.706
譯	-9.70637
主角	-9.70642
批准	-9.70673
▁2015	-9.7069
設施	-9.70704
阿尔	-9.70723
袁	-9.70752
分為	-9.70805
ra	-9.7086
坡	-9.70865
分别	-9.70888
弹	-9.70943
未來	-9.70949
64	-9.71088
ic	-9.71238
士兵	-9.71253
揚	-9.71258
产生	-9.71273
身體	-9.71283
模型	-9.71283
罗马	-9.71317
父亲	-9.71338
液	-9.71422
谢	-9.71613
年间	-9.71645
藝	-9.71679
樂團	-9.71691
58	-9.71723
荒	-9.71819
拳	-9.71867
曾在	-9.7189
怪	-9.71891
都市	-9.71938
1991	-9.71946
额	-9.71952
候	-9.72063
阻	-9.72154
協	-9.72186
比較	-9.72211
||	-9.72257
惡	-9.72301
幸	-9.72359
引擎	-9.72384
▁2019	-9.72392
桃	-9.72462
不足	-9.72515
小说	-9.72571
緣	-9.72575
保留	-9.72592
宣佈	-9.72617
正在	-9.72632
才能	-9.72705
番	-9.72745
il	-9.72812
▁阿	-9.72862
细胞	-9.72932
一切	-9.72986
突	-9.72998
-2	-9.73132
移民	-9.73171
鼠	-9.73175
展開	-9.73198
反对	-9.73203
戀	-9.7323
賴	-9.73289
公园	-9.73333
圆	-9.7338
租	-9.73394
作者	-9.73397
65	-9.73404
横	-9.7342
提名	-9.73461
卓	-9.73502
联盟	-9.73524
母親	-9.73526
二十	-9.73563
產品	-9.73627
之間的	-9.73647
分为	-9.73684
办	-9.73693
鳳	-9.737
平台	-9.73705
翁	-9.73715
之子	-9.73718
普遍	-9.73779
比赛	-9.73789
營運	-9.7379
▁2017	-9.73833
九龍	-9.7387
技	-9.7391
▁王	-9.73956
样	-9.73988
墨	-9.74002
息	-9.74062
建議	-9.74084
人类	-9.74103
國立	-9.74135
群島	-9.74154
的研究	-9.7419
禁止	-9.74222
▁香港	-9.74231
的新	-9.74354
雜誌	-9.74367
外交	-9.74379
it	-9.74399
聯邦	-9.74495
▁T	-9.745
勞	-9.74552
盘	-9.74559
連接	-9.74563
五年	-9.7462
市民	-9.74636
坑	-9.74702
安排	-9.74732
委員	-9.74801
如下	-9.74803
王國	-9.74816
资	-9.74906
▁2016	-9.74928
少女	-9.74944
1970	-9.75012
小學	-9.75068
▁H	-9.75161
參	-9.75234
指揮	-9.75272
襲	-9.75291
乾隆	-9.75292
43	-9.75315
混	-9.75373
古代	-9.75429
49	-9.75492
盐	-9.755
醫	-9.75511
努	-9.75522
互	-9.75546
消	-9.75572
變化	-9.75591
啟	-9.75671
洗	-9.75687
交流	-9.75712
如何	-9.75721
指挥	-9.75838
斯坦	-9.75871
符	-9.76013
出口	-9.76019
妃	-9.76059
公布	-9.76064
提升	-9.76069
廣播	-9.76089
援	-9.76128
任命	-9.76185
恢复	-9.76204
随着	-9.76229
可能是	-9.76255
海岸	-9.76332
澳洲	-9.76361
商业	-9.76376
吕	-9.76379
56	-9.76428
中山	-9.7643
等等	-9.76466
赛季	-9.76629
統治	-9.76651
中國大陸	-9.76662
巡	-9.76665
陆	-9.76667
湘	-9.7668
ia	-9.76693
郑	-9.76709
它們	-9.76763
現時	-9.76925
艘	-9.7693
议	-9.77016
入侵	-9.77111
一度	-9.7713
朋友	-9.77152
城区	-9.77159
▁2018	-9.77161
被稱為	-9.77304
旺	-9.77315
疑	-9.7732
不过	-9.77336
▁W	-9.77361
难	-9.77368
規定	-9.77481
倫敦	-9.77488
用於	-9.77506
月台	-9.77508
v	-9.77533
輔	-9.77596
達到	-9.7767
有一	-9.77694
选择	-9.77736
倉	-9.77743
协会	-9.77765
預	-9.77771
舰	-9.77802
400	-9.77805
社区	-9.77855
读	-9.77879
内容	-9.77905
et	-9.77927
娛樂	-9.77931
执行	-9.77951
全面	-9.77974
電視台	-9.78003
农业	-9.7801
统	-9.78011
▁2005	-9.78024
黑色	-9.7809
霸	-9.78101
健康	-9.78101
市场	-9.78127
撒	-9.78191
反應	-9.78211
表面	-9.78218
宿	-9.78364
妻子	-9.78378
操作	-9.78419
狗	-9.78432
函数	-9.78438
（15	-9.78441
羅馬	-9.78445
下的	-9.78485
蓮	-9.78609
講	-9.7863
北方	-9.78638
1988	-9.78653
侍	-9.78673
幫助	-9.787
规定	-9.78724
瑞典	-9.78827
Q	-9.78865
之中	-9.78877
約翰	-9.78917
態	-9.78927
純	-9.78958
诸	-9.79011
鬥	-9.79066
一條	-9.79082
交易	-9.79141
而是	-9.79182
即使	-9.79197
遷	-9.79249
有关	-9.79278
維持	-9.79311
舒	-9.79333
任务	-9.79338
誠	-9.79377
食物	-9.79403
字母	-9.79426
箱	-9.79434
の	-9.79446
实现	-9.79526
捷	-9.79539
是一種	-9.79552
育	-9.79568
賓	-9.79574
英格蘭	-9.79584
必须	-9.79585
行為	-9.79617
岭	-9.79653
董	-9.79659
然後	-9.79678
1989	-9.7972
整個	-9.79828
崔	-9.79878
高速	-9.79896
此后	-9.79898
找到	-9.79919
戲	-9.80011
覺	-9.80013
英語	-9.80054
髮	-9.80104
賈	-9.8011
誤	-9.80129
泥	-9.80131
天皇	-9.80155
1950	-9.80176
繼承	-9.80201
十三	-9.80232
麦	-9.80251
效果	-9.80359
连接	-9.80438
失去	-9.80438
懷	-9.80448
th	-9.80467
慧	-9.80485
牠們	-9.80579
爆發	-9.80587
共和国	-9.80636
蟲	-9.8068
年底	-9.80681
瑞士	-9.80818
開放	-9.80821
兒童	-9.80859
固定	-9.80952
水平	-9.80952
自治	-9.80981
海洋	-9.80991
傅	-9.81225
线路	-9.81247
原子	-9.81278
餐	-9.81408
能够	-9.81454
57	-9.81539
▁K	-9.81541
連續	-9.81572
階段	-9.81581
阿拉伯	-9.81703
发布	-9.81775
民国	-9.81795
盟	-9.81874
▁D	-9.81909
媒体	-9.81912
迅速	-9.8192
地面	-9.81922
养	-9.81979
業務	-9.82005
特色	-9.8201
而成	-9.82051
调查	-9.82127
既	-9.82137
稅	-9.82137
裏	-9.8221
1960	-9.82213
記載	-9.82227
41	-9.82246
小时	-9.82252
忍	-9.82321
节目	-9.82324
痛	-9.8235
海拔	-9.82448
撤销	-9.82479
st	-9.82495
海外	-9.82542
避	-9.82569
狀態	-9.82589
荷蘭	-9.82603
減少	-9.82624
玩	-9.82707
试	-9.82728
优	-9.82746
ch	-9.82807
改造	-9.82811
矿	-9.82868
译	-9.82875
广东	-9.82895
鐵道	-9.829
作出	-9.82959
行动	-9.82985
按照	-9.83026
大小	-9.83093
破壞	-9.83131
留下	-9.83209
兄	-9.83212
父母	-9.83336
伤	-9.83372
有著	-9.8344
菌	-9.8347
鹽	-9.83476
li	-9.83482
出身	-9.8349
的一个市镇	-9.83533
遇	-9.83553
錦	-9.83616
審	-9.83639
疏	-9.83706
代理	-9.83746
本站	-9.83891
南北	-9.84015
著名的	-9.84064
都會	-9.84143
结束	-9.84252
54	-9.84272
憲	-9.84306
迎	-9.84352
电视	-9.84356
的作品	-9.84367
幾乎	-9.84375
三个	-9.84406
的時候	-9.8453
广场	-9.84533
還是	-9.84603
指定	-9.84663
枪	-9.84676
是中国	-9.84677
定义	-9.84687
批評	-9.8478
53	-9.84812
網路	-9.84824
吾	-9.84836
怀	-9.84877
恢復	-9.84878
西藏	-9.84906
民國	-9.8492
自動	-9.84925
辖	-9.84931
腹	-9.84935
演唱	-9.84941
關於	-9.84952
ad	-9.84964
戰役	-9.84981
得以	-9.84987
因素	-9.85005
十六	-9.85034
某些	-9.85137
君主	-9.85149
合併	-9.8521
坎	-9.85284
分布	-9.85335
各种	-9.85383
十年	-9.85421
被称为	-9.85466
組合	-9.85544
又稱	-9.85653
以後	-9.85734
而被	-9.8575
得知	-9.85788
飛行	-9.8588
并在	-9.85906
階	-9.85935
处理	-9.85947
ro	-9.86073
59	-9.86087
缺乏	-9.86111
蕭	-9.86124
之间的	-9.86186
hans	-9.86192
狂	-9.86243
又名	-9.86307
轻	-9.86374
1945	-9.86399
发表	-9.86498
敌	-9.86545
投資	-9.86561
狼	-9.86627
基因	-9.86634
澳	-9.86654
博物馆	-9.86742
太子	-9.86754
斑	-9.86791
概念	-9.86794
产品	-9.8686
秘密	-9.86906
一条	-9.86928
证	-9.86929
▁of	-9.87015
臺北	-9.8704
侧	-9.87058
静	-9.87119
貿易	-9.87167
排名	-9.87195
兆	-9.87234
表現	-9.87244
捕	-9.87263
膜	-9.87309
比例	-9.8732
▁由於	-9.87338
缺	-9.87416
52	-9.87445
同盟	-9.8745
卿	-9.87468
裔	-9.87546
个人	-9.8757
體育	-9.87582
偶	-9.87594
屯	-9.87596
樣	-9.87623
1985	-9.87646
廢	-9.8766
尽管	-9.87732
相信	-9.87808
;}-	-9.87873
备	-9.879
应用	-9.87907
乳	-9.87979
汽車	-9.88037
价	-9.88048
淡	-9.88093
荣	-9.88115
犬	-9.88134
顯	-9.88156
运营	-9.88166
錫	-9.88183
雖	-9.88206
建設	-9.8821
高速公路	-9.88272
2,	-9.88303
约翰	-9.88364
植	-9.88435
小型	-9.88448
第二次	-9.88559
決賽	-9.8859
一段	-9.88593
司法	-9.88642
答	-9.88649
拒絕	-9.88783
正常	-9.88787
1986	-9.88863
高雄	-9.88866
靖	-9.88927
核心	-9.88976
氧化	-9.8898
事故	-9.88982
畢業	-9.8901
飞机	-9.89024
疾病	-9.89048
車輛	-9.89158
人们	-9.89335
單曲	-9.89336
統	-9.89339
的重要	-9.89353
湯	-9.89447
一帶	-9.89452
深圳	-9.89464
焦	-9.89507
冲	-9.89575
战役	-9.89692
贵	-9.89756
先后	-9.89758
品牌	-9.89808
es	-9.89825
積	-9.89836
塊	-9.89946
埃及	-9.89953
沟	-9.89974
此時	-9.90027
不斷	-9.90029
▁L	-9.90031
碑	-9.90052
记载	-9.90066
替	-9.90129
廣場	-9.90148
運輸	-9.90152
海域	-9.90229
訂	-9.9027
太空	-9.90288
更加	-9.90289
以色列	-9.90306
廣州	-9.90312
天下	-9.90355
坪	-9.90356
狄	-9.90367
召	-9.90386
統一	-9.90483
王子	-9.90498
▁2004	-9.90501
腦	-9.90563
續	-9.90571
▁新	-9.90577
紙	-9.90582
配音	-9.90597
址	-9.90601
▁陳	-9.90619
河畔	-9.90625
东部	-9.90626
99	-9.90641
降低	-9.90678
食品	-9.90694
鼻	-9.90697
朝鮮	-9.907
衝	-9.90761
纪念	-9.90797
统治	-9.9083
1987	-9.90831
的小	-9.90938
88	-9.90968
改善	-9.91005
1946	-9.91014
爆炸	-9.91016
逐渐	-9.91083
一样	-9.91087
網站	-9.91107
被迫	-9.91122
中国人民解放军	-9.91125
方言	-9.9114
薄	-9.91245
规划	-9.91268
ed	-9.91277
审	-9.91277
运行	-9.91323
保存	-9.91444
工人	-9.91457
退出	-9.91461
教會	-9.91506
減	-9.91526
严重	-9.91536
76	-9.91555
以来	-9.91588
共和國	-9.91619
山东	-9.91831
围	-9.91847
逆	-9.91863
二人	-9.92004
革	-9.9207
覆	-9.9212
也可以	-9.92137
欣	-9.92148
拉斯	-9.92192
的名字	-9.92229
發射	-9.92244
计	-9.92251
行星	-9.92255
预	-9.92265
東北	-9.92284
數量	-9.92315
亡	-9.92321
葡萄牙	-9.92401
68	-9.92431
The	-9.92437
1984	-9.92443
51	-9.92519
報導	-9.92526
锡	-9.92544
氧	-9.92595
选举	-9.92598
廣告	-9.92616
並沒有	-9.92662
年人口	-9.92671
吸	-9.92733
合成	-9.92738
提到	-9.92739
不得	-9.92768
培	-9.92857
议会	-9.92885
最多	-9.92928
》（）	-9.92974
修改	-9.92994
咸	-9.93036
丝	-9.93139
惟	-9.93198
己	-9.932
和其他	-9.93222
使用的	-9.933
出席	-9.93391
显示	-9.93393
汇	-9.9344
85	-9.93442
原名	-9.93461
風格	-9.93491
解放	-9.93566
雙方	-9.93631
地理	-9.93635
是以	-9.93643
投资	-9.93659
殘	-9.93675
)。	-9.93676
撤	-9.93687
大道	-9.93724
抵	-9.93757
更多	-9.93936
劳	-9.93978
第一個	-9.94023
事業	-9.94028
un	-9.94064
ir	-9.94114
的故事	-9.94196
了一	-9.94215
生涯	-9.94221
付	-9.94237
66	-9.94239
寒	-9.94249
阮	-9.94263
投入	-9.94277
平原	-9.94315
大約	-9.94319
芝	-9.94338
奪	-9.94473
tw	-9.94517
生于	-9.94518
軌道	-9.9452
扬	-9.94539
补	-9.94575
十八	-9.94582
遜	-9.94595
第八	-9.94647
设备	-9.94666
至少	-9.94668
尼亞	-9.94684
實施	-9.94693
报告	-9.94745
效力	-9.94768
▁2020	-9.94806
他是	-9.94851
坂	-9.94907
希臘	-9.94911
準備	-9.94966
重大	-9.95014
課程	-9.95032
督	-9.9504
在香港	-9.95092
條件	-9.95127
金屬	-9.9523
国务院	-9.95241
煙	-9.95304
恒	-9.95347
鄧	-9.95377
州市	-9.95379
信仰	-9.95403
棒	-9.95432
汽车	-9.95435
特别	-9.95439
在日本	-9.95465
比如	-9.95473
幫	-9.95536
讷	-9.9556
碧	-9.95582
本人	-9.95623
1982	-9.95625
治療	-9.95643
讲	-9.95652
▁本	-9.95701
目的	-9.95805
儘管	-9.9583
邀請	-9.9586
解決	-9.95952
採	-9.95963
同一	-9.95988
95	-9.95994
工具	-9.9601
太郎	-9.96023
內部	-9.96037
拔	-9.96067
運動員	-9.96112
頻道	-9.96228
税	-9.9623
規劃	-9.96264
愿	-9.96307
1983	-9.96327
亨利	-9.9637
藝人	-9.96412
找	-9.96492
進攻	-9.96506
領導	-9.96562
熙	-9.96603
突然	-9.96649
饰	-9.96702
主要是	-9.96751
長期	-9.9682
河流	-9.96849
中華人民共和國	-9.96913
剑	-9.96915
赞	-9.96978
综合	-9.96983
众	-9.96989
住宅	-9.97019
馮	-9.97022
下降	-9.97041
容易	-9.97067
负	-9.97142
辰	-9.97162
年前	-9.97171
整个	-9.97271
臨時	-9.97334
啟用	-9.97342
变化	-9.9736
準	-9.97391
判	-9.97401
土耳其	-9.97403
有人	-9.97475
没	-9.97508
te	-9.97517
设置	-9.97596
那些	-9.97617
寿	-9.97622
脫	-9.97632
球會	-9.97678
幹	-9.97734
简	-9.97751
日在	-9.97851
叔	-9.97858
原始	-9.97953
总理	-9.97968
持有	-9.98042
名称	-9.98124
逢	-9.98208
钟	-9.98215
公元	-9.98228
機械	-9.98243
lo	-9.98246
▁E	-9.98268
资源	-9.98277
十五	-9.98287
创作	-9.9832
尼亚	-9.98336
當選	-9.9837
病毒	-9.98398
濱	-9.98419
战斗	-9.98477
光緒	-9.98479
是一种	-9.98507
1975	-9.98534
廣東	-9.98562
訪	-9.98563
1948	-9.98581
范围	-9.98589
笔	-9.98605
也不	-9.98614
淮	-9.98636
统一	-9.98656
物種	-9.98664
移動	-9.98683
主持人	-9.98731
一致	-9.98738
过程	-9.9877
題	-9.98797
研	-9.9886
娘	-9.98889
绿	-9.98894
市区	-9.98907
学家	-9.98907
細胞	-9.98935
賞	-9.98974
薛	-9.98977
用户	-9.99031
1956	-9.99111
hk	-9.99164
著作	-9.99189
插	-9.99195
齒	-9.99215
窗	-9.99258
劑	-9.99259
通道	-9.99294
靠	-9.99313
注意	-9.99375
本線	-9.99393
表明	-9.99476
1940	-9.99496
蓝	-9.99563
▁N	-9.99564
匈牙利	-9.99571
這一	-9.99597
應用	-9.99599
嘴	-9.99616
染	-9.99621
墨西哥	-9.99671
录	-9.99672
也被	-9.99693
亨	-9.99698
顧	-9.99702
博物館	-9.99716
宅	-9.99727
获得了	-9.9973
設定	-9.99731
過程	-9.99772
（2011	-9.99809
中国大陆	-9.9988
相對	-9.99898
發動	-9.99916
德语	-9.99949
万人	-9.99984
柏林	-9.99999
圖書館	-10
98	-10.0012
废	-10.0012
▁R	-10.0015
人們	-10.0016
結婚	-10.0027
阴	-10.0028
附近的	-10.0031
请	-10.0032
能量	-10.0033
遗址	-10.0037
首先	-10.0042
部門	-10.0043
自身	-10.0058
77	-10.0058
加盟	-10.0058
弦	-10.0059
喬	-10.0065
欧元	-10.0066
JR	-10.0072
怒	-10.0076
兼任	-10.0077
78	-10.0093
宾	-10.0095
檢	-10.0102
涉及	-10.0105
觀眾	-10.0106
相比	-10.0118
柔	-10.0118
混合	-10.0119
傳說	-10.012
淺	-10.0121
多年	-10.0121
意外	-10.0121
俗	-10.0126
專業	-10.0132
投降	-10.0142
卒	-10.0148
機關	-10.0148
丙	-10.0149
綜合	-10.0154
比较	-10.0157
返	-10.0165
衡	-10.0166
类似	-10.0171
1976	-10.0175
解釋	-10.0179
坦克	-10.0183
II	-10.0184
吹	-10.0187
燒	-10.0187
太平	-10.0189
徽	-10.0192
》：	-10.0197
鄰	-10.0197
稿	-10.0199
86	-10.0199
妙	-10.0204
5%	-10.0205
綱	-10.0207
聞	-10.0208
j	-10.0213
进行了	-10.0219
定義	-10.022
数量	-10.022
驚	-10.0221
對手	-10.0222
計算	-10.0228
申請	-10.0229
化學	-10.0229
潭	-10.0232
滅	-10.0235
明治	-10.0237
大多	-10.0237
大會	-10.0237
嗣	-10.024
今日	-10.024
展示	-10.0241
1947	-10.0245
上述	-10.0245
报道	-10.0246
也會	-10.0255
凌	-10.0256
1937	-10.0256
1930	-10.026
成本	-10.0266
维尔	-10.0284
努力	-10.0284
态	-10.0287
块	-10.029
昆	-10.0294
官員	-10.0295
将军	-10.0298
輛	-10.0301
用來	-10.0307
只要	-10.0311
翻	-10.0312
記錄	-10.0321
犯罪	-10.0326
国内	-10.0326
實驗	-10.0326
to	-10.0329
也在	-10.0334
江西	-10.0335
康熙	-10.0335
大西洋	-10.0336
1973	-10.0336
儒	-10.0338
應該	-10.0349
乔	-10.035
警方	-10.0354
属下的一个种	-10.0358
评	-10.0359
資源	-10.0359
1979	-10.0362
他們的	-10.0372
發出	-10.0372
的角色	-10.0373
96	-10.0373
题	-10.0373
菊	-10.0377
記者	-10.0378
占领	-10.0378
协	-10.0385
分布於	-10.0391
铜	-10.0392
今天	-10.0393
1972	-10.0397
67	-10.0397
空軍	-10.04
▁2021	-10.0404
吸引	-10.0406
演员	-10.0408
十一	-10.041
化石	-10.041
as	-10.0413
还是	-10.0416
鼎	-10.0416
選手	-10.0427
晶	-10.0429
伊朗	-10.0429
翔	-10.043
云南	-10.0433
大廈	-10.0434
领域	-10.0434
中共中央	-10.0437
情況	-10.044
69	-10.0442
獻	-10.0446
乱	-10.0452
部长	-10.0454
▁2003	-10.0455
艇	-10.0456
1952	-10.0457
严	-10.0459
繁	-10.046
学者	-10.0464
實際	-10.0467
是日本	-10.0468
玲	-10.047
偷	-10.047
化的	-10.0472
旗下	-10.048
夏季	-10.048
幅	-10.0481
600	-10.0481
汪	-10.0481
大使	-10.0481
火山	-10.0482
失敗	-10.0484
62	-10.0486
教練	-10.0488
亚洲	-10.0493
离开	-10.0495
简称	-10.0495
苑	-10.05
毁	-10.0505
而言	-10.0507
1966	-10.051
三世	-10.0515
政治人物	-10.0516
婆	-10.0516
步兵	-10.0518
碳	-10.0518
潛	-10.0522
喀	-10.0523
厄	-10.0526
冊	-10.0526
1000	-10.0527
体育	-10.0528
物質	-10.0529
为主	-10.053
公元前	-10.0531
▁小	-10.0532
姚	-10.0533
贸易	-10.0543
北京市	-10.0543
部门	-10.0543
旅行	-10.0547
贏得	-10.0547
年輕	-10.055
军区	-10.0551
空中	-10.0553
1941	-10.0564
雜	-10.0565
波兰	-10.0565
1968	-10.0567
凤	-10.0568
剂	-10.0569
廉	-10.0572
‧	-10.0574
奪得	-10.0575
尽	-10.0575
1977	-10.0577
國民	-10.0578
就讀	-10.0579
毅	-10.0579
旅游	-10.0588
穩定	-10.059
奴	-10.0591
屈	-10.0591
特定	-10.0597
往往	-10.0603
恭	-10.0603
的關係	-10.0604
于是	-10.0605
尤其是	-10.0608
180	-10.0609
並非	-10.061
年初	-10.0613
總督	-10.062
唯	-10.0625
阻止	-10.0629
恐怖	-10.0632
鐘	-10.0633
se	-10.0634
波斯	-10.0634
成績	-10.0635
第一个	-10.0642
1954	-10.0642
先後	-10.0643
殖民地	-10.0646
校長	-10.0648
柴	-10.065
選區	-10.0655
制定	-10.0655
曉	-10.0664
基础	-10.0668
广泛	-10.067
隱	-10.0671
亦是	-10.0674
火箭	-10.0675
創立	-10.0676
并不	-10.0676
國內	-10.0677
计算	-10.0679
成都	-10.0682
特徵	-10.0687
貞	-10.0689
退役	-10.0691
以外	-10.0693
梨	-10.0694
依然	-10.0696
曾经	-10.0699
软件	-10.0712
演唱會	-10.0712
孤	-10.0713
风格	-10.0714
抽	-10.0716
人數	-10.0719
主張	-10.0721
历史上	-10.0723
▁zh	-10.0729
相对	-10.0732
情况	-10.0736
旅客	-10.0738
芒	-10.0739
夷	-10.0743
起來	-10.0744
出來	-10.0745
舞台	-10.0745
酶	-10.0745
月至	-10.0747
部落	-10.0749
所有的	-10.0751
鷹	-10.0752
帮助	-10.0754
87	-10.0754
类型	-10.0754
机车	-10.0755
74	-10.0756
謀	-10.0757
id	-10.0765
分類	-10.0765
紐約	-10.0767
一部	-10.0768
私人	-10.0769
运输	-10.0771
150	-10.0771
72	-10.0771
1981	-10.0775
討論	-10.0776
日軍	-10.0776
大陆	-10.0782
利亞	-10.0782
攻击	-10.0783
綫	-10.0785
挑戰	-10.0786
地震	-10.0792
状态	-10.0797
创	-10.0804
唐朝	-10.0806
鍾	-10.0808
上映	-10.0808
史上	-10.0809
戒	-10.0812
匯	-10.0813
知名	-10.0814
源自	-10.0815
陆军	-10.0815
am	-10.082
龜	-10.0822
六年	-10.0822
姜	-10.0823
63	-10.0827
每個	-10.0827
性格	-10.0832
89	-10.0832
1974	-10.0833
頁	-10.0833
行政院	-10.0834
职业	-10.0837
％	-10.0837
戰後	-10.0839
仿	-10.0839
艦隊	-10.0844
确定	-10.0844
稻	-10.0844
拆	-10.0845
消失	-10.085
陀	-10.0851
股份有限公司	-10.0856
出了	-10.0856
財	-10.0859
訓	-10.0861
客運	-10.0865
編號	-10.0865
了解	-10.0869
蛋	-10.0871
然后	-10.0876
宣傳	-10.0878
契	-10.0881
天使	-10.0882
買	-10.0893
▁中国	-10.0903
銷售	-10.0921
軌	-10.0925
亿	-10.0932
平面	-10.0934
床	-10.0934
案件	-10.0938
~	-10.0939
來說	-10.0941
监	-10.0943
少數	-10.0953
埔	-10.0955
撞	-10.0964
感染	-10.0966
產業	-10.0967
湖北	-10.0969
的影響	-10.0971
阿爾	-10.0971
互相	-10.0974
價值	-10.0977
熟	-10.0978
减	-10.0978
ma	-10.0979
一系列	-10.098
內的	-10.0981
紋	-10.0985
1978	-10.099
現象	-10.099
卵	-10.0991
继	-10.0991
北海道	-10.0995
仪	-10.0997
举办	-10.0999
銅	-10.1002
以后	-10.1003
勢力	-10.1003
斯克	-10.1007
条件	-10.101
危	-10.1013
奎	-10.1018
文物保护单位	-10.1019
淑	-10.1022
透	-10.1023
每个	-10.1024
鳴	-10.1032
纯	-10.1037
美軍	-10.1041
徵	-10.1044
轴	-10.1045
一支	-10.1053
问	-10.1057
民眾	-10.1059
集合	-10.1062
有所	-10.1064
镇下辖以下地区	-10.1069
識	-10.1075
经常	-10.1076
兒子	-10.1076
1969	-10.1077
領域	-10.1077
似	-10.1081
做出	-10.1092
扶	-10.1094
-3	-10.1096
西安	-10.1097
進士	-10.1099
彌	-10.1102
身上	-10.1106
1964	-10.1106
绝	-10.1109
社區	-10.111
1920	-10.111
軸	-10.1113
文物	-10.1118
平方米	-10.112
萬人	-10.112
老師	-10.1124
粗	-10.1127
錦標賽	-10.1128
发射	-10.1128
的时候	-10.1131
主力	-10.1137
悲	-10.1139
祖父	-10.1141
球場	-10.1143
抱	-10.1145
明顯	-10.1147
學家	-10.1153
新疆	-10.1154
材	-10.1163
琪	-10.1169
是個	-10.1178
山西	-10.1191
频道	-10.1193
脱	-10.1194
马来西亚	-10.1195
1971	-10.1196
編曲	-10.1198
1965	-10.12
纽约	-10.1202
利益	-10.1204
大约	-10.1205
的工作	-10.1209
十九	-10.1209
斜	-10.1211
法案	-10.1211
郊	-10.1212
实验	-10.1212
°	-10.1216
照片	-10.1222
800	-10.1226
1967	-10.1233
承認	-10.1241
魂	-10.125
决	-10.125
中华民国	-10.1251
接收	-10.1251
錯	-10.1252
行为	-10.1254
肥	-10.1255
螺	-10.1259
1959	-10.1261
泛	-10.1262
退休	-10.1265
虫	-10.1266
97	-10.1268
遣	-10.1271
▁日本	-10.1271
遗	-10.1271
的方法	-10.1272
巧	-10.1285
生成	-10.1286
记录	-10.1287
内部	-10.1287
騎	-10.1288
隻	-10.129
丈夫	-10.129
本地	-10.1293
解散	-10.1296
適	-10.1299
目标	-10.1302
派遣	-10.1307
縱	-10.131
身分	-10.1317
泡	-10.1318
妹	-10.1321
引入	-10.1321
廣泛	-10.1324
將會	-10.133
義大利	-10.1339
▁3	-10.1344
有限	-10.1345
墙	-10.1347
十字	-10.1359
1961	-10.1359
規	-10.1363
厘米	-10.1365
下令	-10.1369
多個	-10.1371
虛	-10.1372
恆星	-10.1376
也就是	-10.1377
玻璃	-10.1379
太阳	-10.1382
猛	-10.1384
冯	-10.1384
大幅	-10.1386
決	-10.1391
尚未	-10.1396
融	-10.1398
进攻	-10.1399
旦	-10.1402
61	-10.1405
汝	-10.1409
医	-10.141
立即	-10.1412
設備	-10.1414
截至	-10.1417
拖	-10.142
1944	-10.142
鸟	-10.1421
朝廷	-10.1424
月初	-10.1426
网站	-10.1429
数学	-10.1437
截	-10.144
資格	-10.144
旅遊	-10.1442
似乎	-10.1442
合并	-10.1443
重庆	-10.1446
裝甲	-10.1455
澳大利亚	-10.1456
79	-10.1456
堆	-10.146
母亲	-10.1461
主題	-10.1462
農業	-10.147
这样	-10.1475
勝利	-10.1475
73	-10.1477
文明	-10.1477
我的	-10.1482
貨	-10.1483
划	-10.1484
宪	-10.1485
紅色	-10.1486
斯基	-10.1488
飯	-10.1488
助理	-10.1488
1958	-10.1489
1938	-10.1491
属的植物	-10.1501
ot	-10.151
烟	-10.1511
扮演	-10.1514
範	-10.1517
石油	-10.1517
1939	-10.1519
显	-10.1524
災	-10.1525
祿	-10.1525
午	-10.1526
导演	-10.1526
积	-10.1528
的位置	-10.1535
巨大	-10.1538
河北	-10.1541
押	-10.1541
碼頭	-10.1543
介紹	-10.1547
桐	-10.1547
分裂	-10.1549
「」	-10.1551
爭議	-10.1556
在其	-10.1564
▁2000	-10.1565
ta	-10.1567
體長可達	-10.1567
訊	-10.1568
修建	-10.1569
房屋	-10.157
東方	-10.1574
消息	-10.1579
無綫電視	-10.1581
它是	-10.1583
▁2	-10.1583
▁2002	-10.1585
另有	-10.1586
針對	-10.1589
将其	-10.1595
十四	-10.1596
▁圣	-10.1599
换	-10.1607
台北市	-10.1608
出演	-10.1614
演奏	-10.1618
司馬	-10.1618
机关	-10.162
淡水	-10.1621
顾	-10.1625
1957	-10.1629
豫	-10.1632
翠	-10.1643
CD	-10.1644
國會	-10.165
面對	-10.1651
广西	-10.1651
杭州	-10.1651
汗	-10.1653
协议	-10.1658
收錄	-10.1659
首相	-10.1662
措施	-10.1663
贝尔	-10.1669
劃	-10.1673
暨	-10.1677
本土	-10.1677
完工	-10.1682
碼	-10.1683
駕駛	-10.1684
1962	-10.1686
王国	-10.1691
建立了	-10.1695
蔣	-10.1699
含有	-10.17
合約	-10.17
佔領	-10.1701
上海市	-10.1703
聘	-10.1703
執	-10.1707
方便	-10.1713
克拉	-10.1718
桓	-10.1719
几乎	-10.1721
將其	-10.1724
增长	-10.1725
臺北市	-10.173
東部	-10.1731
群岛	-10.1731
第九	-10.1738
般	-10.1738
寄	-10.1744
脚	-10.1744
迹	-10.1762
专辑	-10.1764
1963	-10.1764
基金	-10.1769
分配	-10.177
彼得	-10.1771
细	-10.1788
遇到	-10.1789
巢	-10.1789
自行	-10.1791
鮮	-10.1793
建于	-10.1795
中国共产党	-10.1796
測	-10.1796
美洲	-10.18
逮捕	-10.1802
的第一	-10.1805
宪法	-10.1805
路段	-10.1806
伸	-10.1808
授予	-10.1812
結合	-10.1814
磨	-10.1816
小行星	-10.1817
隐	-10.1817
空军	-10.182
人民政府	-10.1822
长期	-10.1823
腔	-10.1823
公爵	-10.1823
用途	-10.1827
卡尔	-10.1828
怡	-10.1832
邑	-10.1832
蜀	-10.1835
患者	-10.1836
符合	-10.1836
解决	-10.1836
對方	-10.184
貝爾	-10.1841
谈	-10.1844
確定	-10.1844
1953	-10.1846
類型	-10.1849
袋	-10.1851
後期	-10.1851
梦	-10.1853
&	-10.1855
▁金	-10.1861
總部	-10.1862
管辖	-10.1863
▁小行星	-10.1863
民間	-10.1865
尹	-10.1868
雞	-10.1868
質量	-10.187
宣传	-10.1871
贡	-10.1873
迴	-10.188
甜	-10.1882
表现	-10.1883
打算	-10.1885
继承	-10.1889
這樣	-10.1894
緊	-10.1895
個月	-10.1901
廊	-10.1903
92	-10.1904
五十	-10.1908
[	-10.1908
古典	-10.1915
爵士	-10.1921
礦	-10.1922
业务	-10.1926
英语	-10.1927
廖	-10.1932
號線	-10.1937
放棄	-10.1938
大会	-10.1938
一百	-10.1941
中有	-10.1945
次年	-10.1951
通車	-10.1952
曆	-10.1957
立法	-10.1957
一份	-10.196
並未	-10.1962
um	-10.1966
贾	-10.1968
浙江省	-10.1972
砂	-10.1974
启	-10.1977
终	-10.1979
萧	-10.1979
（，；）	-10.198
高雄市	-10.1982
毀	-10.1983
调整	-10.1984
願	-10.1986
在美國	-10.1986
醫療	-10.1991
吸收	-10.1994
牆	-10.1994
 	-10.1998
鋼	-10.1999
勃	-10.1999
又称	-10.2001
机械	-10.2004
閣	-10.2005
京都	-10.2006
奔	-10.2009
教區	-10.201
1942	-10.201
粒子	-10.2014
作战	-10.2014
的第	-10.2016
2023	-10.2017
羽毛球	-10.2017
慕	-10.2019
彥	-10.2021
1943	-10.2023
伟	-10.2023
星期	-10.2032
運作	-10.2038
1955	-10.2039
理解	-10.2042
譜	-10.2043
觀察	-10.2044
郵	-10.2046
俱乐部	-10.2051
祠	-10.2051
監督	-10.2052
▁2022	-10.2056
梯	-10.206
路易	-10.2063
現場	-10.2064
而非	-10.2064
花園	-10.2067
指示	-10.2073
證明	-10.2076
毛泽东	-10.2077
文章	-10.2077
逐	-10.2081
希腊	-10.2082
实际	-10.2084
狀況	-10.2085
稳定	-10.2086
隊長	-10.2087
突破	-10.2095
残	-10.2103
是一名	-10.2103
冬季	-10.2106
多數	-10.2107
辽	-10.2109
邪	-10.211
灯	-10.2114
蕾	-10.2115
决赛	-10.2117
？」	-10.2118
頻	-10.212
多个	-10.2124
ay	-10.2128
衝突	-10.2131
伍	-10.2138
權力	-10.2139
金属	-10.2141
年逝世	-10.2142
幻	-10.2148
改变	-10.2168
甫	-10.2169
官员	-10.217
ie	-10.217
生存	-10.2171
教育部	-10.2171
理想	-10.218
长江	-10.2181
創造	-10.2184
接替	-10.2187
鴻	-10.219
94	-10.2191
家人	-10.2193
证明	-10.2194
op	-10.2196
成了	-10.2202
拒绝	-10.2205
1951	-10.222
星系	-10.2224
败	-10.2226
他们的	-10.223
产业	-10.2231
割	-10.2231
84	-10.2232
美元	-10.2232
更新	-10.2233
性能	-10.2238
首府	-10.2239
下午	-10.2239
分钟	-10.2242
三十	-10.2246
各自	-10.2247
困	-10.225
东南	-10.2251
的影响	-10.2254
1949	-10.2255
盾	-10.2256
米的地区	-10.2258
允许	-10.2262
化合物	-10.2263
持续	-10.2265
不断	-10.2268
年出生	-10.227
操	-10.2271
最後一	-10.2279
逸	-10.2283
生长于海拔	-10.2286
映	-10.2292
最低	-10.2293
闻	-10.2293
政权	-10.2297
落成	-10.2298
飞行	-10.2301
坚	-10.2309
數據	-10.2314
市中心	-10.232
其餘	-10.232
ter	-10.2327
戰士	-10.2327
名为	-10.2327
測試	-10.2328
寮	-10.2335
并入	-10.2341
推動	-10.2342
慢	-10.2343
82	-10.2344
需求	-10.235
波蘭	-10.235
官方網站	-10.2361
漫	-10.2361
▁V	-10.2363
im	-10.2364
胎	-10.2365
邱	-10.2366
从而	-10.2368
常常	-10.2372
开放	-10.2374
患	-10.2375
的能力	-10.2375
叛	-10.2376
卡拉	-10.2378
赖	-10.238
班次	-10.2381
為止	-10.2384
▁2001	-10.2384
邓	-10.2385
卖	-10.2385
93	-10.2386
劫	-10.2388
匹	-10.2392
十二年	-10.2393
當時的	-10.2394
是香港	-10.2394
胸	-10.2396
质量	-10.24
120	-10.2403
阶段	-10.2406
屏	-10.2413
NBA	-10.2418
的城市	-10.2419
83	-10.2421
區的	-10.2422
華人	-10.2429
高級	-10.2429
贈	-10.2431
▁–	-10.2432
耐	-10.2438
賜	-10.2438
醫學	-10.2439
麟	-10.244
下辖	-10.2452
殼	-10.2454
十七	-10.2456
岗	-10.2456
司令	-10.2457
敵人	-10.2463
手段	-10.2464
女王	-10.2467
形象	-10.2468
但他	-10.2471
挪威	-10.2472
商品	-10.2473
基於	-10.2473
就會	-10.2476
莫斯科	-10.2477
棒球	-10.2478
認	-10.248
當年	-10.2483
势	-10.2484
矢	-10.2488
什麼	-10.2489
准备	-10.2491
巫	-10.2492
來源	-10.2492
顆	-10.2497
帶來	-10.2498
上升	-10.2501
接任	-10.2502
的政治	-10.2514
地區的	-10.2515
恰	-10.2515
不到	-10.2517
進一步	-10.2523
從事	-10.2524
給予	-10.2525
1936	-10.2526
而不是	-10.2526
珊	-10.2528
布拉	-10.253
杂	-10.2531
!	-10.2533
觸	-10.2543
事务	-10.2543
▁張	-10.2545
知識	-10.2547
地點	-10.2547
佈	-10.2548
雀	-10.2555
拆除	-10.2555
氢	-10.2556
小学	-10.256
菲律賓	-10.2562
霞	-10.2562
政權	-10.2569
引發	-10.2569
軟	-10.257
】	-10.2576
兩種	-10.2576
【	-10.2579
术	-10.258
構成	-10.2585
国会	-10.2586
同样	-10.2595
迫	-10.2595
趕	-10.2605
地区的	-10.2609
現今	-10.2619
什么	-10.262
▁三	-10.2622
江苏	-10.2626
副主席	-10.2628
脑	-10.263
恶	-10.263
出生于	-10.2633
月球	-10.2634
半島	-10.2641
不滿	-10.2643
晴	-10.2646
ation	-10.2647
侵	-10.2648
爵	-10.2648
陷入	-10.2655
不知	-10.2658
到達	-10.2661
時任	-10.2666
常用	-10.2677
櫻	-10.2683
伴	-10.2683
婦	-10.2684
1935	-10.2685
杂志	-10.2691
瓶	-10.2693
舟	-10.2696
境內	-10.2697
調整	-10.2713
每天	-10.2716
晚上	-10.2716
上有	-10.2723
印尼	-10.2724
動作	-10.2727
所在地	-10.2727
蜂	-10.2734
掛	-10.2739
信号	-10.2745
暴力	-10.2755
ill	-10.2756
鑑	-10.2758
此後	-10.2767
过程中	-10.2768
由此	-10.2771
三人	-10.2771
减少	-10.2777
更名为	-10.2787
命名為	-10.279
加州	-10.2791
裝置	-10.2791
慎	-10.2791
目前尚未由人工引种栽培	-10.2794
銘	-10.2797
起义	-10.2801
到达	-10.2808
东西	-10.2811
名單	-10.2811
發售	-10.2811
統計	-10.2812
伦敦	-10.2812
地鐵	-10.2816
醒	-10.2821
利亚	-10.2826
國民黨	-10.2827
数字	-10.283
考慮	-10.2831
女孩	-10.2832
令人	-10.2834
福州	-10.2839
特征	-10.2842
沿海	-10.2843
朴	-10.2846
击败	-10.285
習	-10.285
Al	-10.2854
工廠	-10.2855
弓	-10.2857
霧	-10.2857
者的	-10.2857
蒲	-10.2865
觀測	-10.2877
一場	-10.2879
天文	-10.2881
很快	-10.2885
訪問	-10.2887
教師	-10.2888
计算机	-10.2889
周年	-10.2895
可以在	-10.2896
自动	-10.2897
嫁	-10.2906
通用	-10.2906
是一位	-10.2907
憑	-10.2907
保障	-10.2919
医学	-10.293
意为	-10.2931
召开	-10.2932
平衡	-10.2936
01	-10.294
第一位	-10.2941
▁J	-10.2942
豬	-10.2943
伯特	-10.2944
七年	-10.2945
臉	-10.2948
潜	-10.2948
轨	-10.2951
蜜	-10.2951
小組	-10.2955
规模	-10.2957
鶴	-10.2959
物质	-10.296
翻譯	-10.2961
襄	-10.2962
填	-10.2964
戲劇	-10.2967
IC	-10.2969
商人	-10.2971
辭	-10.2972
阿里	-10.2973
殖民	-10.2973
寨	-10.2974
箭	-10.2979
条约	-10.2983
解释	-10.2985
齡	-10.2986
的時間	-10.2994
连续	-10.2994
束	-10.2995
毕业	-10.2999
特性	-10.3003
的原因	-10.3005
金牌	-10.3008
校友	-10.3008
定居	-10.3013
四個	-10.3015
家中	-10.3019
安徽	-10.302
哥哥	-10.3021
实施	-10.3025
中华	-10.3026
在中国	-10.3028
▁根據	-10.3029
燃	-10.303
港鐵	-10.3032
通信	-10.3035
建议	-10.3043
女兒	-10.3044
晨	-10.3046
韻	-10.306
對抗	-10.306
之戰	-10.3062
改編	-10.3064
一天	-10.3065
賽季	-10.3067
拍摄	-10.3068
防止	-10.307
改建	-10.3072
經驗	-10.3073
基于	-10.3073
爭	-10.3079
了一个	-10.308
戏	-10.3082
巷	-10.3082
的部分	-10.3086
拓	-10.3086
十大	-10.3088
接觸	-10.3092
生於	-10.3094
07	-10.3095
献	-10.3096
早年	-10.3102
緩	-10.3103
能源	-10.3107
近代	-10.3107
年由	-10.311
接壤	-10.3112
籌	-10.3113
图书馆	-10.3114
薇	-10.3118
情報	-10.3126
原住民	-10.3129
轨道	-10.3129
训练	-10.313
大多數	-10.3131
AC	-10.3132
估計	-10.3135
心理	-10.3135
布里	-10.3137
▁10	-10.3138
港口	-10.314
胜利	-10.314
实行	-10.3141
城堡	-10.3143
仇	-10.3144
邵	-10.3148
在北京	-10.3149
货	-10.3152
撰	-10.3156
辅	-10.3157
醇	-10.3159
陷	-10.316
公开	-10.3161
高等	-10.3162
淨	-10.3164
壓力	-10.3166
規模	-10.3168
卜	-10.3174
憲法	-10.3176
貫	-10.3179
市區	-10.318
大家	-10.3181
起来	-10.3181
用作	-10.3182
日军	-10.3183
檔	-10.3184
北美	-10.3184
酷	-10.3184
公斤	-10.3184
囊	-10.3188
抵抗	-10.3189
春秋	-10.319
出道	-10.3191
适	-10.3196
上市	-10.3196
已有	-10.3199
黃金	-10.3206
运动员	-10.3208
构成	-10.3209
重点	-10.3211
捐	-10.3212
來到	-10.3214
日期	-10.3216
表達	-10.3216
斯塔	-10.322
潤	-10.322
薪	-10.3222
破坏	-10.3222
昇	-10.3223
Ch	-10.3223
必要	-10.3224
的形式	-10.3224
ー	-10.3225
條約	-10.3225
盜	-10.3226
me	-10.324
現任	-10.3244
坝	-10.3245
馬來西亞	-10.3249
所屬	-10.3252
吻	-10.3252
大致	-10.3252
豹	-10.3257
续	-10.3257
年開始	-10.3262
鋒	-10.3263
不要	-10.3263
袭	-10.3265
辆	-10.3267
（2009	-10.327
一人	-10.3274
南非	-10.3279
搶	-10.3282
1928	-10.3283
以此	-10.3284
考古	-10.3284
（2001	-10.3287
東京都	-10.3293
程式	-10.3294
学科	-10.3303
顧問	-10.3303
在位	-10.3304
结合	-10.3304
81	-10.3307
海拔高度	-10.331
曹操	-10.331
實際上	-10.3311
廢除	-10.3313
代替	-10.3313
而不	-10.3317
苗	-10.3318
ell	-10.332
協議	-10.3324
跡	-10.3325
釋	-10.3326
福建省	-10.3332
1927	-10.3337
公司的	-10.3341
派出	-10.3349
司令部	-10.3354
每日	-10.3357
使用者	-10.3358
意見	-10.3358
首位	-10.3365
05	-10.3369
缘	-10.3371
贤	-10.3371
在一起	-10.3372
停靠	-10.3373
测	-10.3378
學術	-10.3379
海上	-10.338
舞蹈	-10.3382
睡	-10.3383
弄	-10.3385
”）	-10.3386
腿	-10.3386
相同的	-10.3389
抵達	-10.3396
大多数	-10.3396
剩	-10.3397
不会	-10.3398
嶺	-10.3398
冈	-10.34
合法	-10.3403
宴	-10.3405
’	-10.3408
临时	-10.3418
有時	-10.3418
獵	-10.3422
德里	-10.3424
觉	-10.3426
些	-10.3428
蛋白	-10.3429
團隊	-10.343
演化	-10.3431
商場	-10.3433
)：	-10.3433
地名	-10.3434
外交部	-10.3436
顏色	-10.3436
艺	-10.3439
棄	-10.3441
稱呼	-10.3442
另一方面	-10.3447
第十	-10.3449
很大	-10.3449
變得	-10.3456
1933	-10.346
尼斯	-10.346
意義	-10.3461
江苏省	-10.3462
爆发	-10.3463
原來	-10.3465
潔	-10.3467
理由	-10.3467
-{}-	-10.3468
分类	-10.3471
进一步	-10.3475
主题	-10.3475
and	-10.348
醫生	-10.3483
書院	-10.3487
出生於	-10.3487
成就	-10.3488
其中男性	-10.3488
得到了	-10.3488
收集	-10.3492
衛星	-10.3495
開設	-10.3496
德拉	-10.3498
轄	-10.3498
捷運	-10.3499
以南	-10.3501
提及	-10.3501
劇情	-10.3503
访问	-10.3509
武汉	-10.3509
俠	-10.351
認識	-10.3511
留在	-10.3511
上陣	-10.3511
的生活	-10.3515
分支	-10.3516
遼	-10.3516
基督	-10.3517
绍	-10.3518
管理局	-10.3518
吐	-10.3521
售	-10.3523
71	-10.3528
途中	-10.3535
網絡	-10.3535
垂	-10.3538
親王	-10.3538
畢	-10.3538
的所有	-10.354
萬元	-10.3541
出售	-10.3544
不明	-10.3553
自我	-10.3556
威脅	-10.3559
詹姆斯	-10.356
恐	-10.3565
办公室	-10.3565
提供了	-10.3568
淘汰	-10.3568
车辆	-10.357
恆	-10.3574
湖南省	-10.3587
動力	-10.3592
重量	-10.3598
06	-10.3599
完整	-10.3599
基礎	-10.3609
串	-10.3612
西亞	-10.3612
册	-10.3614
獅	-10.3614
妖	-10.3619
對象	-10.362
ut	-10.3623
1932	-10.3626
电视剧	-10.3627
奧運	-10.3629
真正	-10.363
联系	-10.3631
上下	-10.3632
道光	-10.3635
咖啡	-10.3638
当选	-10.3642
渠	-10.3642
軟體	-10.3644
祐	-10.3645
用来	-10.3646
以北	-10.3646
污染	-10.3647
儀式	-10.3648
經歷	-10.3648
線的	-10.3649
並將	-10.365
延伸	-10.3654
乎	-10.3658
運行	-10.366
購買	-10.3662
總理	-10.3663
教宗	-10.3664
此时	-10.3671
堤	-10.3672
泰國	-10.3673
成長	-10.3675
個性	-10.3679
1931	-10.3686
高级	-10.3687
尋找	-10.3692
終於	-10.3696
祝	-10.37
检	-10.3704
武帝	-10.3704
燃料	-10.3706
法庭	-10.3708
涉	-10.3712
律師	-10.3715
量子	-10.3718
即位	-10.3719
na	-10.3721
強烈	-10.3722
壯	-10.3726
阿拉	-10.3729
一部分	-10.373
相互	-10.3733
校区	-10.3735
試圖	-10.3735
銷	-10.3735
舌	-10.374
數字	-10.3741
攝影	-10.3741
批评	-10.3743
清代	-10.3745
教学	-10.3753
四十	-10.3753
差異	-10.3753
铺	-10.3759
打擊	-10.376
阿根廷	-10.3764
評論	-10.3764
視為	-10.3768
▁林	-10.3771
锦	-10.378
衛生	-10.3781
▁西	-10.3784
改名	-10.3786
三角	-10.379
河南省	-10.3791
蟹	-10.3791
伽	-10.3797
拱	-10.3799
son	-10.3801
co	-10.3808
刚	-10.3811
其實	-10.3813
正面	-10.3814
與其他	-10.3818
過程中	-10.3819
ine	-10.3822
壇	-10.3827
扣	-10.383
練	-10.383
专家	-10.3832
×	-10.3833
掠	-10.3835
争	-10.3836
广东省	-10.3837
忘	-10.384
▁4	-10.3841
達成	-10.3842
>	-10.3844
癌	-10.3847
动画	-10.3849
民進黨	-10.385
mo	-10.3858
券	-10.3858
學系	-10.3859
外国	-10.3861
上帝	-10.3863
規則	-10.3863
學會	-10.3865
设施	-10.3865
镜	-10.3867
利斯	-10.387
成为了	-10.387
信號	-10.3879
暖	-10.388
長度	-10.3881
礁	-10.3881
ent	-10.3882
▁1999	-10.3883
她在	-10.3885
来说	-10.3886
的一種	-10.3886
函	-10.3887
1934	-10.3888
承认	-10.3888
钢	-10.3889
统计	-10.389
评论	-10.3891
构	-10.3892
新界	-10.3893
晓	-10.3897
密度	-10.3898
91	-10.3902
ul	-10.391
州刺史	-10.391
軍團	-10.3912
耗	-10.3912
剪	-10.3913
偶像	-10.3913
逼	-10.3914
屯門	-10.3915
特拉	-10.3919
服役	-10.3919
政黨	-10.3923
領袖	-10.3924
閃	-10.3927
创建	-10.3935
死後	-10.3937
繪	-10.3938
卫星	-10.3939
翻译	-10.395
積極	-10.3956
在美国	-10.3961
意識	-10.3964
率領	-10.3966
保安	-10.3967
儿童	-10.3972
的一种	-10.3973
抓	-10.3978
荷兰	-10.3978
杉	-10.3981
法官	-10.3984
ne	-10.3986
苯	-10.3995
城镇	-10.3998
新北市	-10.4
這次	-10.4001
同名	-10.4004
襲擊	-10.4005
职务	-10.4006
之女	-10.4007
试图	-10.4009
试验	-10.4012
收購	-10.4012
喪	-10.4012
双方	-10.4017
機會	-10.4018
▁6	-10.4021
踏	-10.4023
客运	-10.4028
os	-10.4031
▁O	-10.4038
发动	-10.4038
歷史上	-10.4038
1.5	-10.4039
国民	-10.404
溫度	-10.4041
的父親	-10.4044
好友	-10.4045
。2008	-10.4046
馬克	-10.4049
诚	-10.4054
1929	-10.406
大阪	-10.4062
累	-10.4067
相反	-10.4067
貌	-10.4067
误	-10.407
聲優	-10.407
▁1998	-10.4072
08	-10.4074
成熟	-10.4077
▁12	-10.4077
傳播	-10.408
筒	-10.4082
炸	-10.4083
-4	-10.4087
应该	-10.4092
‘	-10.4093
斬	-10.4095
危機	-10.4097
影像	-10.4097
球员	-10.4098
常见	-10.41
man	-10.4101
汤	-10.4101
殺死	-10.4102
四川省	-10.4102
山东省	-10.4105
形容	-10.4111
-21	-10.4112
愛爾蘭	-10.4112
島嶼	-10.4112
肖	-10.4113
唯一的	-10.4114
出現在	-10.4118
婚姻	-10.4121
乔治	-10.4122
沙田	-10.4123
教会	-10.4125
700	-10.4128
南海	-10.4128
彦	-10.4136
原型	-10.4139
蓬	-10.4139
人工	-10.4142
一半	-10.4142
象徵	-10.4144
陕西	-10.4144
市长	-10.4145
Ar	-10.4146
數位	-10.415
強調	-10.4151
格拉	-10.4157
迦	-10.4161
途	-10.4165
稍	-10.4167
▁南	-10.4171
现象	-10.4177
性質	-10.4178
是意大利	-10.4183
水库	-10.4185
▁黃	-10.4188
键	-10.4194
▁/	-10.4199
想要	-10.4204
觀光	-10.4211
較為	-10.4211
涼	-10.4211
天文台	-10.4214
邮	-10.4219
出来	-10.4225
黑暗	-10.4225
访	-10.4226
碎	-10.4232
賊	-10.4233
民主黨	-10.4234
主題曲	-10.4237
ti	-10.4238
塚	-10.4238
另一個	-10.424
联合国	-10.4242
最早的	-10.4245
的話	-10.4245
▁I	-10.4245
角度	-10.4248
买	-10.4249
食用	-10.4252
響	-10.4252
參考	-10.4254
擬	-10.4254
詹	-10.4255
綠色	-10.427
鎖	-10.4272
江南	-10.4273
十月	-10.4274
商店	-10.4274
此次	-10.4275
輯	-10.4275
管轄	-10.4276
米至	-10.428
行走	-10.4287
支付	-10.4292
被認為是	-10.4294
征服	-10.4294
已被	-10.4301
允	-10.4303
小姐	-10.4303
但因	-10.4305
OS	-10.4306
鸡	-10.4307
電台	-10.4308
帶領	-10.431
武裝	-10.4311
AT	-10.4314
電話	-10.4318
參選	-10.4318
缩	-10.4318
邁	-10.4319
首席	-10.432
並以	-10.432
开通	-10.4322
打破	-10.4323
火星	-10.4325
穆斯林	-10.4329
真實	-10.4329
*	-10.4331
平方千米	-10.4331
購	-10.4332
勸	-10.4332
！」	-10.4336
大獎	-10.4338
贺	-10.4341
武装	-10.4342
漁	-10.4343
ard	-10.4345
針	-10.4347
哲学	-10.4347
的問題	-10.4352
国防	-10.4352
籃球	-10.4353
原先	-10.4353
會在	-10.4356
使其	-10.4357
滩	-10.4361
意义	-10.4363
陸續	-10.4365
位于中国	-10.4366
租界	-10.4372
年齡	-10.4373
名義	-10.4373
收藏	-10.4375
罰	-10.4378
权力	-10.4386
九年	-10.4388
并于	-10.439
人生	-10.439
脂	-10.4392
AP	-10.4395
道德	-10.44
明星	-10.4403
徑	-10.4406
最高的	-10.4408
的概念	-10.4411
同學	-10.4412
di	-10.4416
簡單	-10.4419
TV	-10.4421
纹	-10.4422
國際機場	-10.4423
球季	-10.4424
構	-10.4425
腰	-10.4427
勳	-10.4429
處於	-10.4431
两人	-10.4431
▁高	-10.444
山脈	-10.4441
數學	-10.445
资料	-10.445
撤退	-10.4455
隋	-10.4455
喝	-10.4458
策略	-10.446
执	-10.4461
專門	-10.4462
姑	-10.4466
航空公司	-10.4467
壞	-10.4471
卫生	-10.4471
禪	-10.4472
从事	-10.4473
八年	-10.4477
東西	-10.4481
1912	-10.4484
院長	-10.4487
西亚	-10.449
葵	-10.4492
幽	-10.4494
课	-10.4496
印刷	-10.4496
穗	-10.4504
放在	-10.4505
永久	-10.4506
騎士	-10.4518
領土	-10.4518
裝備	-10.4518
併	-10.4524
疾	-10.4532
票房	-10.4532
经营	-10.4548
說明	-10.4551
09	-10.4557
通往	-10.4562
經典	-10.4562
配音員	-10.4567
▁劉	-10.4569
是因為	-10.4574
通訊	-10.4574
▁白	-10.458
很少	-10.458
教學	-10.4581
价值	-10.4582
五月	-10.4585
鄰近	-10.4586
掌握	-10.4586
融合	-10.4593
列為	-10.4593
發起	-10.4594
扇	-10.4594
忽	-10.46
东方	-10.4601
AR	-10.4602
沈阳	-10.4603
部長	-10.4605
結束後	-10.4607
住在	-10.4607
盈	-10.461
考虑	-10.461
效率	-10.461
成為了	-10.4611
仕	-10.4617
创办	-10.4627
脈	-10.4627
奶	-10.4633
这里	-10.4637
的支持	-10.4639
km	-10.4643
幣	-10.4645
內閣	-10.4651
貼	-10.4652
四大	-10.4652
猴	-10.4653
欽	-10.4657
ce	-10.4658
旭	-10.466
權利	-10.4667
共产党	-10.4673
组建	-10.4674
神社	-10.4677
叉	-10.4679
奥地利	-10.4679
马尔	-10.4681
拼	-10.4684
股份	-10.4684
ni	-10.4685
登上	-10.4685
里斯	-10.4686
會員	-10.4687
失败	-10.4688
怕	-10.469
原作	-10.4694
依據	-10.4695
閉	-10.4697
已知	-10.4699
則為	-10.47
競爭	-10.47
鄂	-10.4703
尋	-10.4706
國語	-10.4707
伯爵	-10.4709
)、	-10.4716
辉	-10.4716
病逝	-10.4717
製作人	-10.472
副主任	-10.4723
蝶	-10.4729
他也	-10.4729
至於	-10.473
冒	-10.4734
刑事	-10.4734
運用	-10.4737
实际上	-10.474
私立	-10.4743
两种	-10.4744
哲學	-10.4747
繞	-10.475
社会主义	-10.4751
河北省	-10.4751
逊	-10.4759
福利	-10.4768
隊伍	-10.4771
胶	-10.4772
超越	-10.4773
几个	-10.4774
記憶	-10.4775
如今	-10.4775
ver	-10.4776
貢獻	-10.4778
光绪	-10.478
的力量	-10.4782
死刑	-10.4784
校长	-10.4789
擅長	-10.4789
允許	-10.479
筑	-10.4791
任期	-10.4792
℃	-10.4795
智慧	-10.4797
海南	-10.4798
谱	-10.4801
吧	-10.4802
函數	-10.4804
复杂	-10.4806
兩者	-10.4807
航班	-10.481
貴族	-10.4811
難以	-10.4812
丑	-10.4813
新建	-10.4815
琉球	-10.4816
▁飾演	-10.4817
▁7	-10.4818
崖	-10.4821
優秀	-10.4822
鲜	-10.4826
气候	-10.4827
伐	-10.4829
团体	-10.4832
高校	-10.4833
议员	-10.4835
西北部	-10.4835
研究生	-10.4837
om	-10.4837
颱風	-10.4838
ha	-10.4842
all	-10.4846
客家	-10.4848
可能會	-10.4855
市長	-10.4858
记者	-10.486
天然	-10.4862
▁1997	-10.4865
聯合國	-10.4866
歇	-10.487
增設	-10.487
抄	-10.4872
其中包括	-10.4876
大夫	-10.4876
有时	-10.4878
流域	-10.4878
通知	-10.4879
维奇	-10.4881
迈	-10.4882
错	-10.4884
大眾	-10.4885
明显	-10.4885
關注	-10.4885
條例	-10.4888
齿	-10.4888
成绩	-10.4894
淳	-10.4895
粒	-10.4896
感情	-10.4897
大賽	-10.4901
收到	-10.4901
学术	-10.4904
查理	-10.4906
ry	-10.4909
▁5	-10.491
更多的	-10.4914
原則	-10.4919
殷	-10.4919
长沙	-10.492
適合	-10.4922
複雜	-10.4926
榮譽	-10.4928
虹	-10.4936
领导人	-10.4936
指導	-10.4937
路口	-10.4938
兔	-10.4939
安裝	-10.494
滨	-10.4944
根本	-10.4945
阁	-10.4946
劇集	-10.4947
加以	-10.4949
更名為	-10.4951
娃	-10.4955
吞	-10.4961
本科	-10.4962
棘	-10.4963
方面的	-10.4966
衍生	-10.4969
简单	-10.4971
罕	-10.4971
討	-10.4974
德意志	-10.4979
大区	-10.4982
电视台	-10.4983
誰	-10.4989
劳动	-10.4993
煤	-10.4995
隨即	-10.4996
吊	-10.4997
。2013	-10.4998
反而	-10.5002
被視為	-10.5004
確認	-10.5005
中間	-10.5008
沖	-10.501
澄	-10.5013
英格兰	-10.5014
裁	-10.5016
▁台灣	-10.5024
PS	-10.5036
柄	-10.5036
藍色	-10.5036
塞尔	-10.5036
邻	-10.5037
芝加哥	-10.5039
肝	-10.5045
方程	-10.5047
十一年	-10.5048
女人	-10.5049
扁	-10.505
遭遇	-10.505
殺害	-10.5054
宁波	-10.5055
。2010	-10.5056
─	-10.5057
飛彈	-10.5057
三大	-10.5058
工厂	-10.5061
胺	-10.5063
女神	-10.5067
哪	-10.5068
公交	-10.5072
跌	-10.5075
邀	-10.5077
ig	-10.508
一所	-10.5084
观点	-10.5085
$	-10.5086
雷斯	-10.5086
外國	-10.5087
學園	-10.5091
sh	-10.5091
游泳	-10.5096
臺中市	-10.5098
移动	-10.51
獎項	-10.5107
突出	-10.5109
立法會	-10.511
色彩	-10.5111
行駛	-10.5112
沿岸	-10.5112
子女	-10.5113
治疗	-10.5118
最重要的	-10.5119
證據	-10.5119
愈	-10.5121
姐	-10.5122
得主	-10.513
滕	-10.513
茅	-10.5138
。2011	-10.5141
多人	-10.5142
主唱	-10.5142
巨大的	-10.5142
干部	-10.515
ow	-10.5155
赏	-10.5156
放送	-10.5158
整合	-10.516
cn	-10.5163
肇	-10.5163
1925	-10.5163
=	-10.5165
棲	-10.5165
基金會	-10.5168
當局	-10.5168
抗日	-10.5169
開幕	-10.5171
炳	-10.5172
接著	-10.5173
的情況下	-10.5176
庚	-10.5176
青少年	-10.5178
譚	-10.518
mm	-10.5183
克里	-10.5185
披	-10.5186
免費	-10.5186
世界上	-10.5186
2.5	-10.5189
儲	-10.5191
作曲家	-10.5194
▁自	-10.5194
丁目	-10.5197
未有	-10.5201
紐	-10.5202
依照	-10.5203
員工	-10.5207
佑	-10.5213
本作	-10.5213
稀	-10.5216
泳	-10.5228
定期	-10.5229
董事	-10.5232
一级	-10.5238
中原	-10.5241
女主角	-10.5247
▁9	-10.525
自殺	-10.5253
非法	-10.5254
消防	-10.5254
幾個	-10.5258
成立於	-10.5263
建築物	-10.5266
西南部	-10.5269
藉由	-10.5269
旧市镇	-10.5271
庸	-10.5278
警告	-10.5278
一項	-10.5284
钦	-10.5285
係	-10.5286
精靈	-10.5286
西班牙语	-10.5289
红色	-10.529
此事	-10.5293
洛克	-10.5298
对象	-10.5298
戰車	-10.5298
億元	-10.5299
乡下辖以下地区	-10.5304
杆	-10.5307
靠近	-10.5308
男女	-10.5309
▁Ch	-10.531
ap	-10.5311
改名為	-10.5312
錯誤	-10.5317
▁张	-10.5319
主場	-10.5321
处于	-10.5321
誌	-10.5324
伊拉克	-10.5325
向量	-10.5325
檔案	-10.5326
广播	-10.5328
保險	-10.533
札	-10.5334
平成	-10.5336
呈現	-10.5336
国立	-10.5338
此地	-10.5338
人才	-10.534
主管	-10.534
160	-10.5341
大戰	-10.5349
原理	-10.535
日報	-10.5351
噶	-10.5352
讨论	-10.5353
翌年	-10.5354
指令	-10.5354
蓄	-10.5356
最小	-10.5356
縮	-10.5358
耕	-10.5363
ge	-10.5364
政治家	-10.5364
的主	-10.5365
預計	-10.5367
地形	-10.5368
上面	-10.5368
编辑	-10.5369
多种	-10.5371
的发展	-10.5372
那么	-10.5372
弟子	-10.5373
採取	-10.5374
1919	-10.5374
大街	-10.5377
蘇格蘭	-10.5377
未来	-10.5379
搭	-10.538
碟	-10.5382
氣候	-10.5382
但由於	-10.5386
An	-10.5387
财政	-10.5391
替代	-10.5391
東南	-10.5398
胞	-10.54
夺	-10.5404
考試	-10.5409
都在	-10.541
肩	-10.5412
04	-10.5413
卑	-10.5414
頗	-10.5415
紹	-10.5419
教师	-10.5421
冲突	-10.5423
一生	-10.5424
更是	-10.5426
臺中	-10.543
逾	-10.5433
推行	-10.5438
总部	-10.5438
貢	-10.5438
四个	-10.5441
遭受	-10.5445
研究中心	-10.5447
侍郎	-10.5447
壘	-10.5449
nd	-10.5449
主辦	-10.5451
02	-10.5452
分校	-10.5452
有一個	-10.5454
時段	-10.5458
学会	-10.5459
爬	-10.5459
事物	-10.5459
年被	-10.546
登陸	-10.5461
族群	-10.5465
排列	-10.5468
步槍	-10.547
眼睛	-10.5475
中间	-10.5478
防禦	-10.5479
自此	-10.5479
亿元	-10.5484
恐龍	-10.5486
織	-10.5489
规则	-10.5489
der	-10.5496
ST	-10.5496
拉克	-10.5512
通行	-10.5522
女演員	-10.5522
彼	-10.553
谋	-10.5535
创造	-10.5537
收費	-10.5538
纸	-10.5539
蒙特	-10.5546
最近	-10.5547
主流	-10.5548
争议	-10.5552
整體	-10.5552
清水	-10.5553
序列	-10.5553
儿子	-10.5559
奧地利	-10.5566
赐	-10.5569
爺	-10.5571
训	-10.5578
守護	-10.5581
遍	-10.5581
▁由于	-10.5582
并没有	-10.5583
董事長	-10.5587
有可能	-10.559
大连	-10.5591
里亚	-10.5594
1926	-10.5596
十三年	-10.5597
各國	-10.5597
-5	-10.5598
大桥	-10.5599
矛盾	-10.5601
1922	-10.5603
ly	-10.5608
尉	-10.561
1918	-10.5614
一面	-10.5615
興趣	-10.5617
ン	-10.5618
傳媒	-10.5618
提出了	-10.5619
卡爾	-10.5621
de	-10.5623
纲	-10.5627
以上的	-10.5628
站台	-10.5631
神經	-10.5634
衰	-10.5635
腐	-10.5641
蒋	-10.5643
威爾	-10.5645
搬	-10.5649
成分	-10.5653
轉乘	-10.5654
辦公室	-10.5661
人死亡	-10.5663
瓦尔	-10.5666
謂	-10.5668
脊	-10.5669
淵	-10.567
簽	-10.5674
斥	-10.5677
1924	-10.5679
平等	-10.5679
hant	-10.568
▁1990	-10.5683
裁判	-10.5691
识	-10.5691
實力	-10.5696
该物种的模式产地在	-10.5697
責	-10.5698
大師	-10.5699
眉	-10.5703
▁1996	-10.5703
体系	-10.5704
公眾	-10.5706
则是	-10.5706
观察	-10.5709
實現	-10.5711
聚集	-10.5714
神秘	-10.5714
湖北省	-10.572
受傷	-10.5723
研究院	-10.5724
的作用	-10.5726
冀	-10.5728
的地位	-10.5738
溶	-10.5739
漸	-10.5744
禄	-10.5744
恨	-10.5745
性质	-10.5747
权利	-10.5749
反映	-10.575
獄	-10.5751
尺	-10.5752
慰	-10.5755
粵語	-10.5755
修正	-10.5758
轉換	-10.5761
危險	-10.5761
責任	-10.5762
喬治	-10.5763
交界	-10.5764
qu	-10.5765
的存在	-10.5766
里克	-10.5767
造型	-10.5769
1914	-10.5774
歲時	-10.5784
狐	-10.5792
蕨	-10.5793
加入了	-10.5799
卡斯	-10.5801
衍	-10.5802
战略	-10.5803
。2019	-10.5803
激烈	-10.5806
如同	-10.5806
挺	-10.5806
尚書	-10.5808
AN	-10.581
德軍	-10.581
码	-10.5815
ho	-10.5818
濕	-10.582
郁	-10.5821
离子	-10.5823
築	-10.5824
四月	-10.5827
说法	-10.5827
仰	-10.583
銷量	-10.5833
具体	-10.5839
指控	-10.5841
──	-10.5841
哀	-10.5843
尼克	-10.5844
竟	-10.5846
山市	-10.5846
對應	-10.5847
列入	-10.5848
纵	-10.5848
是美国	-10.5852
告訴	-10.5855
物品	-10.5855
山西省	-10.5858
释	-10.5859
MA	-10.5859
編劇	-10.5861
1913	-10.5864
忙	-10.5866
註	-10.5868
山地	-10.5868
书记	-10.5869
顏	-10.587
升任	-10.5871
的城鎮	-10.5871
漏	-10.5875
回應	-10.5881
慈善	-10.5883
ss	-10.5885
中被	-10.5886
湖泊	-10.5891
添	-10.5892
候選人	-10.5892
全世界	-10.5893
加強	-10.5894
大部份	-10.5895
ph	-10.5896
財政	-10.5899
布朗	-10.5905
挂	-10.5906
都被	-10.5908
救援	-10.5909
管制	-10.591
供應	-10.5914
援助	-10.5914
贵州	-10.592
带来	-10.5922
在他	-10.5923
下來	-10.5924
da	-10.5925
DVD	-10.5926
一带	-10.5929
瀨	-10.5929
回歸	-10.5929
大埔	-10.5932
小组	-10.5938
被捕	-10.5944
逐步	-10.5946
。2007	-10.5947
兽	-10.5948
噸	-10.5948
被认为是	-10.5949
氯	-10.595
謙	-10.595
像是	-10.5952
經由	-10.5953
ang	-10.5954
青岛	-10.5954
斐	-10.5958
校舍	-10.5959
現在的	-10.5959
对应	-10.5962
抚	-10.5963
功率	-10.5967
马克	-10.5967
遲	-10.5968
帽	-10.5968
后者	-10.5969
航天	-10.5969
梵	-10.5971
直播	-10.5974
过去	-10.598
的兒子	-10.598
平民	-10.5981
庶	-10.5986
裡的	-10.5989
叫做	-10.5998
肺	-10.6001
勁	-10.6002
夕	-10.6003
寇	-10.6004
起初	-10.601
结婚	-10.601
旨	-10.6011
麵	-10.6012
最多的	-10.6014
圭	-10.6015
鞋	-10.6016
--	-10.6016
走向	-10.6021
辞	-10.6022
月底	-10.6024
▁1995	-10.6025
测试	-10.6026
。2006	-10.6026
愛情	-10.6027
亞歷山大	-10.603
也可	-10.603
也因此	-10.603
舉行的	-10.603
03	-10.6033
身亡	-10.6038
有許多	-10.6039
職務	-10.6039
岐	-10.604
尤其	-10.6041
焚	-10.6046
坤	-10.605
市政府	-10.6059
参加了	-10.6062
姊妹	-10.6064
排名第	-10.6065
阵	-10.6068
北平	-10.6069
经历	-10.6072
帳	-10.6074
弟弟	-10.6074
羅斯	-10.6075
悟	-10.6078
新城	-10.6079
十五年	-10.608
編輯	-10.6081
年轻	-10.6081
▁the	-10.6082
本片	-10.6082
大量的	-10.6083
了一個	-10.6085
紧	-10.6085
實行	-10.6085
灌	-10.6086
透露	-10.6087
七月	-10.6089
棟	-10.609
國民政府	-10.609
擴大	-10.6093
阶	-10.6093
後者	-10.6094
早期的	-10.6094
tion	-10.6094
任教	-10.6095
召開	-10.6097
劇場	-10.6098
▁此外	-10.61
餐廳	-10.61
就在	-10.6101
論文	-10.6105
列出	-10.6105
灭	-10.6108
日正式	-10.6109
任職	-10.6109
历任	-10.611
▁根据	-10.6111
歌唱	-10.6111
SA	-10.6113
評價	-10.612
有着	-10.6121
區內	-10.6122
定理	-10.6124
增加了	-10.6125
专门	-10.6126
嘗試	-10.6126
ac	-10.6126
采取	-10.6133
真正的	-10.6135
加速	-10.6138
销售	-10.6141
來往	-10.6141
濃	-10.6143
▁此	-10.615
埋	-10.6151
▁8	-10.6152
總會	-10.6156
證實	-10.6156
加工	-10.6158
院士	-10.616
眾多	-10.616
雌	-10.6162
歲的	-10.6163
半岛	-10.6164
上方	-10.6166
特別是	-10.6166
臺南	-10.6166
可見	-10.6167
分布在	-10.6167
支流	-10.6171
格式	-10.6171
賭	-10.6173
山口	-10.6177
享	-10.618
臂	-10.6186
引用	-10.6188
營業	-10.6188
雕	-10.6189
會長	-10.6194
巴尔	-10.6201
王位	-10.6202
vi	-10.6205
挑	-10.6208
年成立	-10.6212
主要的	-10.6212
传说	-10.6214
了他	-10.6219
刺激	-10.6222
é	-10.6224
评价	-10.6231
解除	-10.6232
年开始	-10.6234
可是	-10.6239
展覽	-10.6239
的發展	-10.6239
这次	-10.624
藻	-10.6247
運動會	-10.6247
改编	-10.6251
闊	-10.6252
會有	-10.6253
黃色	-10.6257
▁11	-10.6257
軒	-10.6259
sa	-10.6259
兵力	-10.6265
施工	-10.6266
众多	-10.6266
掃	-10.6266
<	-10.6267
斯堡	-10.6267
有一个	-10.6268
特别是	-10.627
农民	-10.6271
▁1994	-10.6273
山区	-10.6273
大規模	-10.6273
一套	-10.6274
地上	-10.6274
秘	-10.6276
垣	-10.6286
成立了	-10.6286
art	-10.6287
清朝政治人物	-10.6287
人数	-10.629
漢字	-10.6292
▁目前	-10.6293
」（）	-10.6295
下列	-10.6296
饰演	-10.6297
-10	-10.6297
仓	-10.6298
介绍	-10.63
的一座	-10.6302
桌	-10.6305
万元	-10.6306
信徒	-10.6307
新增	-10.6308
▁2023	-10.6309
1911	-10.6313
慘	-10.6314
攝	-10.6316
天津市	-10.6316
弥	-10.6316
幕府	-10.6318
與其	-10.6324
。2009	-10.6325
引发	-10.6325
美術	-10.6326
习	-10.6328
规	-10.6329
反抗	-10.633
高架	-10.6331
八月	-10.6335
下方	-10.6336
丛	-10.634
唇	-10.6341
贡献	-10.6341
大同	-10.6342
沪	-10.6344
▁另外	-10.6346
南昌	-10.6347
骑	-10.6347
涵	-10.6348
山區	-10.6349
1917	-10.6352
袭击	-10.6353
满足	-10.6358
就有	-10.6365
ub	-10.6367
荃灣	-10.6368
本名	-10.6368
首度	-10.6373
成人	-10.6374
參賽	-10.6374
物种	-10.6375
可以用	-10.6375
早在	-10.6376
贵族	-10.6379
BBC	-10.638
雇	-10.638
合唱	-10.6381
發明	-10.6382
科學家	-10.6389
常委	-10.639
維爾	-10.639
公式	-10.639
的情況	-10.6391
世界盃	-10.6393
入口	-10.6394
膠	-10.6394
堪	-10.6397
日後	-10.6404
享年	-10.6408
大规模	-10.641
懸	-10.6413
东京	-10.6415
吨	-10.6416
》(	-10.6417
腺	-10.6417
▁1993	-10.6422
使用了	-10.6423
都不	-10.6423
價格	-10.6426
布魯	-10.6427
SP	-10.6428
鈴	-10.6428
通常是	-10.6434
空氣	-10.644
損失	-10.6441
暫	-10.6441
月起	-10.6442
巴基斯坦	-10.6442
在上海	-10.6444
乐队	-10.645
传播	-10.6453
分成	-10.6453
朵	-10.6454
嘉靖	-10.6455
的母親	-10.6455
组合	-10.6456
百萬	-10.6458
官至	-10.646
藥物	-10.6461
ER	-10.6462
公佈	-10.6462
指导	-10.6464
壮	-10.6465
在這	-10.6476
妹妹	-10.6479
公安	-10.6481
的身份	-10.6483
水利	-10.6486
劇本	-10.649
尿	-10.6492
安娜	-10.6493
德尔	-10.6493
巨人	-10.6494
际	-10.6495
蒸	-10.6496
展开	-10.6496
不得不	-10.6497
事业	-10.6497
▁St	-10.6498
3000	-10.65
软	-10.6503
水域	-10.6503
诉	-10.6504
的意思	-10.6504
▁以下	-10.6504
壳	-10.6507
成果	-10.6507
親自	-10.6508
覆盖	-10.6513
飲	-10.6513
医生	-10.6515
勘	-10.6516
六十	-10.6518
▁雖然	-10.652
疆	-10.652
购	-10.6521
困難	-10.6522
一方	-10.6523
1923	-10.6524
豐富	-10.6525
咒	-10.6526
在台灣	-10.653
男人	-10.6538
兩岸	-10.6538
安徽省	-10.6539
领袖	-10.6539
肢	-10.6541
形成了	-10.6542
國軍	-10.6543
校園	-10.6545
彼此	-10.6545
他人	-10.655
福音	-10.6553
國道	-10.6554
关注	-10.6555
連載	-10.6555
盗	-10.6556
苏州	-10.6557
崗	-10.6558
au	-10.6559
斌	-10.6565
穴	-10.6565
来到	-10.6568
缓	-10.6569
歡	-10.657
追求	-10.657
do	-10.6582
代码为	-10.6582
io	-10.6582
現實	-10.6582
氫	-10.6583
文獻	-10.6584
觀點	-10.6585
以便	-10.6587
長子	-10.6587
投手	-10.6592
執政	-10.6597
猶	-10.6601
騰	-10.6607
測量	-10.6608
揭	-10.6609
高原	-10.6611
中期	-10.6611
相当	-10.6613
資產	-10.6613
就可以	-10.6614
主權	-10.6614
▁作詞	-10.6616
货运	-10.6616
以及中国大陆的	-10.6618
ab	-10.662
毕	-10.6628
ga	-10.663
關閉	-10.663
鯨	-10.663
划归	-10.6634
這樣的	-10.6635
配置	-10.6636
首任	-10.6638
-6	-10.6641
神经	-10.6643
Cl	-10.6645
遵	-10.6645
釋放	-10.6648
铁路局	-10.6652
1921	-10.6652
猪笼草	-10.6653
銜	-10.6659
印象	-10.6659
研發	-10.6659
国民政府	-10.6661
一架	-10.6661
槽	-10.6668
事務所	-10.6669
浅	-10.667
任意	-10.6674
讨	-10.6675
汶	-10.6677
射擊	-10.6677
岩石	-10.6681
祖先	-10.6682
250	-10.6684
漫画	-10.669
扩大	-10.6693
都会	-10.6697
链	-10.6697
推翻	-10.6699
上了	-10.6701
並無	-10.6701
中國國民黨	-10.6703
遮	-10.6713
省份	-10.6714
棉	-10.6716
創辦	-10.6717
。2012	-10.6718
1900	-10.6719
注册	-10.6719
複	-10.6719
年到	-10.6719
装备	-10.672
出入口	-10.6721
為一	-10.6723
猜	-10.6724
暫時	-10.6724
喷	-10.6726
阔	-10.6726
SS	-10.6732
订	-10.674
手中	-10.6742
是美國	-10.6742
甸	-10.6745
因應	-10.6746
幸福	-10.675
舰队	-10.6752
装置	-10.6758
也曾	-10.6759
密切	-10.676
换乘	-10.6765
明代	-10.6768
抗議	-10.6774
正是	-10.6778
開業	-10.6782
是一颗围绕太阳公转的小行星	-10.6782
冒險	-10.6782
推廣	-10.6784
惊	-10.6786
他曾	-10.6787
對此	-10.6789
單元	-10.679
阳县	-10.6791
机会	-10.6792
这样的	-10.6793
晚期	-10.6794
针对	-10.6794
首個	-10.6794
促進	-10.6795
接壤的市镇	-10.6795
丰富	-10.6796
领土	-10.6797
理念	-10.6798
教区	-10.68
棚	-10.6801
東海	-10.6808
总督	-10.6808
階級	-10.681
每次	-10.6812
九州	-10.6814
奥运会	-10.6814
種族	-10.6816
IN	-10.682
艙	-10.6821
海峽	-10.6821
庞	-10.6823
娶	-10.6827
针	-10.6827
阜	-10.683
芙	-10.6832
爭取	-10.6832
踢	-10.6834
因其	-10.6834
分別為	-10.684
仍有	-10.6841
阿富汗	-10.6842
這裡	-10.6845
矮	-10.6848
大公	-10.6852
▁周	-10.6853
戰鬥機	-10.6854
莲	-10.6854
Sh	-10.6862
氮	-10.6869
首播	-10.6869
宿舍	-10.6871
可以指	-10.6874
順利	-10.6874
漆	-10.6875
的历史	-10.6876
布雷	-10.6878
帆	-10.6879
天空	-10.688
技巧	-10.6883
第二次世界大戰	-10.6884
表达	-10.6885
▁1949	-10.6885
仪式	-10.6886
繁殖	-10.6886
ISTAT	-10.6888
▁1992	-10.6891
的妻子	-10.6891
分解	-10.6895
爐	-10.6895
以西	-10.6895
Br	-10.6901
請求	-10.6901
攻打	-10.6902
他还	-10.6906
建制	-10.6906
戰場	-10.6908
出戰	-10.6909
当时的	-10.6911
簽署	-10.6912
自稱	-10.6912
誘	-10.6913
汉族	-10.6916
的最高	-10.6916
伙	-10.6921
跑道	-10.6922
重返	-10.6924
▁伊	-10.6926
百姓	-10.6927
神話	-10.6927
的歷史	-10.693
ton	-10.6931
委會	-10.6936
路易斯	-10.6942
金剛	-10.6944
專家	-10.6947
專用	-10.6948
即可	-10.6949
观众	-10.695
詔	-10.695
大批	-10.6955
宣告	-10.6955
日下午	-10.6962
狱	-10.6967
島上	-10.6974
質疑	-10.6975
涂	-10.6979
生態	-10.698
爪	-10.6981
一間	-10.6981
障礙	-10.6983
参谋长	-10.6983
ou	-10.6987
從此	-10.6991
勾	-10.6991
珀	-10.6991
Windows	-10.6991
当年	-10.6997
搜索	-10.6998
裸	-10.6998
簽訂	-10.6999
烧	-10.6999
的儿子	-10.7001
ate	-10.7001
符號	-10.7006
」；	-10.7009
時候	-10.7009
對外	-10.701
支持者	-10.701
更高	-10.7014
闽	-10.7014
悉	-10.7017
TVB	-10.7017
山坡	-10.7018
安装	-10.7019
元朝	-10.702
罗斯	-10.7023
垂直	-10.7028
烯	-10.7028
崩	-10.7028
台中	-10.7031
以外的	-10.7035
同志	-10.7038
官方网站	-10.704
多種	-10.7041
擺	-10.7042
凝	-10.7044
防守	-10.7046
北宋	-10.7047
一隻	-10.7048
太原	-10.705
CA	-10.7052
理事	-10.7053
的人口	-10.7053
友好	-10.7054
設於	-10.7059
一旦	-10.706
布尔	-10.7063
涉嫌	-10.7064
用以	-10.7064
夾	-10.7067
高達	-10.7068
九月	-10.7069
擁	-10.7069
東亞	-10.7071
目的是	-10.7071
第十一	-10.7079
閱	-10.7079
同步	-10.708
温度	-10.7081
▁中國	-10.7083
姓氏	-10.7083
四世	-10.7084
連結	-10.7085
最新	-10.7088
经济学	-10.7089
ag	-10.7096
pe	-10.7097
批判	-10.71
俄国	-10.71
前身	-10.7102
主张	-10.7102
六月	-10.7102
俱	-10.7103
闭	-10.7104
標誌	-10.7105
百年	-10.7106
率领	-10.7113
笛	-10.7116
天王	-10.7117
流量	-10.7119
排行榜	-10.7122
形成的	-10.7124
駕	-10.7125
際	-10.7125
關鍵	-10.7126
赠	-10.7126
及其他	-10.7129
輸	-10.7132
周围	-10.7133
坛	-10.7135
重視	-10.7141
进士	-10.7141
日治時期	-10.7142
吉林	-10.7143
棲息在	-10.7145
戰隊	-10.7147
而來	-10.715
附属	-10.715
委书记	-10.7151
橘	-10.7151
巴斯	-10.7153
分佈	-10.7154
突厥	-10.7158
入選	-10.7159
▁Re	-10.7161
的成員	-10.7165
时任	-10.7167
優勢	-10.7169
亩	-10.7169
罷	-10.717
肯定	-10.717
Le	-10.717
孕	-10.7171
促	-10.7171
虚	-10.7173
杏	-10.7174
检查	-10.7175
入球	-10.7177
間的	-10.718
之地	-10.7181
輩	-10.7181
。2018	-10.7181
放弃	-10.7182
一款	-10.7186
猫	-10.7187
签署	-10.7188
三位	-10.7189
交換	-10.7191
平行	-10.72
大楼	-10.7204
姐姐	-10.7207
mi	-10.7211
廿	-10.7212
鮑	-10.7212
优秀	-10.7214
一场	-10.7215
技能	-10.7221
三次	-10.7222
哈尔滨	-10.7223
做為	-10.7226
藉	-10.7241
110	-10.7242
1%	-10.7246
千米	-10.7255
看見	-10.7255
尚书	-10.7257
猎	-10.7257
無論	-10.7258
改良	-10.7258
十八年	-10.7259
兩次	-10.7259
。2005	-10.726
惑	-10.726
的歌曲	-10.726
ong	-10.726
立法委員	-10.7263
丹尼	-10.7266
肌	-10.7267
监督	-10.7268
拿下	-10.7268
選出	-10.727
轉移	-10.7275
原有	-10.7275
英軍	-10.7276
楠	-10.7287
劇場版	-10.7296
签	-10.7297
周邊	-10.7299
定位	-10.7303
十二月	-10.7307
牠	-10.7308
時期的	-10.7309
浙	-10.7311
错误	-10.7317
山脉	-10.7317
執導	-10.7318
发起	-10.7322
高山	-10.7324
市政	-10.7324
噴	-10.7326
秉	-10.733
较大	-10.7332
二十四	-10.7333
一顆	-10.7336
出自	-10.7337
不可能	-10.7339
部部长	-10.7339
浴	-10.7341
鲍	-10.7346
行政区	-10.7346
课程	-10.7348
居住在	-10.7349
罩	-10.735
公告	-10.735
140	-10.7353
凉	-10.7353
世界杯	-10.7354
勝出	-10.7355
搜	-10.7355
绥	-10.7355
900	-10.7355
太守	-10.7356
原因是	-10.7357
雍正	-10.7361
央	-10.7361
α	-10.7364
地质	-10.7365
汀	-10.7366
禾	-10.7366
傑克	-10.737
他被	-10.7371
中正	-10.7376
起源	-10.7377
恋	-10.7378
est	-10.7378
例子	-10.7379
多数	-10.7382
惡魔	-10.7383
DNA	-10.7384
od	-10.7386
發布	-10.7388
民政	-10.7389
膽	-10.7389
基本上	-10.7393
上游	-10.7394
宣言	-10.7394
后期	-10.7395
民间	-10.7396
析	-10.7398
觀塘	-10.7399
況	-10.7401
億美元	-10.7402
（；）	-10.7404
赶	-10.7405
地域	-10.7408
多名	-10.741
喜欢	-10.741
園區	-10.7413
腸	-10.7414
掩	-10.7415
空气	-10.7417
循環	-10.7419
地中海	-10.7421
每一	-10.7421
特里	-10.7421
第三次	-10.7424
诏	-10.7426
平安	-10.7426
覺得	-10.7432
一郎	-10.7432
戰略	-10.7435
電力	-10.7438
丹麥	-10.7439
周边	-10.7441
另一个	-10.7441
贊	-10.7442
畢業後	-10.7444
深入	-10.7444
贯	-10.7445
丈	-10.7447
說法	-10.7451
曾被	-10.7452
埃尔	-10.7452
將領	-10.7455
競	-10.7455
代码	-10.7455
絕對	-10.7457
▁de	-10.7457
标志	-10.7459
认	-10.746
緯	-10.7461
润	-10.7461
ON	-10.7461
教徒	-10.7461
AM	-10.7464
敢	-10.7464
CO	-10.7467
同日	-10.7468
隶属于	-10.7468
東區	-10.747
華盛頓	-10.7472
威尔	-10.7476
哭	-10.7479
行政長官	-10.748
矣	-10.7481
大帝	-10.7486
有很多	-10.7487
意见	-10.7495
已於	-10.7499
感覺	-10.7505
從而	-10.7506
保守	-10.7508
积极	-10.7509
美麗	-10.751
第一部	-10.7512
懷疑	-10.7513
的情况下	-10.7515
更改	-10.7516
IP	-10.752
盒	-10.7521
出色	-10.7522
澳大利亞	-10.7523
齋	-10.7525
活躍	-10.7526
十四年	-10.7534
樂隊	-10.754
學名	-10.754
违	-10.7545
文献	-10.7545
穩	-10.7546
势力	-10.7546
身体	-10.7547
俱樂部	-10.755
邀请	-10.7551
軍官	-10.7553
灾	-10.7553
建有	-10.7553
延長	-10.7556
僅有	-10.7559
即是	-10.756
捷克	-10.7562
正確	-10.7565
法令	-10.7567
總站	-10.7569
不受	-10.7571
的土地	-10.7572
长度	-10.7573
接触	-10.7574
萨尔	-10.7578
3%	-10.7582
委任	-10.7582
公社	-10.7582
等級	-10.7583
逻辑	-10.7584
虞	-10.7584
違	-10.7585
地圖	-10.7585
知识	-10.7588
伪	-10.7591
拒	-10.7592
霖	-10.7593
周期	-10.7594
中最	-10.7596
偽	-10.7599
匪	-10.76
桃園	-10.7601
二月	-10.7602
改稱	-10.7606
发动机	-10.761
南宋	-10.7612
確	-10.7612
页	-10.7613
开展	-10.7614
身為	-10.7615
事實上	-10.7615
近年	-10.7616
压力	-10.7618
手下	-10.7622
分離	-10.7626
殊	-10.7626
之意	-10.7626
民众	-10.7627
MS	-10.7627
忌	-10.7632
帶有	-10.7637
ak	-10.7637
脫離	-10.7638
覆蓋	-10.7639
之上	-10.7641
福德	-10.7645
之名	-10.7648
張專輯	-10.7652
工商	-10.7652
顾问	-10.7653
沼	-10.7657
内蒙古	-10.7659
騎兵	-10.766
型態	-10.7661
以往	-10.7661
爱尔兰	-10.7661
天后	-10.7662
考察	-10.7664
▁除了	-10.7665
就任	-10.7667
傲	-10.7668
緊急	-10.767
任中共	-10.7672
财	-10.7673
王室	-10.7676
戰術	-10.7677
ian	-10.7677
勋章	-10.7677
呼吸	-10.768
次子	-10.768
探索	-10.7682
挖	-10.7683
熱帶	-10.7684
购买	-10.7685
符号	-10.7686
请求	-10.7686
损失	-10.7687
州府	-10.7689
鱷	-10.7695
企圖	-10.7696
发出	-10.7698
格勒	-10.7701
甘肃	-10.7701
迫使	-10.7704
包圍	-10.7706
機車	-10.7706
溝	-10.7707
回答	-10.7707
办理	-10.7707
猪	-10.7708
来源	-10.7709
控股	-10.771
種子	-10.7712
签订	-10.7713
山東	-10.7715
兩名	-10.7715
犹太人	-10.7717
中環	-10.7718
鼓勵	-10.7718
出现在	-10.7721
威胁	-10.7723
信任	-10.7726
連任	-10.773
完整的	-10.773
的基本	-10.7733
130	-10.7734
臺南市	-10.7734
生長	-10.774
較高	-10.7741
不但	-10.7742
用戶	-10.7742
碱	-10.7742
希特勒	-10.7747
碩士	-10.7747
足球俱乐部	-10.7749
结束后	-10.775
淚	-10.7751
屍	-10.7752
棠	-10.7755
完成了	-10.7756
杭	-10.7757
駿	-10.7759
华盛顿	-10.776
浸	-10.7763
但仍	-10.7769
须	-10.7772
險	-10.7773
矩	-10.7777
除此之外	-10.778
升級	-10.7781
克里斯	-10.779
慕容	-10.7792
方程式	-10.7792
勋	-10.7792
PC	-10.7794
麓	-10.7794
ip	-10.7796
人民法院	-10.7797
覽	-10.7798
呢	-10.7801
閘	-10.7801
屬下的一个种	-10.7806
乌克兰	-10.7808
桿	-10.7809
了他的	-10.7816
▁1991	-10.7818
地址	-10.7818
洛杉磯	-10.7818
一詞	-10.7821
立法院	-10.7822
培养	-10.7824
帶著	-10.7824
至此	-10.7825
回合	-10.7826
分別是	-10.7828
热带	-10.7828
迪士尼	-10.783
高峰	-10.7832
合同	-10.7836
電車	-10.7837
的設計	-10.7837
怨	-10.7837
聖經	-10.7839
銳	-10.784
全新	-10.784
抑制	-10.7841
出现了	-10.7842
北魏	-10.7843
周圍	-10.7845
接管	-10.7846
開辦	-10.7847
不僅	-10.7848
良好	-10.785
徹	-10.785
南至	-10.7851
▁1980	-10.7851
MP	-10.7852
宰	-10.7857
全长	-10.7857
抵达	-10.7859
储	-10.7862
西元	-10.7862
趁	-10.7863
5000	-10.7863
添加	-10.7865
币	-10.7865
情况下	-10.7867
格里	-10.787
汉语	-10.7874
穿著	-10.7875
瓊	-10.7876
▁刘	-10.7876
附屬	-10.7876
姿	-10.7877
砖	-10.7881
株	-10.7887
身高	-10.7888
職員	-10.7892
麥克	-10.7896
褐色	-10.7896
亞軍	-10.7898
缅甸	-10.79
便是	-10.7905
ec	-10.7906
魁	-10.7909
檢查	-10.791
▁朱	-10.7914
本部	-10.7916
原創	-10.7917
並與	-10.7923
资金	-10.7923
斯卡	-10.7923
駛	-10.7923
竞争	-10.7924
发现了	-10.7931
机器	-10.7931
净	-10.7931
庵	-10.7931
公署	-10.7932
也能	-10.7937
面前	-10.7937
生活在	-10.7939
無人	-10.794
可用	-10.7942
》《	-10.7944
频	-10.7944
司令员	-10.7945
戏剧	-10.7945
聲音	-10.7946
边界	-10.7947
的时间	-10.7948
原来	-10.7949
照顧	-10.7952
都督	-10.7952
赢得	-10.7957
若干	-10.7958
INSEE	-10.7961
遊行	-10.7961
市镇编码为	-10.7966
的邮政编码为	-10.7966
整理	-10.7968
容量	-10.7968
螺旋	-10.7969
行者	-10.7972
估计	-10.7972
沙漠	-10.7973
雅典	-10.7974
聲明	-10.798
國家隊	-10.7981
特点	-10.7983
醉	-10.7984
塵	-10.7985
立場	-10.7989
末期	-10.799
大橋	-10.7992
有一些	-10.7997
贴	-10.7999
太后	-10.8001
認同	-10.8001
違反	-10.8002
性別	-10.8002
0.5	-10.8003
内阁	-10.8003
以為	-10.8005
▁1989	-10.801
Mar	-10.8011
河口	-10.8011
三月	-10.8011
per	-10.8014
讚	-10.8019
波音	-10.8024
不敢	-10.8025
济南	-10.8025
疫情	-10.8026
生态	-10.8029
祭祀	-10.8031
訴	-10.8032
一千	-10.8038
不知道	-10.8039
領地	-10.804
新生	-10.8043
夫斯基	-10.8043
輸入	-10.8044
第十三	-10.8048
簽約	-10.8049
青春	-10.805
當天	-10.8051
讓他	-10.8052
眾人	-10.8052
其子	-10.8053
等待	-10.8054
价格	-10.8054
陪	-10.8055
ng	-10.8056
测量	-10.8057
1910	-10.806
交流道	-10.8061
sp	-10.8061
整体	-10.8061
洪武	-10.8063
世界各地	-10.8066
一项	-10.8067
沿用	-10.8071
立陶宛	-10.8073
鍵	-10.8073
同時也	-10.8073
秘書	-10.8077
概	-10.8081
否	-10.8083
募	-10.8084
当选为	-10.8086
竣工	-10.8095
两次	-10.8098
2%	-10.8099
AS	-10.81
酮	-10.8102
彰	-10.8103
聰	-10.8103
格雷	-10.8104
了一些	-10.8113
下一	-10.8114
消滅	-10.8114
比利时	-10.8115
兩位	-10.8118
大衛	-10.8119
搞	-10.8119
復活	-10.812
格林	-10.812
▁吳	-10.8121
形狀	-10.8126
長達	-10.8127
维持	-10.8127
加强	-10.8129
天體	-10.8133
就像	-10.8134
的事情	-10.8134
▁1988	-10.8135
ant	-10.8137
ex	-10.8138
盆地	-10.8141
国际机场	-10.8141
誓	-10.8143
隸屬	-10.8145
其中一個	-10.8147
颜色	-10.8151
be	-10.8152
遙	-10.8153
手機	-10.8154
Mi	-10.8155
委託	-10.8156
改称	-10.8157
荣誉	-10.816
取得了	-10.8161
風險	-10.8162
十一月	-10.8163
週期	-10.8163
170	-10.8166
翅	-10.8167
峡	-10.8168
bo	-10.817
往返	-10.8171
于时的人口数量为人	-10.8172
广告	-10.8172
促进	-10.8172
人權	-10.8172
匠	-10.8174
畫面	-10.8175
出來的	-10.8178
德川	-10.8179
兩年	-10.818
錄音	-10.818
均有	-10.8181
黑人	-10.8183
跟隨	-10.8184
弗里	-10.8187
註冊	-10.8192
種類	-10.8192
名古屋	-10.8196
▁陈	-10.8197
定律	-10.8198
線上	-10.8199
余人	-10.8201
欠	-10.8203
侵略	-10.8204
...	-10.8206
朔	-10.8211
打敗	-10.8212
登記	-10.8213
碰	-10.8213
詠	-10.8216
富士	-10.8217
堅持	-10.8218
动力	-10.822
週年	-10.8221
事情	-10.8222
丹麦	-10.8225
香港政府	-10.8229
都可以	-10.8229
習慣	-10.8231
鉴	-10.8232
耶穌	-10.8234
傳奇	-10.8234
MV	-10.8236
翡翠台	-10.8236
沃尔	-10.824
的问题	-10.8242
曾於	-10.8244
的关系	-10.8245
死於	-10.8247
唐代	-10.8249
所属的省级选区为	-10.8249
的女兒	-10.8249
臺灣省	-10.8252
手槍	-10.8253
主播	-10.8253
前者	-10.8254
頒獎典禮	-10.8256
麦克	-10.8259
傷害	-10.8261
专区	-10.8261
併入	-10.8262
印第安	-10.8264
台南	-10.8264
餅	-10.8266
傾向	-10.8268
聲稱	-10.8268
强烈	-10.8271
男孩	-10.8272
世代	-10.8276
拯救	-10.8279
其父	-10.8281
眠	-10.8283
播映	-10.8286
彬	-10.8287
括	-10.8288
7%	-10.8288
太祖	-10.8288
穿越	-10.8291
新竹	-10.8297
冥	-10.8302
存在的	-10.8309
▁X	-10.8309
著有	-10.8311
她們	-10.8311
女歌手	-10.8312
小孩	-10.8313
出發	-10.8315
乌斯	-10.8318
电力	-10.832
夏天	-10.8322
解放军	-10.8327
拟	-10.8328
送到	-10.8331
秘书	-10.8332
常見	-10.8343
▁截至	-10.8345
象征	-10.8347
go	-10.8348
黛	-10.835
实验室	-10.835
瑜	-10.835
药物	-10.8351
初年	-10.8352
涌	-10.8356
梓	-10.8363
元朗	-10.8363
ee	-10.8364
寡	-10.8364
首批	-10.8366
前後	-10.8366
政治委员	-10.8367
ers	-10.8368
较为	-10.8372
一路	-10.8373
元音	-10.8373
充滿	-10.8374
巴拉	-10.8376
場比賽	-10.8377
畏	-10.8378
戀愛	-10.8379
三国	-10.838
昆明	-10.8381
4%	-10.8381
发明	-10.8381
劇中	-10.8382
毕业于	-10.8384
牵引	-10.8384
約為	-10.8385
鸿	-10.8387
移居	-10.8388
ca	-10.8391
长春	-10.8395
斯托	-10.8397
舱	-10.8397
鹰	-10.8397
輻射	-10.8397
先前	-10.84
3.5	-10.8401
一級	-10.8402
哉	-10.8407
叙	-10.8409
二戰	-10.8409
8%	-10.841
烏克蘭	-10.841
握	-10.8411
辨	-10.8412
的功能	-10.8414
村民	-10.8415
奸	-10.8418
创立	-10.8419
奥尔	-10.8421
1.2	-10.8422
基隆	-10.8422
比赛中	-10.8424
死后	-10.8429
不仅	-10.843
驅	-10.8431
。2016	-10.8434
经验	-10.8436
免疫	-10.8439
盲	-10.8441
靈魂	-10.8446
ru	-10.8447
攀	-10.8448
牢	-10.8449
作詞	-10.8449
部署	-10.845
库尔	-10.845
栗	-10.8451
一首	-10.8457
架構	-10.8457
▁Co	-10.8457
途經	-10.8457
Bo	-10.8458
第一屆	-10.8459
同治	-10.8461
韶	-10.8463
最高法院	-10.8463
日报	-10.8468
保羅	-10.847
其余	-10.8476
球迷	-10.8477
泊	-10.8477
多元	-10.8477
使他	-10.8479
天地	-10.848
▁中华人民共和国	-10.8483
崇拜	-10.8484
米爾	-10.8485
日語	-10.8485
对外	-10.8485
并未	-10.8486
韵	-10.8489
萨克	-10.849
工作室	-10.8493
诗人	-10.8494
No	-10.8495
之處	-10.8495
锋	-10.8497
）、《	-10.8501
明确	-10.8502
遞	-10.8506
充分	-10.8508
…	-10.8509
入境	-10.851
不如	-10.851
召集	-10.8511
贞	-10.8512
鹤	-10.8512
僕	-10.8518
下游	-10.852
分离	-10.852
▁Ma	-10.8524
直通	-10.8526
肅	-10.8527
大正	-10.8528
模仿	-10.8529
勞動	-10.8529
酯	-10.853
單一	-10.8533
本來	-10.8533
超级	-10.8538
硫	-10.854
波特	-10.8543
女儿	-10.8544
氣體	-10.855
陕西省	-10.855
▁1987	-10.8552
Sp	-10.8553
第十二	-10.8557
鋪	-10.8561
公众	-10.8563
曾是	-10.8565
獅子	-10.8565
释放	-10.8567
导弹	-10.8569
示威	-10.857
的消息	-10.8572
两侧	-10.8574
很大的	-10.8575
申请	-10.8576
▁饰	-10.8576
生日	-10.8576
US	-10.8577
婦女	-10.8578
魚類	-10.8581
十七年	-10.8582
債	-10.8585
趣	-10.8586
面向	-10.8588
武士	-10.8588
1916	-10.8593
丞	-10.8594
人文	-10.8595
裴	-10.8595
總監	-10.8598
休息	-10.8602
悬	-10.8607
任天堂	-10.8609
一代	-10.8611
很好	-10.8611
民主党	-10.8613
明確	-10.8613
企	-10.8619
約有	-10.8622
合理	-10.8622
江西省	-10.8622
启用	-10.8624
參賽者	-10.8625
喉	-10.8626
手術	-10.8627
下半	-10.8631
位于法国	-10.8631
平定	-10.8632
命名为	-10.8636
栏	-10.8639
在中国大陆	-10.8639
胃	-10.8641
授權	-10.8645
拉德	-10.8646
▁U	-10.8646
颇	-10.8649
哈利	-10.865
試驗	-10.865
悠	-10.865
轨道交通	-10.8652
出土	-10.8652
并将	-10.8654
的速度	-10.8654
的學生	-10.8657
相關的	-10.8659
一批	-10.8659
貨物	-10.8659
克萊	-10.8659
發揮	-10.8659
庇	-10.8661
喜愛	-10.8662
司马	-10.8662
確保	-10.8664
外界	-10.8665
旧址	-10.8667
穎	-10.8668
。2004	-10.8669
事後	-10.8673
芽	-10.8673
在中國	-10.8673
地点	-10.8675
声明	-10.8676
享有	-10.8677
一片	-10.868
泰国	-10.8682
的朋友	-10.8683
無限	-10.8688
炸彈	-10.8688
書籍	-10.869
婉	-10.8696
縣人	-10.8696
御史	-10.8699
病人	-10.8699
機制	-10.87
文化大革命	-10.8701
卡特	-10.8701
外表	-10.8702
截止	-10.8705
公車	-10.8707
1915	-10.8708
6%	-10.8709
福特	-10.8713
譽	-10.8713
因此在	-10.8714
獲得了	-10.8715
託	-10.8716
-7	-10.8716
刃	-10.8717
洁	-10.8722
科夫	-10.8725
政委	-10.8725
流亡	-10.8725
又有	-10.8727
孚	-10.873
律师	-10.873
Re	-10.8732
亦可	-10.8735
這項	-10.8735
该省份为法国	-10.8736
带有	-10.8736
草原	-10.8743
TA	-10.8744
扩展	-10.8745
搖滾	-10.8746
埠	-10.8749
范围内	-10.8749
寅	-10.8751
的行為	-10.8754
寻	-10.8755
最后一	-10.8756
论文	-10.8756
县城	-10.8756
关闭	-10.8757
亿美元	-10.876
po	-10.876
少将	-10.8761
DS	-10.8763
包含了	-10.8763
依靠	-10.8764
椎	-10.8764
反射	-10.8766
而得名	-10.8768
血液	-10.8771
逝	-10.8773
杀死	-10.8773
辽宁	-10.8774
考试	-10.8774
子彈	-10.878
畢業於	-10.878
注入	-10.8787
俗稱	-10.8788
销	-10.8793
以其	-10.8794
哥倫比亞	-10.8796
原则	-10.8796
完美	-10.8797
防空	-10.8798
指的是	-10.8801
資金	-10.8802
是為了	-10.881
削	-10.8813
型號	-10.8813
新型	-10.8815
龐	-10.8819
农村	-10.8821
将领	-10.8822
MO	-10.8823
喊	-10.8825
但是在	-10.8828
組成的	-10.883
足以	-10.8837
基督徒	-10.8838
股票	-10.8839
措	-10.8839
MI	-10.884
禹	-10.8841
少数	-10.8844
翰	-10.8845
誕生	-10.8847
输入	-10.8849
蛙	-10.8849
更為	-10.8852
主動	-10.8853
锦标赛	-10.8854
鏈	-10.8854
保罗	-10.8855
组成的	-10.8855
曾有	-10.8855
窄	-10.8857
老人	-10.8857
道教	-10.8863
有机	-10.8864
情报	-10.8865
則在	-10.8866
日上午	-10.8866
当局	-10.8866
幻想	-10.8867
名单	-10.8874
會被	-10.8876
ive	-10.8878
说明	-10.888
疊	-10.888
克莱	-10.8882
弃	-10.8883
路线	-10.8884
筹	-10.8886
芬蘭	-10.8887
国民党	-10.8888
爽	-10.8889
烷	-10.8889
詳	-10.889
足夠	-10.8891
費用	-10.8894
古巴	-10.8897
犹太	-10.8898
新人	-10.8898
东风	-10.89
評估	-10.8905
之父	-10.8908
比亞	-10.8908
隊員	-10.8913
雍	-10.892
1905	-10.8921
品質	-10.8922
交换	-10.8922
五世	-10.8923
隶属	-10.8924
慕尼黑	-10.8926
增長	-10.8928
中华人民共和国政治人物	-10.8928
泰勒	-10.893
岁的	-10.8931
即將	-10.8932
王后	-10.8933
资格	-10.8937
荆	-10.8937
卫视	-10.8938
Li	-10.8939
十六年	-10.8941
經濟學	-10.8941
是一座	-10.8941
座位	-10.8942
Ma	-10.8942
不满	-10.8945
網球	-10.8946
一群	-10.8952
NE	-10.8956
米尔	-10.8958
宣稱	-10.8958
萍	-10.8962
學士	-10.8964
-8	-10.8965
葡萄牙语	-10.8966
降落	-10.8966
少量	-10.8966
交叉	-10.8968
成立于	-10.8968
叢	-10.8969
郑州	-10.897
發佈	-10.897
瓦爾	-10.8971
國防部	-10.8971
煉	-10.8972
則有	-10.8975
纪录	-10.8978
聯繫	-10.8978
訊號	-10.8978
输	-10.898
撫	-10.8981
鋼琴	-10.8981
傑出	-10.8983
秩序	-10.8985
辦理	-10.8991
广州市	-10.8993
歌詞	-10.8994
ris	-10.8995
神父	-10.8995
交通部	-10.8997
並由	-10.8998
失去了	-10.8999
入选	-10.8999
南斯拉夫	-10.9
III	-10.9001
时候	-10.9004
包括了	-10.9005
夏威夷	-10.9007
嫡	-10.9007
9%	-10.9007
外部	-10.9007
體系	-10.901
娱乐	-10.9012
製作的	-10.9012
頭部	-10.9013
預算	-10.9013
監製	-10.9015
很高	-10.9017
煮	-10.9017
萌	-10.9018
si	-10.9026
更好	-10.9026
吏	-10.903
沛	-10.9031
阿斯	-10.9032
邊界	-10.9032
鸣	-10.9033
变得	-10.9036
願意	-10.9037
早上	-10.9038
菲律宾	-10.9039
格尔	-10.9044
當日	-10.9044
歡迎	-10.9052
侄	-10.9053
議題	-10.9054
施行	-10.9054
頌	-10.9055
啟動	-10.9059
痕	-10.906
詩人	-10.906
黄金	-10.9064
保证	-10.9065
仍在	-10.9065
認定	-10.9066
搖	-10.9066
文帝	-10.9066
第一名	-10.9071
乘坐	-10.9073
斗争	-10.9073
天氣	-10.9073
姐妹	-10.9074
輔助	-10.9076
窟	-10.9079
科幻	-10.9082
共和	-10.9082
月份	-10.9083
超人	-10.9086
左翼	-10.9086
但其	-10.9089
BA	-10.9092
汁	-10.9096
發動機	-10.9099
戎	-10.9104
no	-10.9106
蒼	-10.9107
种族	-10.9111
兩國	-10.9112
上半	-10.9113
证据	-10.9114
光明	-10.9116
刷	-10.9116
对此	-10.9119
花园	-10.9122
荔	-10.9129
繳	-10.9129
航線	-10.913
行政区划	-10.9132
社群	-10.9136
望遠鏡	-10.9137
黏	-10.914
ord	-10.914
均为	-10.914
▁1986	-10.9141
hi	-10.9148
喜劇	-10.915
赛事	-10.9152
影響力	-10.9153
慶祝	-10.9153
威尼斯	-10.9154
西斯	-10.9156
防衛	-10.9157
“”	-10.9157
真相	-10.9159
場地	-10.9161
坚持	-10.9161
呎	-10.9164
年代初	-10.9165
總是	-10.9168
提交	-10.9172
妥	-10.9174
斯科	-10.9177
通车	-10.9178
巴赫	-10.9178
蘆	-10.9181
橫濱	-10.9183
區間	-10.9184
0.0	-10.9189
對戰	-10.9193
提前	-10.9193
穆罕默德	-10.9197
職位	-10.9198
復興	-10.92
枢纽	-10.92
勳章	-10.9201
经典	-10.9202
触	-10.9203
子公司	-10.9203
名人	-10.9203
限定	-10.9204
。2003	-10.9206
优势	-10.9213
撰寫	-10.9213
凍	-10.9214
假設	-10.9215
三國	-10.9218
立委	-10.922
得分	-10.9221
亲王	-10.9226
族人	-10.9226
兴建	-10.9229
洛夫	-10.9229
滿足	-10.923
Google	-10.9233
up	-10.9234
▁黄	-10.9235
是一部	-10.9239
可靠	-10.9239
回家	-10.924
普及	-10.9241
不良	-10.9243
五個	-10.9245
頻率	-10.9247
詳細	-10.9251
摘	-10.9255
主体	-10.9257
在他的	-10.9257
及後	-10.9258
尊重	-10.9261
妇	-10.9266
入圍	-10.9267
废除	-10.9271
滋	-10.9275
日本人	-10.9275
流浪	-10.9279
科尔	-10.928
晉級	-10.9281
改制為	-10.9281
帮	-10.9284
供奉	-10.9285
英超	-10.9285
高地	-10.9289
便利	-10.9292
现实	-10.9292
尼古拉	-10.9295
芬兰	-10.9296
交往	-10.9298
永遠	-10.9298
he	-10.9299
殉	-10.9302
医疗	-10.9305
談判	-10.9307
事實	-10.9307
英里	-10.9308
一職	-10.9308
1906	-10.9308
不幸	-10.931
漢語	-10.9316
山县	-10.9319
ai	-10.932
com	-10.9326
有不少	-10.9327
1909	-10.9327
相应	-10.9329
室內	-10.9331
防御	-10.9331
约为	-10.9332
最為	-10.9334
第一代	-10.9336
相當於	-10.9336
製成	-10.9337
聯絡	-10.9339
主人	-10.9341
頸	-10.9342
中途	-10.9343
算法	-10.9345
声称	-10.9347
勉	-10.9347
思考	-10.9353
該校	-10.9355
等级	-10.9361
所谓	-10.9362
种植	-10.9364
旱	-10.9365
出场	-10.9365
演藝	-10.9365
史密斯	-10.9369
胆	-10.9372
南路	-10.9374
萬美元	-10.9374
妇女	-10.9376
公子	-10.9377
不需要	-10.9378
下来	-10.9378
渔	-10.9379
地图	-10.938
塞爾	-10.938
數碼	-10.938
足球運動員	-10.9384
物體	-10.9386
鴨	-10.9389
。2015	-10.939
。2014	-10.9393
站房	-10.9394
巴爾	-10.9397
樂器	-10.9398
後被	-10.9399
堀	-10.94
国军	-10.94
新設	-10.9401
汽	-10.9401
协助	-10.9402
的女性	-10.9402
但卻	-10.9403
訊息	-10.9403
一艘	-10.9403
侠	-10.9405
予以	-10.9405
电话	-10.9406
維護	-10.9407
零售	-10.9409
信奉	-10.9411
达尔	-10.9412
上午	-10.9412
▁徐	-10.9415
故障	-10.9416
的例子	-10.9416
土壤	-10.942
凹	-10.9422
1907	-10.9422
贊助	-10.9426
緬甸	-10.9428
就能	-10.9432
症狀	-10.9433
草案	-10.9434
下面	-10.9437
溶液	-10.9438
酬	-10.9439
劝	-10.9439
馬爾	-10.9443
於同年	-10.9447
装饰	-10.9447
外觀	-10.9448
智利	-10.945
科学家	-10.9451
蝦	-10.9459
電視節目	-10.9461
灣仔	-10.9463
宋朝	-10.9465
立刻	-10.9465
手法	-10.9466
當作	-10.9467
弧	-10.9467
南美洲	-10.9469
帖	-10.947
社長	-10.9472
停車場	-10.9472
言論	-10.9473
炭	-10.9476
經理	-10.9478
模特兒	-10.9479
出場	-10.9479
三角形	-10.948
是中华人民共和国	-10.9485
▁如果	-10.9485
困难	-10.9485
危机	-10.9487
前任	-10.9487
區議會	-10.9487
盆	-10.9489
二十年	-10.949
妖怪	-10.9493
尺寸	-10.9493
究	-10.9497
機器人	-10.9499
歐盟	-10.95
视频	-10.9502
排除	-10.9504
ass	-10.9506
向西	-10.9507
辟	-10.9507
国家级	-10.9509
一點	-10.9511
正義	-10.9516
糧	-10.9517
透明	-10.9518
现有	-10.9523
澎湖	-10.9528
腾	-10.953
ick	-10.9535
告知	-10.9535
1,000	-10.9537
之際	-10.9539
深度	-10.9541
增強	-10.9542
▁1984	-10.9544
的人物	-10.9544
情感	-10.9547
丘陵	-10.9547
移交	-10.955
煌	-10.9552
西路	-10.9553
也会	-10.9554
各个	-10.9556
短暫	-10.9558
滾	-10.9558
生长	-10.956
強化	-10.9561
铭	-10.9561
ment	-10.9563
办公	-10.9563
ki	-10.9564
纽	-10.9567
保险	-10.9571
離子	-10.9575
骑士	-10.9578
▁1985	-10.9579
決議	-10.9583
101	-10.9584
滴	-10.9584
对手	-10.9584
其后	-10.9585
。2002	-10.9593
封面	-10.9597
轟	-10.9598
典型的	-10.9599
剿	-10.9601
▁1945	-10.9601
长子	-10.9602
法语	-10.9602
稽	-10.9604
抑	-10.9608
联络	-10.961
St	-10.961
俞	-10.9613
行政區	-10.9614
引進	-10.9617
里亞	-10.9621
图像	-10.9621
悅	-10.9621
▁楊	-10.9621
政协	-10.9622
八十	-10.9622
叠	-10.9624
雁	-10.9624
ka	-10.9625
ight	-10.963
▁民國	-10.9631
倪	-10.9633
德斯	-10.9638
ion	-10.9639
椅	-10.964
凶	-10.9644
生效	-10.9646
”（）	-10.9646
い	-10.9647
循	-10.9648
嘉賓	-10.965
而死	-10.965
人氣	-10.9652
Jo	-10.9657
的表現	-10.9658
日常	-10.9659
拉姆	-10.9664
奕	-10.9664
日文	-10.9664
暫停	-10.9666
書記	-10.9667
清楚	-10.967
醫師	-10.967
國中	-10.967
傾	-10.9674
料理	-10.9674
後方	-10.9676
北伐	-10.968
撥	-10.968
古老	-10.9681
幢	-10.9682
Be	-10.9682
Co	-10.9683
貨幣	-10.9685
ast	-10.9685
戚	-10.9688
ve	-10.9688
扩建	-10.9689
并非	-10.9698
要塞	-10.9701
驾驶	-10.9704
媽	-10.9705
轄區	-10.9706
监狱	-10.9708
达成	-10.971
推進	-10.9711
領隊	-10.9712
军官	-10.9715
工程师	-10.9717
七十	-10.9717
拾	-10.9719
居委会	-10.9721
搭配	-10.9722
ist	-10.9724
绿色	-10.9726
法定	-10.9726
抗日战争	-10.9727
寓	-10.9728
銀河	-10.973
决议	-10.973
配備	-10.9731
周恩来	-10.9731
鞭	-10.9733
ud	-10.9734
是位於	-10.9734
各国	-10.9736
叙利亚	-10.9736
IS	-10.9737
的說法	-10.9738
財產	-10.9738
原料	-10.9738
主導	-10.974
厝	-10.9742
咬	-10.9742
绕	-10.9745
运用	-10.9745
和他的	-10.9749
乞	-10.9754
文革	-10.9755
墟	-10.9757
堵	-10.9757
肆	-10.976
饮	-10.9762
自主	-10.9763
洪水	-10.9765
戰艦	-10.9765
騙	-10.9765
玫瑰	-10.9766
浪漫	-10.9767
發現了	-10.977
苏格兰	-10.9774
賦	-10.9776
▁1950	-10.9778
車廂	-10.978
弗拉	-10.9781
各個	-10.9782
寄生	-10.9782
教室	-10.9783
死去	-10.9784
聞名	-10.9785
Pro	-10.9785
作物	-10.9785
捲	-10.9786
效應	-10.9787
阅	-10.9788
催	-10.9791
取自	-10.9792
時空	-10.9793
肌肉	-10.9793
貧	-10.9794
判決	-10.9795
推薦	-10.9796
田中	-10.9797
只在	-10.9798
的大型	-10.9799
名叫	-10.9804
La	-10.9806
名詞	-10.9807
寫作	-10.981
1908	-10.9812
港澳	-10.9813
塗	-10.9814
AKB	-10.9815
口岸	-10.9816
審查	-10.9816
孔子	-10.9818
兵器	-10.9818
行业	-10.9823
红军	-10.9824
擋	-10.9826
競賽	-10.9835
無綫	-10.9837
亞目	-10.9838
屠	-10.9839
擔心	-10.9839
悔	-10.9839
消除	-10.9847
往來	-10.9847
片段	-10.9848
初步	-10.9852
服裝	-10.9853
新宿	-10.9853
关键	-10.9854
勞工	-10.9855
凸	-10.9856
力学	-10.9861
任內	-10.9861
牽	-10.9865
美术	-10.9865
仗	-10.9865
最好的	-10.9868
規範	-10.9871
輸出	-10.9872
黄河	-10.9874
衣服	-10.9875
欺	-10.9879
公立	-10.9879
意思	-10.9879
一張	-10.988
所得	-10.9883
將軍澳	-10.9885
哥伦比亚	-10.9885
部下	-10.9886
富士電視台	-10.9887
脉	-10.9887
篮球	-10.9895
创新	-10.9897
故此	-10.9897
万美元	-10.99
玛丽	-10.9906
的機會	-10.9906
积分	-10.9906
武昌	-10.9907
NHK	-10.9908
产生的	-10.9912
上校	-10.9913
做了	-10.9915
遺產	-10.9916
普拉	-10.9917
去了	-10.9918
克雷	-10.9919
em	-10.992
谈判	-10.9921
元首	-10.9922
消耗	-10.9926
籠	-10.9927
這段	-10.9928
if	-10.993
交給	-10.9932
二次	-10.9935
交汇	-10.9938
損	-10.9941
一開始	-10.9944
為食	-10.9944
教练	-10.9946
擴張	-10.9946
丧	-10.9947
敷	-10.9948
懿	-10.9953
真实	-10.9954
现场	-10.9955
逃亡	-10.9955
响	-10.9957
北美洲	-10.9959
沖繩	-10.9962
抗议	-10.9963
總裁	-10.9965
邊境	-10.9967
報道	-10.9972
公平	-10.9973
旋轉	-10.9973
的情况	-10.9973
电脑	-10.9975
閩	-10.9976
科研	-10.9978
观测	-10.9979
席位	-10.9979
客串	-10.998
的弟弟	-10.9984
讯	-10.9984
首領	-10.9985
指數	-10.9986
在内的	-10.9986
嚴格	-10.9993
。2017	-10.9994
维护	-10.9996
國小	-10.9997
这座	-10.9998
二十五	-10.9999
鈴木	-11
局部	-11.0001
执政	-11.0003
雕塑	-11.0003
垃圾	-11.001
模擬	-11.0014
景区	-11.0017
辦法	-11.0018
境内共有	-11.0019
物語	-11.002
称号	-11.0021
扭	-11.0022
中視	-11.0022
砍	-11.0025
现任	-11.0026
ect	-11.0028
辭職	-11.0029
搭乘	-11.0029
一輛	-11.003
柬埔寨	-11.0031
維多利亞	-11.0034
多少	-11.0036
强调	-11.0039
城县	-11.0039
使者	-11.0041
時會	-11.0042
此前	-11.0043
▁鄭	-11.0043
()	-11.0046
公寓	-11.0048
僱	-11.0049
擴展	-11.0052
伯格	-11.0054
得出	-11.0054
粮	-11.0056
下属	-11.0057
三名	-11.0057
鵬	-11.0061
塑	-11.0061
的名稱	-11.0063
耶稣	-11.0066
的核心	-11.007
庄村	-11.0073
原址	-11.0074
摧毀	-11.0079
器官	-11.008
推进	-11.0081
抢	-11.0081
佐藤	-11.0083
死者	-11.0084
菩薩	-11.0085
監獄	-11.0086
彗星	-11.0088
TE	-11.0089
更換	-11.0089
伊斯	-11.0089
香港電台	-11.0089
个市镇	-11.0095
1500	-11.0098
真人	-11.0099
省级	-11.0099
開通	-11.01
捉	-11.0105
創辦人	-11.0106
南下	-11.0113
活性	-11.0113
葡萄	-11.0113
-15	-11.0114
疫	-11.0116
道歉	-11.0116
鬧	-11.0118
名义	-11.0119
為此	-11.012
1904	-11.0122
炼	-11.0127
一共	-11.0129
漸漸	-11.0137
分别为	-11.0138
禽	-11.0139
機槍	-11.0139
Me	-11.014
海水	-11.0141
愚	-11.0142
四人	-11.0142
男主角	-11.0144
互联网	-11.0146
進行了	-11.0148
个月	-11.0149
一篇	-11.0152
監察	-11.0152
江戶	-11.0153
火力	-11.0154
ル	-11.0154
区别	-11.0156
西洋	-11.0156
军团	-11.0157
灰色	-11.0159
划分	-11.0165
作品中	-11.0167
意思是	-11.0168
So	-11.0172
政党	-11.0172
频率	-11.0175
回国	-11.0175
启动	-11.0176
頒發	-11.0178
云南省	-11.018
耿	-11.0182
轉變	-11.0183
mp	-11.0188
文藝	-11.0188
盟軍	-11.0192
喻	-11.0194
肃	-11.0196
”；	-11.0196
粘	-11.0196
刊登	-11.02
型机车	-11.02
ts	-11.0206
岁时	-11.0207
贫	-11.0208
溝通	-11.0208
當地的	-11.021
指揮官	-11.021
4.5	-11.0211
蘿	-11.0212
宵	-11.0213
隙	-11.0215
最強	-11.0216
變身	-11.0216
常被	-11.0217
ina	-11.0218
货币	-11.0218
發音	-11.0218
說話	-11.0219
或其他	-11.0219
峻	-11.0221
改由	-11.0228
姆斯	-11.0229
▁and	-11.0229
説	-11.023
各省	-11.0231
one	-11.0231
滅絕	-11.0232
亞洲電視	-11.0232
劇團	-11.0232
北路	-11.0239
队伍	-11.0239
禅	-11.0239
旨在	-11.024
在同一	-11.0243
向南	-11.0245
代表性	-11.0248
攻入	-11.0249
市立	-11.0249
男演員	-11.0249
地獄	-11.0252
第二季	-11.0253
分享	-11.0253
回來	-11.0253
ス	-11.0254
锁	-11.0255
起了	-11.0257
He	-11.0257
下辖的一个	-11.0259
ea	-11.026
师范大学	-11.0264
華語	-11.0266
书院	-11.027
水深	-11.0273
各有	-11.0274
粵	-11.0275
tra	-11.0276
火车站	-11.0276
國民小學	-11.0276
夹	-11.0276
责任	-11.0279
北京大学	-11.0279
奮	-11.0281
數目	-11.0285
合并为	-11.0286
▁=	-11.0286
加入中国共产党	-11.0286
機動	-11.0287
古蹟	-11.0293
放置	-11.0295
標本	-11.0295
人稱	-11.0297
全線	-11.0303
時常	-11.0303
壹	-11.0306
给予	-11.0307
货物	-11.0312
儲存	-11.0312
▁1983	-11.0314
宰相	-11.0315
旗下的	-11.0317
剧院	-11.032
改进	-11.0325
河流域	-11.0325
差距	-11.0327
風暴	-11.0328
促使	-11.0329
尔斯	-11.0329
欄	-11.0333
。1949	-11.0335
变量	-11.0335
体制	-11.0336
隸屬於	-11.0338
步行	-11.0339
虽	-11.0339
tor	-11.0341
华人	-11.0342
改裝	-11.0342
自治区	-11.0344
迷你	-11.0344
利安	-11.0345
年末	-11.0345
雲南	-11.0345
IT	-11.0346
該國	-11.0346
SD	-11.0346
奥斯	-11.035
团队	-11.0351
va	-11.0351
舜	-11.0356
稱之為	-11.036
改名为	-11.036
迫害	-11.0362
那麼	-11.0363
右翼	-11.0363
期望	-11.0364
奴隶	-11.0368
分散	-11.0369
最具	-11.0369
悠久	-11.037
題材	-11.0371
闖	-11.0371
亚历山大	-11.0374
祈	-11.0374
廣東省	-11.0376
生前	-11.0377
因子	-11.0377
葡	-11.0377
高宗	-11.0377
越來越	-11.038
常見的	-11.0389
百貨	-11.0389
妾	-11.0393
巡迴	-11.0394
拼音	-11.0395
原為	-11.0397
粤	-11.0399
拥	-11.04
向北	-11.0401
县级	-11.0401
機器	-11.0402
維修	-11.0406
修復	-11.0408
變更	-11.0409
赣	-11.0411
血管	-11.0414
領導人	-11.0416
現為	-11.042
妓	-11.042
医学院	-11.0422
状况	-11.0424
东北部	-11.0424
嘉義	-11.0426
意志	-11.0426
龄	-11.043
五百	-11.0433
东南部	-11.0435
牙齒	-11.0435
干涉	-11.0436
更有	-11.0438
合併為	-11.0439
績	-11.044
Car	-11.0443
就会	-11.0444
To	-11.0445
窩	-11.0445
改用	-11.0446
見到	-11.0449
工艺	-11.0449
典禮	-11.0453
英尺	-11.0454
确	-11.0454
資助	-11.046
流傳	-11.0462
數十	-11.0462
再加上	-11.0468
0.1	-11.0468
动作	-11.047
大地	-11.0471
前方	-11.0474
装甲	-11.0476
漠	-11.0476
邊緣	-11.0477
〜	-11.0477
台視	-11.0477
联合会	-11.0481
ci	-11.0483
發電	-11.0483
体育场	-11.0484
情緒	-11.0485
但也	-11.0486
建國	-11.0486
1.3	-11.0487
延安	-11.049
斋	-11.0492
舖	-11.0492
雯	-11.0492
寺院	-11.0494
大聯盟	-11.0496
ba	-11.0497
轟炸機	-11.0501
月刊	-11.0502
一角	-11.0503
更名	-11.0503
ran	-11.0506
院长	-11.0507
三百	-11.0507
實驗室	-11.0508
多尔	-11.0511
南端	-11.0511
預測	-11.0513
霜	-11.0514
武力	-11.0515
被告	-11.0515
第二代	-11.0516
視覺	-11.0521
評審	-11.0525
創下	-11.0525
岛屿	-11.0527
此一	-11.0532
推动	-11.0532
但由于	-11.0534
线性	-11.0536
末年	-11.0537
松山	-11.0538
哩	-11.0539
（2005	-11.0539
道具	-11.054
ster	-11.0542
財務	-11.0543
金門	-11.0544
事宜	-11.0544
展現	-11.0545
三種	-11.0548
匿	-11.0549
弗雷	-11.055
含量	-11.055
FC	-11.0551
壬	-11.0552
边境	-11.0555
環球	-11.0557
大選	-11.0559
稱號	-11.0561
▁Mo	-11.0562
选手	-11.0562
Con	-11.0564
內地	-11.0566
资产	-11.0566
趨	-11.0567
泉州	-11.0568
伊斯蘭	-11.0569
出局	-11.057
桂林	-11.0572
谢尔	-11.0573
同性戀	-11.0574
吉爾	-11.0575
認證	-11.0575
皇室	-11.0576
1.6	-11.0577
严格	-11.0577
摄	-11.058
諮詢	-11.058
Ro	-11.0581
額外	-11.0584
交戰	-11.0585
障	-11.0588
猿	-11.059
引力	-11.059
任职	-11.059
吉他	-11.059
期刊	-11.0596
矩阵	-11.0597
緒	-11.0598
軍人	-11.0601
▁Y	-11.0602
▁1982	-11.0603
毫	-11.0604
安妮	-11.0605
孟加拉	-11.0606
情況下	-11.0606
琦	-11.0606
洛斯	-11.0608
新台幣	-11.0609
次郎	-11.0609
！”	-11.0609
加尔	-11.0609
骑兵	-11.061
重慶	-11.061
欢	-11.061
谓	-11.0611
舉辦的	-11.0615
1898	-11.0615
GA	-11.0615
傘	-11.0615
納入	-11.0616
推理	-11.0616
路上	-11.0621
谭	-11.0622
青海	-11.0623
綿	-11.0625
可以通过	-11.0626
禧	-11.0626
被發現	-11.0626
二百	-11.0627
溫泉	-11.0628
RO	-11.0628
敌人	-11.0632
出兵	-11.0632
赋	-11.0633
辐射	-11.0634
忍者	-11.0638
過世	-11.0642
北面	-11.0642
百合	-11.0644
的資料	-11.0646
智能	-11.0653
直属	-11.0654
械	-11.0655
our	-11.0656
厦门	-11.066
新幹線	-11.066
一处	-11.0661
斯拉夫	-11.0663
面臨	-11.0663
當代	-11.0663
布莱	-11.0665
巴特	-11.0665
諧	-11.0669
兴趣	-11.067
一本	-11.0671
人均	-11.0672
棋子	-11.0673
确认	-11.0675
TO	-11.0677
胡同	-11.0679
裡面	-11.068
1903	-11.0681
都能	-11.0683
迟	-11.0683
研制	-11.0684
只好	-11.0685
洛阳	-11.0685
栋	-11.0688
丟	-11.0688
航行	-11.0689
首爾	-11.0689
嶼	-11.069
皆為	-11.0691
泄	-11.0691
即時	-11.0691
榆	-11.0692
採訪	-11.0692
委员会委员	-11.0692
環保	-11.0694
瑪麗	-11.0695
战后	-11.0697
連續劇	-11.0698
極為	-11.0699
觀音	-11.07
夢想	-11.0705
奧運會	-11.0705
John	-11.0708
全數	-11.0708
朋	-11.0709
戰機	-11.0709
蘋果	-11.0711
封印	-11.0711
達爾	-11.0712
現有	-11.0713
回憶	-11.0713
轉為	-11.0714
集团军	-11.0714
第一批	-11.0718
age	-11.0719
前后	-11.072
直徑	-11.0722
展出	-11.0723
書店	-11.0723
職棒	-11.0724
殺人	-11.0724
初中	-11.0725
2.0	-11.0726
老闆	-11.0727
法蘭西	-11.0727
共计	-11.0728
SE	-11.0729
最初的	-11.0731
群众	-11.0739
區分	-11.0739
不佳	-11.074
5,000	-11.074
卧	-11.0746
该市	-11.075
路站	-11.0751
轉向	-11.0751
協定	-11.0751
桶	-11.0752
劣	-11.0758
鑽	-11.0758
转换	-11.076
水上	-11.0762
辣	-11.0765
遊客	-11.0767
队长	-11.0767
不用	-11.0767
第二次世界大战	-11.0768
對他	-11.0768
藤原	-11.077
骸	-11.0775
1901	-11.0775
車隊	-11.0775
夫婦	-11.0777
下去	-11.0779
別人	-11.0784
滇	-11.0784
De	-11.0785
金山	-11.0785
全市	-11.0785
ah	-11.0787
射入	-11.079
亦為	-11.0791
杖	-11.0791
擾	-11.0792
支部	-11.0792
大力	-11.0793
大队	-11.0797
受到了	-11.0797
嚇	-11.0797
互動	-11.0798
饶	-11.0801
纵队	-11.0801
海峡	-11.0802
从此	-11.0804
Mo	-11.0808
区间	-11.0809
校區	-11.0812
车队	-11.0813
修道院	-11.0813
循环	-11.0815
甄	-11.082
的目的	-11.0821
▁Ro	-11.0821
黑龙江省	-11.0822
網頁	-11.0822
業者	-11.0823
棕	-11.0823
比利時	-11.0823
早已	-11.0827
贏	-11.0828
尋求	-11.0829
農民	-11.0829
0.3	-11.0829
登陆	-11.0831
筋	-11.0833
場景	-11.0833
打击	-11.0834
Sa	-11.0834
客车	-11.0834
體型	-11.0836
物業	-11.0839
”，“	-11.0839
皮膚	-11.084
秘書長	-11.0841
仅仅	-11.0841
猶太人	-11.0843
但因為	-11.0844
體內	-11.0844
的最大	-11.0846
電視動畫	-11.0849
渊	-11.0849
城鎮	-11.0851
罚	-11.0855
#	-11.0856
潮州	-11.0857
年球季	-11.0857
分割	-11.0857
卢瓦尔省	-11.0858
受歡迎	-11.086
托勒密	-11.0862
1895	-11.0863
二战	-11.0871
1.8	-11.0872
华北	-11.0873
寻找	-11.0875
惨	-11.0875
前進	-11.0875
差异	-11.0878
天才	-11.088
駁	-11.0883
航海	-11.0883
閱讀	-11.0883
鳳凰	-11.0885
重修	-11.0885
個體	-11.0885
般的	-11.0885
1902	-11.0886
辱	-11.0888
仅有	-11.0889
单曲	-11.0891
也沒有	-11.0891
介入	-11.0891
特殊的	-11.0891
彎	-11.0892
聊	-11.0898
蒸汽	-11.0898
牛津	-11.09
所属	-11.0901
RA	-11.0901
侵犯	-11.0901
日益	-11.0902
議席	-11.0903
茹	-11.0904
也可能	-11.0904
鹏	-11.0905
Se	-11.0905
ore	-11.0905
最著名的	-11.0905
玩具	-11.0907
耶律	-11.091
流通	-11.091
越来越	-11.091
總經理	-11.0911
之战	-11.0912
遺址	-11.0913
愛德華	-11.0914
嵩	-11.0915
為基礎	-11.0917
社交	-11.0918
近似	-11.092
。[	-11.0923
年龄	-11.0924
獲勝	-11.0925
深刻	-11.0927
拜占庭	-11.0927
岑	-11.0927
就被	-11.0929
审判	-11.0931
HK	-11.0932
審判	-11.0935
学堂	-11.0936
物体	-11.0938
狹	-11.094
秘书长	-11.0941
匈奴	-11.0943
CC	-11.0945
烤	-11.0947
謎	-11.0947
Pa	-11.095
亲自	-11.0955
日凌晨	-11.0956
苏丹	-11.0956
自杀	-11.0958
較低	-11.0959
得名	-11.096
羌	-11.096
声音	-11.0963
上任	-11.0964
晚間	-11.0965
始建于	-11.0965
缸	-11.0967
最为	-11.0967
径	-11.0968
誕	-11.097
羅德	-11.097
匡	-11.097
审查	-11.0974
鬆	-11.0975
罗伯特	-11.0977
社團	-11.0977
蘇丹	-11.0978
窮	-11.098
場所	-11.0982
彰化	-11.0982
情人	-11.0982
形態	-11.0984
斯頓	-11.0984
马来	-11.0987
▁1978	-11.0987
對話	-11.0988
口徑	-11.0989
巴勒斯坦	-11.0989
二十八	-11.0991
全身	-11.0994
最近的	-11.0995
中華民國政府	-11.0997
神话	-11.0998
講述	-11.0999
利物浦	-11.0999
紗	-11.0999
鱗	-11.1003
俄國	-11.1006
縮寫	-11.1008
周刊	-11.101
這場	-11.101
其中有	-11.1013
的成績	-11.1014
鰭	-11.1016
信用	-11.1017
瓷	-11.1018
-12	-11.1018
模拟	-11.102
斯大林	-11.102
練習	-11.1022
栖息	-11.1023
不利	-11.1023
具備	-11.1028
重力	-11.103
極大	-11.1031
狭	-11.1032
草地	-11.1033
故意	-11.1034
先进	-11.1034
行政區劃	-11.1034
0.2	-11.1036
擦	-11.1037
鳥類	-11.104
徐州	-11.1041
篤	-11.1042
博士学位	-11.1043
长安	-11.1044
市人民政府	-11.1044
聯軍	-11.1044
公益	-11.1046
衙	-11.1046
不論	-11.1047
告诉	-11.1051
日耳曼	-11.1052
AL	-11.1054
社會主義	-11.1054
接受了	-11.1054
中国科学院	-11.1058
所謂	-11.1059
闸	-11.1059
競選	-11.1062
脊椎	-11.1062
免费	-11.1063
地帶	-11.1064
BO	-11.1065
收购	-11.1066
琼	-11.1068
报纸	-11.1069
波尔	-11.1071
攻占	-11.1074
两国	-11.1079
化工	-11.1079
高層	-11.1082
屢	-11.1082
考入	-11.1082
野生	-11.1083
打造	-11.1084
▁[	-11.1084
的想法	-11.1084
拉丁	-11.1085
雷達	-11.1087
原有的	-11.1087
览	-11.1087
榮獲	-11.1087
強度	-11.1089
框架	-11.109
政務	-11.1091
墜	-11.1091
交付	-11.1092
省道	-11.11
進步	-11.11
的能量	-11.11
美军	-11.1101
未知	-11.1105
良好的	-11.1106
中世纪	-11.1106
停留	-11.1107
恒星	-11.1107
分區	-11.111
較少	-11.1114
創新	-11.1117
特定的	-11.1118
酵	-11.1122
陝西	-11.1122
ica	-11.1124
史料	-11.1127
桃園市	-11.1128
助手	-11.1129
1.4	-11.113
長官	-11.113
治理	-11.1131
Ju	-11.1131
之內	-11.1132
縫	-11.1132
认识	-11.1132
斯特拉	-11.1137
巴克	-11.1138
最少	-11.1139
嘉慶	-11.1139
递	-11.114
建筑物	-11.1142
所在的	-11.1145
誉	-11.1147
分行	-11.1147
提倡	-11.115
代表作	-11.115
慮	-11.115
喚	-11.1151
具體	-11.1154
现存	-11.1154
人民币	-11.1154
東南亞	-11.1155
ep	-11.1156
投入服務	-11.1158
嗎	-11.1158
巨星	-11.1159
ty	-11.1161
同時也是	-11.1164
粟	-11.1165
输出	-11.1165
带领	-11.1167
躲	-11.1168
強大的	-11.1168
修訂	-11.1169
股東	-11.1169
完善	-11.1169
辽宁省	-11.1171
鐵路車站	-11.1172
鞍	-11.1172
毕业后	-11.1174
人次	-11.1174
足球聯賽	-11.1177
山本	-11.1178
辦事處	-11.1182
診	-11.1184
廣西	-11.1185
東日本	-11.1186
马拉	-11.1186
院校	-11.1187
散文	-11.1189
安置	-11.1189
开设	-11.1189
终于	-11.119
▁1981	-11.119
強制	-11.1192
相近	-11.1196
生下	-11.1197
各大	-11.1198
走廊	-11.1199
劃分	-11.1199
白人	-11.1201
太太	-11.1203
效应	-11.1204
典型	-11.1205
生活習性不明	-11.1206
重點	-11.1209
漫畫家	-11.1209
害怕	-11.1211
出去	-11.1212
共產黨	-11.1214
350	-11.1219
改制	-11.1219
前期	-11.122
？”	-11.122
樂園	-11.1222
的前身	-11.1224
进步	-11.1225
牟	-11.1226
進而	-11.1229
董事长	-11.1229
升格為	-11.1233
意為	-11.1233
累積	-11.1234
夜間	-11.1235
憂	-11.1236
中國共產黨	-11.1237
吉林省	-11.1239
基金会	-11.1239
高等教育	-11.1239
地質	-11.124
延續	-11.1242
105	-11.1242
河谷	-11.1242
情形	-11.1242
身邊	-11.1244
唱片公司	-11.1245
笼	-11.1246
臭	-11.1246
ey	-11.1246
估	-11.1247
难以	-11.1249
集中在	-11.125
扩张	-11.125
村落	-11.1251
擠	-11.1253
年人口普查	-11.1259
優惠	-11.126
帥	-11.1261
繩	-11.1262
星球	-11.1262
不敵	-11.1264
文本	-11.1269
被判	-11.127
驗	-11.1271
跃	-11.1271
参数	-11.1273
辞职	-11.1278
的妹妹	-11.1279
菲利普	-11.128
躍	-11.128
曲目	-11.1281
罪名	-11.1282
命運	-11.1282
開啟	-11.1283
可能会	-11.1284
三千	-11.1285
イ	-11.1286
構造	-11.1288
党员	-11.1289
綾	-11.129
的形象	-11.129
将会	-11.1291
第二大	-11.1291
暂	-11.1292
mer	-11.1292
▁1979	-11.1299
蔚	-11.13
火焰	-11.1302
其他人	-11.1303
的聲音	-11.1303
從未	-11.1307
不存在	-11.1308
韦尔	-11.1313
遇上	-11.1314
契約	-11.1316
哈德	-11.1316
弊	-11.1317
爱德华	-11.132
2,000	-11.1324
lu	-11.1326
理性	-11.1327
淀	-11.1327
行車	-11.1331
艺术家	-11.1332
单独	-11.1336
引起了	-11.1338
不太	-11.1339
共享	-11.1339
威力	-11.134
尾巴	-11.1343
設計師	-11.1343
气体	-11.1346
部副部长	-11.1346
-17	-11.1346
附加	-11.1346
通讯	-11.1346
淫	-11.1348
紐西蘭	-11.1348
了大量	-11.1348
晚年	-11.1348
兵团	-11.1351
有意	-11.1352
碩	-11.1354
会员	-11.1354
保育	-11.1355
cm	-11.1356
前來	-11.1357
法兰西	-11.1358
给了	-11.1359
他与	-11.136
可以使用	-11.136
讀者	-11.1366
宗室	-11.1367
财产	-11.137
罐	-11.1371
船隻	-11.1372
眼鏡	-11.1373
AD	-11.1375
片中	-11.1376
东临	-11.1376
黄色	-11.1377
辯	-11.1377
长达	-11.1377
塔尔	-11.1379
山谷	-11.138
年代末	-11.1381
郝	-11.1382
數個	-11.1383
獎金	-11.1385
工程師	-11.1386
ner	-11.1386
國家公園	-11.1386
並不是	-11.1387
聽到	-11.1391
長約	-11.1393
協調	-11.1394
稱作	-11.1394
炒	-11.1395
拉尔	-11.1399
规范	-11.14
SO	-11.1402
畫家	-11.1404
畔	-11.1407
来源于	-11.1407
藝術家	-11.1408
體育館	-11.1408
姓名	-11.1408
伍德	-11.1408
第二十	-11.1409
後續	-11.141
El	-11.1411
魔王	-11.1412
婷	-11.1412
怪物	-11.1414
兰州	-11.1414
磷	-11.1415
DA	-11.1417
画家	-11.1419
痛苦	-11.1422
卯	-11.1423
图尔	-11.1425
二级	-11.1429
▁1970	-11.1429
罵	-11.143
全国重点文物保护单位	-11.143
晃	-11.143
敏感	-11.1431
铁道	-11.1436
作業	-11.1437
瀑布	-11.1437
意味着	-11.1437
ke	-11.1439
丞相	-11.1441
該公司	-11.1443
遥	-11.1444
部位	-11.1446
培養	-11.1446
一方面	-11.1447
SM	-11.1448
多項	-11.1448
荡	-11.145
樊	-11.1454
校园	-11.1454
日開始	-11.1455
衝擊	-11.1456
织	-11.1459
木星	-11.1459
媽媽	-11.1461
治安	-11.1464
足協	-11.1465
之事	-11.1467
五代	-11.1469
趾	-11.1471
DC	-11.1471
棍	-11.1474
更大的	-11.1475
彻底	-11.1475
大理	-11.1481
巾	-11.1481
鐸	-11.1482
的著作	-11.1487
新教	-11.1487
dy	-11.1487
▁天主教	-11.1487
写作	-11.1492
CH	-11.1492
合金	-11.1495
飲食	-11.1495
癌症	-11.1497
女生	-11.1499
源於	-11.1502
ber	-11.1502
跨越	-11.1508
黑龙江	-11.1514
SI	-11.1515
运河	-11.1516
終止	-11.1516
前面	-11.1518
田村	-11.1519
裝飾	-11.1521
360	-11.1522
股權	-11.1523
三十年	-11.1525
次數	-11.1528
挑战	-11.1528
ace	-11.1529
产生了	-11.153
擒	-11.153
摄影	-11.1531
相邻	-11.1531
扰	-11.1532
回收	-11.1536
※	-11.1537
的其中一種	-11.1538
這類	-11.1541
江蘇	-11.1542
5.5	-11.1542
工作者	-11.1544
淹	-11.1544
房間	-11.1546
認可	-11.1549
生育	-11.1549
是西班牙	-11.1552
所使用的	-11.1554
衛斯理	-11.1554
殖	-11.1554
湿	-11.1555
对抗	-11.1559
這時	-11.1559
ron	-11.1563
都要	-11.1564
墩	-11.1565
上訴	-11.1565
主義者	-11.1566
风险	-11.1569
格斯	-11.1571
硅	-11.1575
承諾	-11.1576
履	-11.1576
張單曲	-11.1578
隔年	-11.1578
EC	-11.158
樟	-11.1582
在那里	-11.1582
荊	-11.1584
ny	-11.1585
三重	-11.1588
岱	-11.1589
柴油机	-11.159
Do	-11.159
起義	-11.1592
协调	-11.1592
碘	-11.1593
訴訟	-11.1593
对其	-11.1593
1.1	-11.1595
里昂	-11.1596
磅	-11.1596
迪斯	-11.1598
南面	-11.1598
徹底	-11.1598
僑	-11.16
長大	-11.16
修复	-11.1601
文艺	-11.1601
貿	-11.1602
站間	-11.1602
采访	-11.1605
沿線	-11.1607
发现了此天体	-11.1607
镇压	-11.1608
態度	-11.1608
Th	-11.1612
用地	-11.1612
特尔	-11.1614
人造	-11.1616
馬其頓	-11.1617
衷	-11.1617
同期	-11.1618
承担	-11.1618
滿洲	-11.162
書中	-11.1621
種植	-11.1621
炮兵	-11.1622
一件	-11.1629
賽車	-11.1633
▁Me	-11.1634
值得	-11.1636
城墙	-11.1636
泰山	-11.1637
關東	-11.1639
奋	-11.1641
建築師	-11.1646
专用	-11.1648
谥	-11.1649
造船	-11.1649
地处	-11.1651
公會	-11.1652
勒斯	-11.1654
書寫	-11.1654
相连	-11.1654
危险	-11.1655
顯著	-11.1659
蜘蛛	-11.1659
巴士路線	-11.1662
▁De	-11.1664
β	-11.1666
經費	-11.1667
安县	-11.1668
青山	-11.1668
滨海	-11.1668
死于	-11.1671
吸血鬼	-11.1673
1889	-11.1673
他又	-11.1674
戊	-11.1677
享受	-11.1679
耶尔	-11.1683
美食	-11.1684
损	-11.1684
富有	-11.1685
较高	-11.1685
态度	-11.1687
AV	-11.1687
华东	-11.1689
颁发	-11.1689
升级	-11.1692
堯	-11.1694
蹤	-11.1697
出发	-11.1697
抬	-11.1698
二等	-11.1698
倭	-11.1701
con	-11.1703
寶玉	-11.1703
清廷	-11.1704
北起	-11.1707
知名的	-11.1708
網上	-11.1714
级别	-11.1715
ity	-11.1716
亦曾	-11.1716
而已	-11.1716
的文章	-11.1717
了自己的	-11.1718
九巴	-11.1721
混亂	-11.1722
人群	-11.1723
地带	-11.1725
科技大學	-11.1726
第一任	-11.1726
單獨	-11.1726
贸	-11.1728
人事	-11.1728
分别是	-11.1729
che	-11.1729
鍋	-11.1729
工部	-11.1733
拨	-11.1733
懂	-11.1733
ES	-11.1734
蓉	-11.1739
日記	-11.174
分店	-11.174
消費	-11.1742
是唯一	-11.1743
IG	-11.1744
培训	-11.1748
十九年	-11.1752
nn	-11.1754
馬來	-11.1755
水晶	-11.1755
提案	-11.1757
龐大	-11.1759
省政府	-11.176
標題	-11.176
涛	-11.1763
遵守	-11.1765
討伐	-11.1766
完結	-11.1771
農曆	-11.1771
僅次於	-11.1772
龍科	-11.1773
伊斯兰	-11.1777
Game	-11.1778
也称	-11.1781
硕士	-11.1781
aw	-11.1784
大厦	-11.1784
第十四	-11.1785
操控	-11.1785
支配	-11.1785
內戰	-11.1786
較多	-11.179
機體	-11.1791
的需求	-11.1792
IV	-11.1792
闪	-11.1794
郡王	-11.1795
太宗	-11.1799
假日	-11.1799
ock	-11.1801
報紙	-11.1802
招生	-11.1802
ME	-11.1803
時刻	-11.1806
安德	-11.1807
那里	-11.1807
璋	-11.1807
尝试	-11.1808
一职	-11.1808
創建	-11.1809
後才	-11.181
惜	-11.1812
攜帶	-11.1813
氣象	-11.1813
高橋	-11.1815
皖	-11.1816
對其	-11.1817
描寫	-11.1821
結局	-11.1821
生物学	-11.1824
據說	-11.1824
变成	-11.1829
叛亂	-11.183
的行为	-11.183
率先	-11.1832
一词	-11.1832
癸	-11.1833
西侧	-11.1837
蛋白质	-11.1839
精英	-11.1843
明報	-11.1844
发电	-11.1845
前夕	-11.1845
廣島	-11.1851
哈尔	-11.1853
国家队	-11.1854
蠻	-11.1854
Po	-11.1855
梭	-11.1857
直隶	-11.1857
奧斯	-11.186
省会	-11.1861
威爾斯	-11.1861
工會	-11.1863
真理	-11.1863
的基礎	-11.1864
短期	-11.1865
脂肪	-11.1865
總教區	-11.1865
送往	-11.1869
標示	-11.1871
總共	-11.1872
不好	-11.1873
祀	-11.1873
又被	-11.1874
燃燒	-11.1874
▁In	-11.1875
航空母艦	-11.1876
爭奪	-11.1876
公頃	-11.1877
挽	-11.188
面对	-11.1881
磚	-11.1883
一班	-11.1884
了許多	-11.1884
閒	-11.1886
留学	-11.1886
UN	-11.1889
適應	-11.1892
蒙德	-11.1893
召喚	-11.1894
1,3	-11.1897
山田	-11.1899
颗	-11.19
出現了	-11.19
构造	-11.1901
办事处	-11.1902
啤酒	-11.1903
過度	-11.1903
ack	-11.1903
蕃	-11.1904
六世	-11.1909
mb	-11.1909
军衔	-11.191
省負責管轄	-11.1912
委副书记	-11.1914
所作	-11.1916
世纪初	-11.1918
清华大学	-11.1919
天文學家	-11.1921
克利	-11.1921
奪取	-11.1921
兩條	-11.1922
と	-11.1923
熔	-11.1928
支線	-11.1933
離婚	-11.1935
战争中	-11.1935
魯斯	-11.1936
預定	-11.1937
犧牲	-11.1937
对方	-11.1939
檀	-11.1941
磷酸	-11.1942
旋律	-11.1943
最有	-11.1944
节度使	-11.1945
7.5	-11.1946
則由	-11.1947
彩虹	-11.1949
洛杉矶	-11.1952
補充	-11.1952
元帥	-11.1953
穀	-11.1953
产物	-11.1955
夫妻	-11.1956
收回	-11.1956
禍	-11.1958
宋代	-11.1959
為何	-11.1964
代数	-11.1965
撲	-11.1969
哈特	-11.1969
射手	-11.1969
音樂會	-11.197
夺得	-11.1973
参考	-11.1976
▁本作	-11.1977
生理	-11.1978
昏	-11.198
联军	-11.1981
伊利	-11.1983
強大	-11.1984
花蓮	-11.1984
?	-11.1984
華視	-11.1985
籃	-11.1985
担	-11.1985
祖母	-11.1987
亦會	-11.1988
FA	-11.1989
直径	-11.1992
索尼	-11.1992
毀滅	-11.1992
深圳市	-11.1993
ug	-11.1994
預備	-11.1994
New	-11.1996
验	-11.1998
DE	-11.1999
机制	-11.1999
转移	-11.2
搬到	-11.2001
判斷	-11.2002
風雲	-11.2002
星座	-11.2003
五个	-11.2003
粮食	-11.2004
你們	-11.2005
被殺	-11.2005
突擊	-11.2006
短篇	-11.2008
印度洋	-11.2008
矛	-11.2009
爛	-11.201
个国家	-11.2011
壩	-11.2013
肚	-11.2013
少数民族	-11.2014
int	-11.2022
生母	-11.2025
全民	-11.2027
1896	-11.203
无论	-11.2031
EN	-11.2032
延伸至	-11.2035
一事	-11.2035
兩側	-11.2036
生意	-11.2037
犹	-11.2039
貪	-11.2039
許可	-11.204
異常	-11.2041
SC	-11.2042
受害者	-11.2042
擔	-11.2042
人間	-11.2043
熟悉	-11.2043
夥伴	-11.2046
各类	-11.2047
175	-11.2049
動畫版	-11.205
溥	-11.205
把他	-11.2052
ん	-11.2057
吏部	-11.206
几何	-11.206
傭	-11.2061
手机	-11.2062
櫃	-11.2063
嵌	-11.2066
给出	-11.2066
民生	-11.2068
发达	-11.2069
不詳	-11.2069
濤	-11.2069
珊瑚	-11.2071
敲	-11.2072
凤凰	-11.2072
岛上	-11.2072
pp	-11.2074
薩克	-11.2075
渭	-11.2075
〕	-11.2075
電池	-11.2078
喇	-11.2083
体现	-11.2085
向前	-11.2086
肠	-11.2086
失蹤	-11.2087
与其他	-11.2087
▁1960	-11.2088
例外	-11.2089
服务器	-11.209
房子	-11.2093
这部	-11.2093
一對	-11.2093
謹	-11.2094
全线	-11.2095
武術	-11.2095
圆形	-11.2097
自治州	-11.2099
購入	-11.2099
祖籍	-11.21
行使	-11.21
鸭	-11.2101
发生了	-11.2101
輻鰭魚綱	-11.2101
登山	-11.2101
集体	-11.2103
沒有任何	-11.2104
暴露	-11.2104
全體	-11.2105
被任命为	-11.2105
1,1	-11.2106
剧本	-11.2109
培育	-11.2111
頒	-11.2113
颜	-11.2113
巡撫	-11.2113
巴哈	-11.2116
保健	-11.2118
觀看	-11.2119
度假	-11.212
較小	-11.2121
前作	-11.2121
绵	-11.2123
陳水扁	-11.2123
希爾	-11.2123
論壇	-11.2125
快樂	-11.2125
遊戲中	-11.2125
喜剧	-11.2126
阿布	-11.2127
〔	-11.2127
熱帶氣旋	-11.2127
剌	-11.2127
4000	-11.2133
海底	-11.2134
斯顿	-11.2137
tri	-11.2137
電信	-11.2138
一號	-11.2139
公演	-11.2142
ET	-11.2143
濫	-11.2149
团长	-11.2158
展览	-11.2158
父子	-11.2159
对称	-11.216
以致	-11.216
影展	-11.2161
猶太	-11.2162
廢止	-11.2163
正确	-11.2163
昔日	-11.2163
职位	-11.2164
蛤	-11.2164
主事	-11.2168
記者會	-11.2173
戰敗	-11.2173
東北部	-11.2175
全美	-11.2175
變形	-11.2175
焉	-11.2175
安定	-11.2176
ara	-11.2178
獨自	-11.2183
代表隊	-11.2185
依据	-11.2186
主教座堂	-11.2188
會計	-11.2188
足球运动员	-11.2192
即為	-11.2197
金曲	-11.2198
NA	-11.2199
山村	-11.22
事实上	-11.22
仍是	-11.2201
谦	-11.2201
适应	-11.2201
一族	-11.2201
抹	-11.2208
人格	-11.221
-16	-11.2212
IA	-11.2213
州負責管轄	-11.2216
屬肉食性	-11.2216
戰爭中	-11.2217
授权	-11.2218
低地	-11.2219
本書	-11.2219
建国	-11.2221
暗示	-11.2221
eg	-11.2222
曼聯	-11.2223
衔	-11.2226
鈞	-11.2227
這兩	-11.2227
特雷	-11.2228
可汗	-11.2229
遷往	-11.223
耶路撒冷	-11.223
炉	-11.2231
推出了	-11.2232
推广	-11.2233
巴士總站	-11.2236
米蘭	-11.2237
高級中學	-11.2237
民意	-11.2238
過於	-11.2238
滅亡	-11.2238
沁	-11.2242
皆有	-11.2243
绩	-11.2243
原为	-11.2244
推荐	-11.2245
雕像	-11.2246
勇士	-11.2246
對稱	-11.2247
育有	-11.2248
ess	-11.2249
动车组	-11.2249
阶级	-11.2249
某一	-11.2252
圓形	-11.2252
疲	-11.2253
女友	-11.2253
1897	-11.2255
ID	-11.2256
南極	-11.2256
劉備	-11.2263
魔女	-11.2265
印度尼西亚	-11.2268
驻地	-11.2269
为止	-11.227
讲述	-11.2272
孜	-11.2275
臥	-11.2275
可供	-11.2276
氟	-11.2276
情節	-11.2282
週刊	-11.2283
複製	-11.2286
候选人	-11.2286
編組	-11.2288
河道	-11.2288
lan	-11.2292
1.7	-11.2293
栖	-11.2294
雄性	-11.2294
梧	-11.2297
字符	-11.2297
薩爾	-11.2297
萬曆	-11.2299
售票	-11.2303
分局	-11.2304
练	-11.2305
么	-11.2305
深受	-11.2309
演技	-11.2309
盔	-11.2309
ik	-11.2309
领地	-11.2309
形状	-11.2311
第二個	-11.2316
飯店	-11.2317
所知	-11.232
提議	-11.232
潜艇	-11.2322
RS	-11.2322
詐	-11.2324
幼稚園	-11.2324
2.7	-11.2324
相当于	-11.2325
更为	-11.2325
當初	-11.2327
鸟类	-11.2328
书中	-11.2331
菁	-11.2335
祁	-11.2336
漿	-11.2339
小提琴	-11.2339
邢	-11.234
睿	-11.234
六個	-11.234
映射	-11.2341
坏	-11.2344
影响力	-11.2345
移植	-11.2345
毗	-11.2346
一台	-11.2349
三郎	-11.2349
MB	-11.2351
HD	-11.2351
爾頓	-11.2352
西接	-11.2354
悉尼	-11.2359
艾爾	-11.2361
起點	-11.2363
寂	-11.2364
改成	-11.2367
▁1958	-11.2369
彩色	-11.2373
平方英里	-11.2373
狙擊	-11.2373
GO	-11.2375
亮相	-11.2375
翌日	-11.2377
才是	-11.2377
的東西	-11.2378
療	-11.2379
還要	-11.238
否則	-11.2385
主义者	-11.2385
Te	-11.2387
场所	-11.2387
水系	-11.2388
被認為	-11.239
普鲁士	-11.2392
尖沙咀	-11.2392
籌備	-11.2394
包围	-11.2394
意圖	-11.2395
见于	-11.2396
衛視	-11.2397
菱	-11.2397
紛紛	-11.2399
季後賽	-11.24
敘述	-11.24
德爾	-11.2403
南朝	-11.2403
女士	-11.2408
为此	-11.2409
全長	-11.241
钠	-11.2411
紳	-11.2411
借用	-11.2413
可惜	-11.2418
编码	-11.242
流動	-11.2422
廠商	-11.2424
监察	-11.2428
迄今	-11.2435
香港大學	-11.2437
2.2	-11.2439
攻勢	-11.2443
存储	-11.2443
修正案	-11.2445
第一季	-11.2447
埃爾	-11.2448
ラ	-11.2449
正式成立	-11.245
清真寺	-11.2453
或稱	-11.2453
辅助	-11.2456
拘	-11.2457
一直到	-11.2459
ya	-11.2463
則以	-11.2464
仆	-11.2468
行李	-11.2469
地方政府	-11.2469
种类	-11.247
日舉行	-11.247
轉會	-11.2471
宜蘭	-11.2472
篮	-11.2475
莖	-11.2476
制服	-11.2477
圣经	-11.2481
茎	-11.2487
之星	-11.2489
解析	-11.2489
辦公	-11.2489
暗殺	-11.2491
中央军委	-11.2491
郵政	-11.2493
聖母	-11.2494
香港島	-11.2494
共产主义	-11.2498
江湖	-11.2499
大城市	-11.25
心臟	-11.2501
彰化縣	-11.2504
來自於	-11.2507
封為	-11.2509
羞	-11.251
纏	-11.251
珠海	-11.2516
直隸	-11.2516
恩斯	-11.2516
氯化	-11.2518
金星	-11.2523
代號	-11.2524
供应	-11.2526
事件中	-11.2528
大軍	-11.2528
出租	-11.253
國籍	-11.2531
圖書	-11.2531
浓	-11.2533
娅	-11.2533
體制	-11.2533
寵	-11.2533
多位	-11.2534
工会	-11.2534
岡山	-11.2535
墮	-11.2537
黔	-11.2537
管道	-11.2539
頭髮	-11.2542
順序	-11.2542
密集	-11.2542
锐	-11.2543
嫌	-11.2544
摸	-11.2544
二期	-11.2545
案例	-11.2546
平方	-11.2547
卸任	-11.2548
呼籲	-11.2548
编号	-11.2548
陆续	-11.2549
Ph	-11.2551
啦	-11.2552
渝	-11.2552
1,4	-11.2553
窑	-11.2556
魔術	-11.2556
检测	-11.2559
資本	-11.256
晋升	-11.256
罗德	-11.2563
雅各	-11.2563
背叛	-11.2566
伊藤	-11.2566
茜	-11.2567
占据	-11.2568
議長	-11.2577
北洋	-11.2577
的女儿	-11.2578
旺角	-11.2579
PA	-11.2583
飛行員	-11.2583
崙	-11.2583
古城	-11.2589
下辖以下地区	-11.259
杀害	-11.2593
乏	-11.2594
車身	-11.2594
摩尔	-11.2595
绝对	-11.2598
芭	-11.2598
1,6	-11.26
的可能性	-11.2602
屍體	-11.2605
金色	-11.2607
造成了	-11.2607
同时也	-11.2608
下轄	-11.261
开工	-11.261
全壘打	-11.261
RT	-11.2612
GP	-11.2616
主权	-11.2617
遷移	-11.2617
多倫多	-11.2622
攻陷	-11.2623
内战	-11.2623
塞爾維亞	-11.2625
彈藥	-11.2627
眷	-11.2628
幹部	-11.263
弼	-11.2634
bi	-11.2635
电路	-11.2636
主要由	-11.2636
雌性	-11.2638
物理学	-11.2638
增至	-11.2638
高等學校	-11.2638
特急	-11.264
大选	-11.2642
东侧	-11.2642
觀念	-11.2642
馨	-11.2645
推測	-11.2645
事实	-11.2646
碎片	-11.2647
通勤	-11.2647
咪	-11.2649
同事	-11.265
档案	-11.2651
当代	-11.2654
客機	-11.2659
連同	-11.266
德勒	-11.266
分歧	-11.266
影視	-11.2667
水面	-11.2667
據點	-11.2669
數百	-11.2669
鋼鐵	-11.267
其實是	-11.2671
以東	-11.2673
发挥	-11.2676
灘	-11.2679
兇	-11.268
3,000	-11.2682
依赖	-11.2683
首个	-11.2684
小林	-11.2689
蝴蝶	-11.2691
驅逐	-11.2692
藉此	-11.2695
1.0	-11.2697
裁定	-11.2697
醬	-11.2699
龍類	-11.27
建於	-11.2702
客戶	-11.2703
当天	-11.2705
边缘	-11.2706
大火	-11.2707
ue	-11.2712
不想	-11.2714
党委	-11.2716
翻新	-11.2717
局長	-11.2719
陕	-11.272
极大	-11.2722
膏	-11.2722
地產	-11.2725
扫	-11.2726
0.4	-11.2727
民航	-11.2728
参赛	-11.2731
同位素	-11.2738
重傷	-11.2741
司徒	-11.2741
醛	-11.2742
慢慢	-11.2743
歷任	-11.2745
亚军	-11.2751
适合	-11.2752
敘	-11.2753
大众	-11.2755
NO	-11.2757
交由	-11.2758
腕	-11.2758
蜥	-11.2758
所生	-11.2758
分泌	-11.276
合肥	-11.276
放射性	-11.2761
蒋介石	-11.2762
編入	-11.2764
總司令	-11.2765
挖掘	-11.277
现为	-11.2772
全程	-11.2773
紧急	-11.2774
西站	-11.2775
東漢	-11.2778
钻	-11.2781
一枚	-11.2781
饒	-11.2782
足够	-11.2783
贝格	-11.2783
萬張	-11.2784
駒	-11.2786
理学	-11.2789
低於	-11.2793
初始	-11.2793
排放	-11.2798
骨骼	-11.2801
电台	-11.2802
扮	-11.2802
速率	-11.2803
oll	-11.2804
元件	-11.2804
该小行星于	-11.2805
最快	-11.2807
−	-11.2809
瓦拉	-11.281
自立	-11.281
ew	-11.2812
是一颗绕太阳运转的	-11.2813
南站	-11.2814
蹄	-11.2817
大堂	-11.2818
Ex	-11.2818
遺傳	-11.2819
灌木	-11.2821
裙	-11.2825
犀	-11.2825
為中心	-11.2825
蓝色	-11.2828
則會	-11.283
日發行	-11.2832
Si	-11.2832
本屆	-11.2833
重複	-11.2833
大卫	-11.2834
羅馬尼亞	-11.2835
运动会	-11.2836
繪畫	-11.2838
▁Ho	-11.284
斯蒂	-11.2841
当中	-11.2843
收录	-11.2843
楷	-11.2845
那個	-11.2845
五千	-11.2848
市內	-11.2848
集體	-11.2849
的历史年代为	-11.2849
冤	-11.2849
新村	-11.2849
罪行	-11.285
通稱	-11.2852
湧	-11.2853
流放	-11.2853
地表	-11.2853
中央政府	-11.2858
北站	-11.2859
千瓦	-11.2859
芸	-11.286
喙	-11.2861
RNA	-11.2863
捨	-11.2864
各項	-11.2865
鑽石	-11.2865
创始人	-11.2868
撤銷	-11.2869
電流	-11.2872
硫酸	-11.2874
风暴	-11.2876
单元	-11.2877
桥梁	-11.2878
金額	-11.2878
袍	-11.288
莽	-11.2884
黎明	-11.2884
毓	-11.2884
盛行	-11.2884
发表了	-11.2886
吉尔	-11.2887
茄	-11.2888
否定	-11.289
爱国	-11.2894
修行	-11.2896
刊物	-11.2897
甲基	-11.2898
气象	-11.29
oc	-11.2901
ED	-11.2902
科学院	-11.2902
現存	-11.2905
不合	-11.2906
墳	-11.2908
偵探	-11.2909
創意	-11.2909
揮	-11.2909
毫無	-11.2911
编剧	-11.2911
幼年	-11.2912
最受歡迎	-11.2912
實體	-11.2914
卓越	-11.2915
姨	-11.2916
鳳山	-11.2916
義務	-11.2917
险	-11.2918
驾	-11.292
游客	-11.2921
0.6	-11.2922
光譜	-11.2922
布萊	-11.2922
乃至	-11.2924
財經	-11.2924
人體	-11.2928
戰國	-11.2928
铁道部	-11.2929
少將	-11.293
交易所	-11.293
In	-11.2931
CR	-11.2931
Lo	-11.2932
2.8	-11.2934
藏族	-11.2934
所辖	-11.2935
官兵	-11.2935
ana	-11.2937
大地震	-11.2938
株式會社	-11.294
主小行星带小行星	-11.294
显著	-11.294
範圍內	-11.2941
學科	-11.2941
被列入	-11.2941
年美国人口普查	-11.2944
常住人口	-11.2944
楓	-11.2948
綜藝節目	-11.2949
昆蟲	-11.295
馳	-11.2952
Ra	-11.2953
準確	-11.2953
作客	-11.2953
CP	-11.2955
木材	-11.2956
哨	-11.2956
打入	-11.2956
之初	-11.2956
牧師	-11.2957
孙中山	-11.2957
微博	-11.2958
惹	-11.296
内蒙古自治区	-11.296
確實	-11.2963
拋	-11.2964
障碍	-11.2964
培訓	-11.2966
国旗	-11.2967
商务	-11.2967
火车	-11.2969
證券	-11.297
狮	-11.297
挫	-11.2972
迁至	-11.2972
錄影	-11.2972
敖	-11.2972
寸	-11.2973
水泥	-11.2973
特點	-11.2973
區別	-11.2974
理查	-11.2975
檐	-11.2976
抗战	-11.2977
站厅	-11.298
6.5	-11.2983
樂壇	-11.2983
菸	-11.2984
原定	-11.2984
色情	-11.2985
pa	-11.2985
他認為	-11.2985
列传	-11.2989
：〈	-11.299
这场	-11.2993
240	-11.2995
開播	-11.2995
等同	-11.2997
而来	-11.2997
后又	-11.2998
寵物	-11.3
Mac	-11.3002
是当地	-11.3004
片尾曲	-11.3005
Vi	-11.3005
迅	-11.3005
才會	-11.3009
欧盟	-11.301
自称	-11.3015
赦	-11.3016
总局	-11.3016
資深	-11.3016
勿	-11.3016
ob	-11.3018
马丁	-11.3018
尼爾	-11.3019
LA	-11.3022
万吨	-11.3022
日本電視台	-11.3023
庐	-11.3024
西貢	-11.3024
所組成	-11.3025
公投	-11.3028
延长	-11.3028
特斯	-11.3032
之旅	-11.3032
加爾	-11.3035
直升機	-11.3037
粉絲	-11.3038
簿	-11.304
保證	-11.3041
强度	-11.3041
随即	-11.3041
太多	-11.3043
东汉	-11.3045
一邊	-11.3046
攜	-11.3047
麵包	-11.3047
北區	-11.3048
等职	-11.3048
沂	-11.3049
碰撞	-11.3049
安德烈	-11.3049
移除	-11.305
打開	-11.305
在这里	-11.305
除外	-11.3052
虛構	-11.3055
膝	-11.3057
ト	-11.3057
脱离	-11.3058
颁布	-11.3059
南越	-11.3059
该校	-11.306
节点	-11.306
RE	-11.3061
企劃	-11.3061
學生會	-11.3063
end	-11.3063
轉投	-11.3066
战士	-11.3068
立方	-11.3069
縣長	-11.307
不變	-11.3071
约瑟夫	-11.3077
薰	-11.3077
ct	-11.3078
戰死	-11.3085
玻	-11.3085
主场	-11.3088
168	-11.3089
2.3	-11.3089
相继	-11.3091
云南等地	-11.3093
相繼	-11.3093
0.7	-11.3094
教導	-11.3096
江戶時代	-11.3099
发生在	-11.3099
均為	-11.3099
區議員	-11.3099
遷至	-11.31
are	-11.3101
昔	-11.3102
方形	-11.3103
物件	-11.3104
繼任	-11.3107
赤道	-11.3108
運算	-11.3111
在某些	-11.3113
槍管	-11.3116
NT	-11.3117
轄下	-11.3119
1899	-11.312
烈士	-11.3121
美國海軍	-11.3122
既有	-11.3123
属的一种	-11.3123
2.4	-11.3124
笠	-11.3126
長老	-11.3126
就此	-11.3126
之亂	-11.3126
部作品	-11.3126
传输	-11.3128
初次	-11.3129
被列为	-11.313
哈拉	-11.3133
2.1	-11.3134
陣營	-11.3135
各界	-11.3135
年建立的	-11.3136
加里	-11.3137
驱动	-11.3138
分布于中国大陆的	-11.3138
重組	-11.3138
讀書	-11.3139
圖案	-11.314
万历	-11.3141
匾	-11.3141
司機	-11.3145
共識	-11.3146
位於日本	-11.3149
隱藏	-11.3149
地球上	-11.3153
行政区域	-11.3155
总经理	-11.3159
白金	-11.316
眾議院	-11.3162
宛	-11.3162
心理學	-11.3164
的情形	-11.3165
童軍	-11.3165
碗	-11.3167
名誉	-11.3168
容納	-11.3168
錄製	-11.3168
假设	-11.3169
頜	-11.317
混淆	-11.317
RI	-11.3172
聚居	-11.3173
排球	-11.3173
承受	-11.3174
托马斯	-11.3174
缺陷	-11.3176
演講	-11.3179
ance	-11.3179
亚种	-11.318
轟炸	-11.3183
復仇	-11.3186
摧毁	-11.3186
前鋒	-11.3189
遗传	-11.319
鵝	-11.3191
柴油	-11.3192
公開賽	-11.3192
體重	-11.3192
mon	-11.3195
動工	-11.3195
自從	-11.3198
陇	-11.3199
改進	-11.3199
里奥	-11.3206
局局長	-11.3208
為期	-11.321
街道办事处	-11.3211
雕刻	-11.3212
用品	-11.3213
香港配音	-11.3213
收視率	-11.3214
苏维埃	-11.3215
操縱	-11.3215
航线	-11.3216
拓跋	-11.3216
リ	-11.322
來看	-11.3221
選拔	-11.3221
这时	-11.3222
首领	-11.3222
殺手	-11.3223
鎮壓	-11.3224
Qu	-11.3224
紅磡	-11.3228
萨拉	-11.3231
啊	-11.3232
只會	-11.3232
检察	-11.3233
腹部	-11.3236
意识	-11.3237
里奇	-11.3239
崛起	-11.324
終結	-11.3241
背後	-11.3242
優先	-11.3243
隋朝	-11.3244
总司令	-11.3244
東南部	-11.3244
是为了	-11.3245
外科	-11.3247
馬英九	-11.3248
維奇	-11.3249
深夜	-11.325
依賴	-11.3251
迭	-11.3253
出版了	-11.3256
EP	-11.3257
參觀	-11.3257
大法官	-11.3258
特区	-11.3259
q	-11.3262
得獎	-11.3262
钢琴	-11.3263
▁1955	-11.3263
铸	-11.3265
理查德	-11.3265
元帅	-11.3267
仍未	-11.3267
所需的	-11.3269
札幌	-11.3269
名譽	-11.327
1890	-11.3271
晶体	-11.3271
中央政治局	-11.3273
年代中期	-11.3275
书籍	-11.3277
克拉克	-11.328
販	-11.328
外籍	-11.3281
電磁	-11.3281
現已	-11.3281
始終	-11.3281
し	-11.3282
縣治	-11.3282
長安	-11.3283
否認	-11.3284
大將軍	-11.3286
觀賞	-11.3286
開出	-11.3286
戟	-11.3286
佔地	-11.3288
认定	-11.3289
尧	-11.3289
一期	-11.329
提议	-11.3291
诞生	-11.3292
待遇	-11.3293
2.6	-11.3297
iz	-11.3298
tic	-11.33
行省	-11.3304
ort	-11.3308
匣	-11.3308
鹅	-11.331
牡丹	-11.3311
冕	-11.3315
全港	-11.3315
很有	-11.3318
各式	-11.3319
大师	-11.3321
特區	-11.3321
奉命	-11.3321
聯賽冠軍	-11.3324
纤维	-11.3324
金鐘	-11.3324
出生在	-11.3325
科学技术	-11.3326
渤海	-11.3326
娥	-11.3327
战胜	-11.3328
稳	-11.3329
短片	-11.333
不願	-11.333
南洋	-11.3331
有名的	-11.3333
只得	-11.3333
臟	-11.3333
首部	-11.3333
哈爾	-11.3334
拿到	-11.3334
明清	-11.3335
鄉試	-11.3336
製片	-11.3338
三星	-11.3338
诗歌	-11.3339
決戰	-11.3339
銅鑼灣	-11.3339
竊	-11.334
峙	-11.334
胤	-11.334
建筑面积	-11.3341
污	-11.3341
负责人	-11.3342
资本	-11.3342
聯隊	-11.3343
甘肃省	-11.3345
辜	-11.3348
ust	-11.3348
希尔	-11.3348
by	-11.3351
复兴	-11.3355
的一個縣	-11.3359
0.8	-11.3359
綁	-11.3363
形态	-11.3363
辖区	-11.3364
皓	-11.3364
姊	-11.3365
外交官	-11.3365
局局长	-11.3365
消費者	-11.3372
釐	-11.3373
接手	-11.3374
转变	-11.3374
高等法院	-11.3375
屠殺	-11.3375
領先	-11.3377
诱	-11.3377
您	-11.3381
北侧	-11.3384
一句	-11.3385
棺	-11.3385
占地	-11.3386
敕	-11.339
堰	-11.3393
Ne	-11.3396
致命	-11.3398
码头	-11.3402
至今仍	-11.3404
聯會	-11.3407
叛乱	-11.3407
进程	-11.341
铝	-11.3411
髓	-11.3411
sion	-11.3412
頭銜	-11.3412
注意到	-11.3413
屬性	-11.3414
獵人	-11.3414
擲	-11.3415
主教练	-11.3416
紫色	-11.3417
此劇	-11.3418
單打	-11.3419
饭	-11.3422
50%	-11.3422
部件	-11.3422
过渡	-11.3424
重庆市	-11.3424
怎麼	-11.3427
蔬菜	-11.3427
政變	-11.3428
实践	-11.3428
榕	-11.3431
谐	-11.3431
北海	-11.3432
接待	-11.3433
汉字	-11.3434
救出	-11.3434
糊	-11.3435
共用	-11.3435
預期	-11.3437
競技	-11.3437
奖项	-11.3438
青海省	-11.3438
ood	-11.3439
一段時間	-11.344
處理器	-11.344
權益	-11.344
增强	-11.3443
科目	-11.3446
ys	-11.3446
活佛	-11.3447
歌劇	-11.345
迎接	-11.3452
城巴	-11.3453
已故	-11.3454
分數	-11.3455
春季	-11.3456
一步	-11.3456
間接	-11.346
市委	-11.3466
汕	-11.3467
属的动物	-11.347
酉	-11.347
阿克	-11.3471
故居	-11.3472
か	-11.3474
sc	-11.3476
纳粹	-11.3478
证实	-11.3479
第三代	-11.348
min	-11.348
後代	-11.348
引进	-11.348
概率	-11.3482
感受	-11.3485
AI	-11.3485
秋季	-11.3486
隊友	-11.3487
全力	-11.3488
專利	-11.3492
ley	-11.3493
影视	-11.3494
焰	-11.3494
り	-11.3495
很容易	-11.3497
擴建	-11.3498
比起	-11.3498
斩	-11.3499
瘦	-11.3499
罢	-11.3499
峽	-11.3501
档	-11.3503
代表团	-11.3504
下載	-11.3506
妄	-11.3507
ア	-11.3507
倾向	-11.3509
su	-11.351
克洛	-11.3512
1,0	-11.3512
工黨	-11.3513
娟	-11.3516
月下旬	-11.352
撞擊	-11.3521
人权	-11.3522
當然	-11.3526
起兵	-11.3529
出战	-11.3533
满洲	-11.3533
俯	-11.3533
爵位	-11.3533
伊斯兰教	-11.3533
殿試	-11.3533
漂	-11.3535
穷	-11.3539
清晰	-11.3541
日本政府	-11.3542
褒	-11.3546
德語	-11.3546
水果	-11.3548
渣	-11.355
公顷	-11.3551
az	-11.3552
同时也是	-11.3552
所謂的	-11.3553
末端	-11.3554
0.9	-11.3554
份子	-11.3554
火車	-11.3555
會出現	-11.3559
可達	-11.3559
千葉	-11.3559
刑部	-11.3561
my	-11.3561
月中旬	-11.3563
描繪	-11.3563
维亚	-11.3565
布斯	-11.3565
過來	-11.3567
專案	-11.3568
也很	-11.3569
溢	-11.3572
ae	-11.3572
不管	-11.3576
传媒	-11.3576
10%	-11.3577
群体	-11.3578
有大量	-11.3579
瑛	-11.3579
飽	-11.3579
烏斯	-11.358
簡化	-11.358
討厭	-11.3581
收視	-11.3581
较小	-11.3583
两位	-11.3584
激素	-11.3584
两者	-11.3587
外型	-11.3591
簧	-11.3591
万平方米	-11.3592
這兩個	-11.3592
荀	-11.3592
相等	-11.3593
插入	-11.3594
武功	-11.3594
编组	-11.3595
忧	-11.3596
岔	-11.3597
偵	-11.3597
姑娘	-11.3598
前身為	-11.3598
流星	-11.3599
貶	-11.3601
嬌	-11.3601
軍方	-11.3603
被俘	-11.3603
關西	-11.3606
宮崎	-11.3606
傷亡	-11.3606
工藝	-11.3608
遗产	-11.3608
電動	-11.361
容器	-11.361
屋苑	-11.3612
历史学家	-11.3615
框	-11.3616
▁La	-11.3616
福克	-11.3617
海姆	-11.3617
水庫	-11.3619
個國家	-11.3622
琅	-11.3622
Dr	-11.3623
形目	-11.3625
首歌曲	-11.3625
卸	-11.3626
拿破仑	-11.3626
警察局	-11.3627
研究者	-11.3628
大概	-11.3629
睦	-11.3631
鄉村	-11.3631
也没有	-11.3632
終點	-11.3632
抽象	-11.3633
日发现	-11.3634
條目	-11.3634
圖像	-11.3634
维也纳	-11.3639
爸爸	-11.3639
伊斯蘭教	-11.364
驅動	-11.364
一組	-11.3643
濾	-11.3643
先發	-11.3644
扬州	-11.3645
鏡頭	-11.3645
贵州省	-11.3645
农场	-11.3647
取名	-11.3648
旋转	-11.365
南侧	-11.365
团结	-11.3651
家臣	-11.3652
变换	-11.3652
向东	-11.3652
列为	-11.3653
聚落	-11.3653
落敗	-11.3656
的態度	-11.3657
ain	-11.3657
帕特	-11.3658
塞纳	-11.3664
一直是	-11.3665
宣称	-11.3667
天堂	-11.3672
弯	-11.3674
年毕业于	-11.3674
文庫	-11.3675
其实	-11.3675
便會	-11.3678
千代	-11.3678
羽毛	-11.3679
青衣	-11.3682
吟	-11.3682
助攻	-11.3682
是世界上	-11.3683
镜头	-11.3683
掌管	-11.3685
中文版	-11.3685
视为	-11.3686
鍊	-11.3687
参议院	-11.3687
星際	-11.3688
戲院	-11.3689
布鲁	-11.3689
称呼	-11.3689
长官	-11.369
腓特烈	-11.3691
卻被	-11.3693
流行音樂	-11.3695
酒精	-11.3696
尸	-11.3696
gi	-11.3697
卡通	-11.3697
幹線	-11.3699
纜	-11.3699
錐	-11.37
ps	-11.3703
咲	-11.3704
邏輯	-11.3704
les	-11.3704
应当	-11.3706
so	-11.3708
高鐵	-11.3709
獲獎	-11.3709
湛	-11.371
改組	-11.3711
北角	-11.3713
冶	-11.3714
奇幻	-11.3716
称之为	-11.3719
閥	-11.3721
妝	-11.3721
高祖	-11.3722
Su	-11.3722
曲线	-11.3722
缝	-11.3725
ev	-11.3725
南區	-11.3726
蛛	-11.3726
侨	-11.3726
毛利	-11.3727
海盜	-11.3727
腎	-11.373
▁※	-11.373
虐	-11.3733
产量	-11.3733
葡萄酒	-11.3734
寫成	-11.3734
吉斯	-11.3734
億港元	-11.3735
客量	-11.3735
有兩個	-11.3739
OR	-11.374
中毒	-11.374
前線	-11.374
物理学家	-11.3741
四位	-11.3741
春天	-11.3742
戌	-11.3743
▁本魚	-11.3746
斧	-11.3747
酒吧	-11.3749
傳送	-11.3749
车厢	-11.3752
必然	-11.3755
砌	-11.3756
HO	-11.3756
租借	-11.376
導師	-11.3762
奈良	-11.3764
這也是	-11.3764
途径	-11.3765
積分	-11.3766
法師	-11.3766
被授予	-11.3767
神學	-11.3769
嬰兒	-11.3769
袖	-11.377
可见	-11.3771
宦官	-11.3771
蕊	-11.3773
策劃	-11.3776
罗马尼亚	-11.3776
ome	-11.3776
曝光	-11.3776
其次	-11.3776
中国国家	-11.3778
米兰	-11.3778
先進	-11.3778
全省	-11.3779
每週	-11.3779
3.3	-11.3781
源于	-11.3785
嫩	-11.3786
清末	-11.3786
land	-11.3787
酋	-11.3796
光學	-11.3797
无锡	-11.3798
伙伴	-11.38
直流	-11.3805
數值	-11.3807
物理學	-11.3808
集結	-11.3811
類別	-11.3812
奧爾	-11.3814
场比赛	-11.3814
渐	-11.3816
球场	-11.3817
廓	-11.3817
设定	-11.3817
在內的	-11.3817
西汉	-11.3819
政治部	-11.3819
lin	-11.382
ung	-11.382
庆祝	-11.3822
tu	-11.3823
西岸	-11.3823
規格	-11.3824
朝日電視台	-11.3825
歧視	-11.3827
終身	-11.3834
漲	-11.3834
林肯	-11.3834
答應	-11.3836
的基础上	-11.3837
零件	-11.3838
漳	-11.3838
劇院	-11.3838
合共	-11.3838
催化	-11.3838
內政部	-11.384
招收	-11.3841
国道	-11.3841
回应	-11.3842
有期徒刑	-11.3843
除非	-11.3847
鯉	-11.3847
明朝政治人物	-11.385
好評	-11.385
7.6	-11.385
鯊	-11.3851
香港中文大學	-11.3851
個別	-11.3852
隕石	-11.3852
千里	-11.3856
LE	-11.3857
受欢迎	-11.3859
演讲	-11.386
北端	-11.3861
杰出	-11.3862
绘	-11.3867
後裔	-11.3867
填海	-11.3868
广播电台	-11.3869
搭檔	-11.387
公共交通	-11.3872
曾于	-11.3872
Ge	-11.3875
重型	-11.3876
適當	-11.3877
信心	-11.3879
底部	-11.388
信義	-11.388
瘤	-11.3882
四周	-11.3883
剧情	-11.3883
聖誕	-11.3884
幾何	-11.3886
世宗	-11.3887
有趣	-11.3888
制动	-11.3888
留學	-11.3889
那样	-11.3889
繼位	-11.389
吐蕃	-11.3891
科進士	-11.3892
景點	-11.3892
谁	-11.3895
新任	-11.3901
資料庫	-11.3904
參謀	-11.3905
战场	-11.3908
封閉	-11.3914
武藏	-11.3915
蔽	-11.3917
る	-11.3918
攻下	-11.392
洛特	-11.3923
金錢	-11.3924
始建於	-11.3926
左派	-11.393
龟	-11.3931
出品	-11.3931
拆卸	-11.3935
原本是	-11.3939
鳞	-11.3939
ov	-11.3943
う	-11.3944
省委	-11.3945
Gr	-11.3946
航站楼	-11.3948
巳	-11.3949
致使	-11.3949
遺跡	-11.395
ax	-11.3951
年度最佳	-11.3951
捐款	-11.3951
生殖	-11.3952
最古老的	-11.3952
夸	-11.3953
the	-11.3955
有许多	-11.3956
進化	-11.3957
蔣中正	-11.3958
流入	-11.3958
市内	-11.3959
選民	-11.3959
瑤	-11.3961
}-」	-11.3962
han	-11.3964
债	-11.3965
邓小平	-11.3966
慾	-11.3966
1,2	-11.3967
雙打	-11.3967
泗	-11.3967
敗給	-11.3968
1894	-11.3971
釀	-11.3975
水手	-11.3975
悼	-11.3978
耆	-11.3979
分布在中国大陆的	-11.398
忽略	-11.3982
改任	-11.3983
鋼彈	-11.3983
驳	-11.3983
觉得	-11.3985
露出	-11.3988
汾	-11.3988
促成	-11.399
法語	-11.3991
板橋	-11.3991
法軍	-11.3993
之稱	-11.3994
行業	-11.3996
1,8	-11.3997
起訴	-11.3998
四方	-11.3998
橙	-11.3999
金斯	-11.3999
ide	-11.4
華僑	-11.4001
政变	-11.4002
常务委员	-11.4004
明白	-11.4006
该市有人口	-11.4006
出家	-11.4008
压缩	-11.4008
列傳	-11.4009
錦標	-11.401
原著	-11.4011
怀疑	-11.4013
机务段	-11.4013
浆	-11.4015
長崎	-11.4016
磁場	-11.4018
緝	-11.4019
體積	-11.4019
gu	-11.402
場合	-11.402
中国国民党	-11.4022
溜	-11.4023
井上	-11.4024
—《	-11.4026
第二天	-11.4027
辑	-11.4035
但後來	-11.4036
海关	-11.4037
主體	-11.4037
王朱	-11.4038
ary	-11.4038
封建	-11.4038
南北朝	-11.4039
出入	-11.4045
或者是	-11.4046
法兰克	-11.4046
參見	-11.4046
苹果	-11.4046
瑾	-11.4046
还原	-11.4047
帕拉	-11.4047
化身	-11.4049
以及其他	-11.4052
CT	-11.4052
ei	-11.4052
最好	-11.4053
打倒	-11.4053
國防	-11.4055
法蘭克	-11.4055
國旗	-11.4058
峨	-11.4059
適用於	-11.4061
出賽	-11.4063
存活	-11.4063
宇文	-11.4063
纖維	-11.4065
條款	-11.4067
接到	-11.4071
布爾	-11.4072
回族	-11.4075
妖精	-11.4075
位居	-11.4075
反擊	-11.4076
示范	-11.4077
枯	-11.4077
了很多	-11.4079
缩写	-11.408
三种	-11.4084
被视为	-11.4084
蒂斯	-11.4088
墓地	-11.4089
混凝土	-11.4091
圣母	-11.4092
學位	-11.4094
決策	-11.4098
莉亞	-11.4099
奉天	-11.4099
布政使	-11.41
亞視	-11.41
写道	-11.4101
歷代	-11.4102
急行	-11.4106
皇太后	-11.4107
称作	-11.4108
指南	-11.411
潛艇	-11.411
图案	-11.4112
中午	-11.4113
支队	-11.4113
苍	-11.4113
一颗	-11.4113
分辨	-11.4114
石川	-11.4116
无线电	-11.4119
射击	-11.412
东路	-11.4122
府知府	-11.4124
茱	-11.4127
考量	-11.4128
危害	-11.4129
注射	-11.413
运算	-11.4131
團結	-11.4131
屏東縣	-11.4132
port	-11.4134
旁白	-11.4135
ith	-11.4138
瞳	-11.414
本劇	-11.414
姊姊	-11.4144
基本法	-11.4144
该地区	-11.4146
办法	-11.4146
群體	-11.4147
莱斯	-11.415
文化中心	-11.415
另一種	-11.4152
入學	-11.4152
融入	-11.4153
日晚上	-11.4156
外形	-11.4156
馬場	-11.4156
鴉	-11.4156
总体	-11.4156
西側	-11.4158
蟻	-11.4158
交给	-11.4161
假名	-11.4161
妈	-11.4162
奴隸	-11.4163
▁这颗小行星的绝对星等为	-11.4163
确保	-11.4165
南韓	-11.4166
很快就	-11.4167
心理学	-11.4167
謀殺	-11.4168
趋	-11.4171
钓	-11.4172
人口普查	-11.4173
TS	-11.4173
ich	-11.4175
始祖	-11.4175
随机	-11.4177
ies	-11.4179
面积约为	-11.418
放映	-11.4181
3.2	-11.4181
搭載	-11.4185
亥	-11.4185
彻	-11.4188
很可能	-11.4189
打出	-11.419
的做法	-11.4191
Go	-11.4192
怪獸	-11.4194
算是	-11.4195
ger	-11.4197
注重	-11.4201
判决	-11.4201
加油	-11.4204
獨特的	-11.4205
馬丁	-11.4206
窝	-11.4208
耶夫	-11.4211
邸	-11.4211
演變	-11.4212
氣溫	-11.4213
運送	-11.4213
攻克	-11.4214
布局	-11.4215
統治者	-11.4215
輔導	-11.4215
順治	-11.4216
球衣	-11.4216
起飛	-11.4217
不像	-11.4217
德军	-11.4218
標記	-11.4218
樹林	-11.422
薦	-11.422
歐陽	-11.422
凭	-11.4221
背面	-11.4222
帅	-11.4223
数据库	-11.4224
老虎	-11.4226
電鐵	-11.4228
品種	-11.4231
た	-11.4231
不見	-11.4234
立法會議員	-11.4237
因病	-11.4239
这也是	-11.424
全境	-11.424
wa	-11.424
珍珠	-11.424
传动	-11.4242
港島	-11.4243
譯為	-11.4243
記憶體	-11.4244
记忆	-11.4244
尼泊尔	-11.4244
房间	-11.4244
毛澤東	-11.4245
初代	-11.4247
总裁	-11.4248
水準	-11.4249
3.6	-11.4249
師父	-11.425
軍艦	-11.4251
褲	-11.4253
擇	-11.4255
net	-11.4257
理事会	-11.4259
相遇	-11.426
新华网	-11.4261
賺	-11.4262
火炮	-11.4263
瑩	-11.4263
习惯	-11.4267
見面	-11.427
真空	-11.4271
流传	-11.4271
郊区	-11.4271
樸	-11.4272
地下鐵	-11.4272
合體	-11.4272
右手	-11.4272
8.5	-11.4273
澳门	-11.4277
世纪末	-11.4279
清政府	-11.4281
暢	-11.4281
薯	-11.4281
動員	-11.4281
認知	-11.4282
屏東	-11.4282
愛國	-11.4283
协定	-11.4284
嘎	-11.429
普魯士	-11.429
的日子	-11.429
重视	-11.4291
登基	-11.4291
ice	-11.4292
俗称	-11.4293
攻佔	-11.4293
負責管轄	-11.4293
MC	-11.4295
兵團	-11.4298
公約	-11.43
并不是	-11.4301
ren	-11.4302
友人	-11.4303
保卫	-11.4307
憤怒	-11.4309
拘捕	-11.4309
诺夫	-11.4309
正統	-11.4309
第一届	-11.4311
数十	-11.4311
爱情	-11.4312
牵	-11.4312
相連	-11.4313
體驗	-11.4314
阿拉斯加	-11.4314
瓣	-11.4314
驱逐	-11.4314
翰林院	-11.4315
重播	-11.4324
逃到	-11.4325
勁歌金曲	-11.4327
璧	-11.4327
商務	-11.4327
主编	-11.4327
同伴	-11.4329
old	-11.433
莱昂	-11.4331
關節	-11.4331
棲息深度	-11.4331
东海	-11.4331
倚	-11.4331
逃走	-11.4332
面临	-11.4332
采用了	-11.4332
畜	-11.4335
芹	-11.4336
公正	-11.4338
幕後	-11.434
ens	-11.434
酰	-11.434
之所以	-11.434
质疑	-11.4341
所需	-11.4345
兄長	-11.4345
撤出	-11.4346
感觉	-11.4346
委員會委員	-11.4347
相互作用	-11.4347
大甲	-11.4348
單車	-11.4348
路徑	-11.4349
格爾	-11.435
ach	-11.4352
拉萨	-11.4353
保定	-11.4354
分公司	-11.4357
铅	-11.4359
維亞	-11.4359
详细	-11.4359
每周	-11.4363
陣亡	-11.4364
氨酸	-11.4364
游行	-11.4368
公務員	-11.4368
1200	-11.4369
尚有	-11.437
疫苗	-11.4371
患有	-11.4375
保留了	-11.4377
分開	-11.4378
加拉	-11.4379
寶石	-11.438
接駁	-11.438
給他	-11.4386
轉型	-11.4386
移至	-11.4387
量產	-11.4388
ath	-11.4389
磐	-11.4391
田徑	-11.4392
偵察	-11.4392
八路军	-11.4392
第二位	-11.4394
進口	-11.4396
陽光	-11.4396
西面	-11.4397
行列	-11.4398
手持	-11.4399
发送	-11.44
摆	-11.44
保加利亞	-11.44
諭	-11.44
ium	-11.4401
笑道	-11.4402
有線電視	-11.4402
位元	-11.4402
阿波罗	-11.4404
說出	-11.4404
準決賽	-11.4407
衞	-11.441
小學校	-11.441
曜	-11.441
喪失	-11.441
依法	-11.4411
屋邨	-11.4417
ef	-11.4419
夺取	-11.4421
ker	-11.4422
司机	-11.4423
评估	-11.4424
百万	-11.4426
星期六	-11.4426
騷	-11.4428
織田	-11.4428
此類	-11.4433
羚	-11.4433
夥	-11.4437
不停	-11.4438
补充	-11.4438
鬚	-11.4438
人口变化图示	-11.4438
ft	-11.4438
廣播劇	-11.4442
勵	-11.4444
SH	-11.4444
界面	-11.4445
伤亡	-11.4449
錶	-11.4451
景觀	-11.4453
都沒有	-11.4453
晉升	-11.4454
身材	-11.4455
雛	-11.4456
伞	-11.4456
鬥爭	-11.4457
会议上	-11.4458
Or	-11.446
洛陽	-11.4461
品种	-11.4461
意味著	-11.4463
摩爾	-11.4464
日晚	-11.4464
Bar	-11.4466
ler	-11.4466
松江	-11.4467
前去	-11.4468
永安	-11.4469
党委书记	-11.447
坐标	-11.447
北極	-11.4471
变为	-11.4474
梗	-11.4475
反派	-11.4475
use	-11.4477
人民幣	-11.448
分手	-11.448
两条	-11.4482
參議院	-11.4484
西蒙	-11.4489
護照	-11.4489
西西里	-11.449
努斯	-11.449
顺序	-11.4494
足球队	-11.4495
懷孕	-11.4495
ven	-11.4496
斤	-11.4498
瀧	-11.4498
瀕	-11.4498
再生	-11.4501
yn	-11.4504
大賞	-11.4509
補給	-11.4514
ib	-11.4515
飄	-11.4517
缴	-11.4517
全体	-11.4518
霍夫	-11.452
不一定	-11.452
一把	-11.4523
英寸	-11.4525
人受傷	-11.4526
传教士	-11.4529
羅伯特	-11.4529
受伤	-11.4529
缅	-11.453
味道	-11.453
此處	-11.4532
乡镇	-11.4532
先鋒	-11.4535
加藤	-11.4539
抛	-11.454
FI	-11.4542
興起	-11.4543
締	-11.4545
招募	-11.4546
東側	-11.4552
關心	-11.4552
20%	-11.4554
車廠	-11.4557
派系	-11.4558
笨	-11.4558
恐懼	-11.4559
削弱	-11.456
婚禮	-11.456
悦	-11.4563
動詞	-11.4565
第二个	-11.4565
香港電影	-11.4565
厄尔	-11.4565
撰写	-11.4567
敘利亞	-11.4569
AK	-11.4571
使命	-11.4571
發達	-11.4573
发售	-11.4575
沃爾	-11.4578
做法	-11.4578
就算	-11.4581
濒	-11.4582
理事長	-11.4582
回忆	-11.4583
鉛	-11.4583
Na	-11.4584
法規	-11.4584
擴	-11.459
4.2	-11.459
的重要性	-11.4591
高麗	-11.4594
1.9	-11.4596
團長	-11.4597
皇子	-11.4597
ox	-11.4598
變為	-11.4599
EX	-11.4599
對付	-11.46
奇怪	-11.4602
珠江	-11.4603
鼓励	-11.4606
隶	-11.4607
终点	-11.4608
實質	-11.4609
季節	-11.4609
侦	-11.461
颖	-11.461
铃	-11.461
編碼	-11.4611
纳斯	-11.4611
號碼	-11.4612
一塊	-11.4612
媽祖	-11.4614
西湖	-11.462
電機	-11.4623
凌晨	-11.4623
这两	-11.4625
办公厅	-11.4626
守備	-11.4627
電路	-11.4629
穿过	-11.4632
中央研究院	-11.4632
外傳	-11.4632
擅	-11.4634
故事中	-11.4635
陸地	-11.4636
公理	-11.4636
對決	-11.4636
辩	-11.4636
此舉	-11.4638
扳	-11.4639
中華職棒	-11.464
紀錄片	-11.464
港元	-11.4641
販售	-11.4644
宠	-11.4644
關聯	-11.4647
時尚	-11.4647
一書	-11.4648
為主題	-11.4648
志願	-11.4648
浚	-11.4648
倾	-11.465
群眾	-11.4653
超市	-11.4653
北岸	-11.4653
tro	-11.4654
罗讷	-11.4655
6000	-11.4656
有不同的	-11.4656
员工	-11.4657
鹼	-11.4658
煤炭	-11.4658
南京市	-11.4658
活跃	-11.466
预计	-11.4663
先行	-11.4665
想法	-11.4666
与此同时	-11.4667
同年五月	-11.467
位列	-11.4671
后裔	-11.4672
模糊	-11.4673
診斷	-11.4673
中止	-11.4674
欣賞	-11.4674
瑙	-11.4675
轉播	-11.4677
自行車	-11.4677
偶然	-11.4682
电气	-11.4682
干擾	-11.4683
甲組	-11.4686
数学家	-11.4688
Uni	-11.4688
神戶	-11.4691
解放軍	-11.4691
洽	-11.4691
稜	-11.4691
最先	-11.4691
警員	-11.4691
职工	-11.4692
不易	-11.4693
窗口	-11.4696
每秒	-11.4697
不详	-11.4699
外圍賽	-11.4701
到底	-11.4703
發生於	-11.4705
坠	-11.4706
另一位	-11.4706
理工	-11.4706
熹	-11.471
攤	-11.471
腓力	-11.4716
有所不同	-11.4718
淘	-11.472
嵐	-11.472
朱元璋	-11.472
高达	-11.4722
制成	-11.4725
擊退	-11.4725
な	-11.4725
OK	-11.4725
驅逐艦	-11.4726
GB	-11.4726
传递	-11.4727
台語	-11.4727
第二名	-11.4728
流感	-11.4729
1871	-11.4731
长约	-11.4734
東路	-11.4735
发音	-11.4735
暗中	-11.4737
斯汀	-11.474
场景	-11.474
選秀	-11.474
舞台劇	-11.4746
維斯	-11.4748
气温	-11.4749
通常會	-11.475
图形	-11.4751
三分之一	-11.4754
街頭	-11.4756
回復	-11.4757
OP	-11.4758
弗吉尼亚	-11.4758
襪	-11.4758
香港特別行政區	-11.4758
國民革命軍	-11.4758
两岸	-11.4762
3.7	-11.4763
重复	-11.4763
癒	-11.4763
始於	-11.4763
1800	-11.4764
了不少	-11.4765
是一家	-11.4767
绍兴	-11.4768
当前	-11.4769
三菱	-11.4771
费用	-11.4771
立體	-11.4773
嘉義縣	-11.4775
星雲	-11.4777
纺织	-11.4777
是西班牙卡斯蒂利亚	-11.4778
武田	-11.4778
日早上	-11.4781
摇	-11.4782
儒家	-11.4782
山頂	-11.4782
鲁瓦	-11.4783
认可	-11.4783
研发	-11.4786
精確	-11.4786
og	-11.4789
里程	-11.4789
学位	-11.4789
看起來	-11.479
擔當	-11.479
購物	-11.4793
水源	-11.4795
Ka	-11.4796
萨克森	-11.4797
这两个	-11.4798
民俗	-11.4801
tal	-11.4803
奠基	-11.4804
空降	-11.4805
國民中學	-11.4806
_	-11.4806
主人公	-11.4806
主要分布于	-11.4808
起草	-11.4809
托尔	-11.4812
行程	-11.4815
進軍	-11.4817
布什	-11.4817
颈	-11.482
术语	-11.4821
被併入	-11.4823
预测	-11.4824
提督	-11.4824
憶	-11.4825
毒性	-11.4825
遠東	-11.4825
言论	-11.4825
unt	-11.4826
高丽	-11.4829
溫哥華	-11.483
肋	-11.483
蕩	-11.483
操作系统	-11.4831
級別	-11.4832
中央人民政府	-11.4832
宣誓	-11.4832
說服	-11.4833
脸	-11.4835
家乡	-11.4835
iv	-11.4837
相機	-11.4838
某個	-11.4838
孫權	-11.4839
vo	-11.4842
永康	-11.4842
该国	-11.4843
背部	-11.4844
國務院	-11.4845
曼谷	-11.4846
IM	-11.4846
个体	-11.4847
近年來	-11.4847
失利	-11.4849
城門	-11.485
1860	-11.4851
下行	-11.4851
一只	-11.4851
bu	-11.4852
地方法院	-11.4852
九龍巴士	-11.4853
乡村	-11.4854
戈尔	-11.4854
膛	-11.4854
晏	-11.4855
涵蓋	-11.4856
ク	-11.4859
邪惡	-11.4859
該處	-11.4862
被杀	-11.4863
福岡	-11.4863
科的其中一種	-11.4865
上演	-11.487
流动	-11.487
真菌	-11.487
使徒	-11.4871
進修	-11.4874
佔據	-11.4876
伊丽莎白	-11.4878
跟著	-11.4878
時報	-11.4879
读书	-11.4882
謠	-11.4883
追擊	-11.4885
3.8	-11.4885
市委书记	-11.4886
逃往	-11.4888
縮短	-11.489
绳	-11.4893
又譯	-11.4893
枕	-11.4893
虔	-11.4893
冬天	-11.4893
老师	-11.4893
物資	-11.4896
手指	-11.4897
某个	-11.49
莫尔	-11.4901
低于	-11.4901
卢瓦	-11.4902
角逐	-11.4902
營養	-11.4903
圍繞	-11.4903
精選	-11.4914
監視	-11.4914
夫妇	-11.4914
瑶	-11.4917
普雷	-11.4919
辯論	-11.4919
实力	-11.4921
擢	-11.4922
地势	-11.4923
死神	-11.4923
預防	-11.4926
开行	-11.4926
美術館	-11.4926
指数	-11.4927
檢測	-11.4928
共有人口	-11.4929
失望	-11.4933
ko	-11.4936
á	-11.4937
負擔	-11.4938
钢铁	-11.4938
3.4	-11.4939
極限	-11.4939
乒乓球	-11.4942
存放	-11.4943
溪流	-11.4949
舊金山	-11.4951
列宁	-11.4952
判处	-11.4952
醫學院	-11.4953
财经	-11.4956
塔斯	-11.4956
媛	-11.4956
揭露	-11.4956
属下的一个变种	-11.4957
無線電	-11.4959
平坦	-11.4961
祕	-11.4961
暮	-11.4962
聯合會	-11.4966
肾	-11.4966
缺少	-11.4967
民兵	-11.4967
要素	-11.497
接下來	-11.497
绑	-11.4971
正好	-11.4972
確立	-11.4972
型号	-11.4973
主动	-11.4974
單行本	-11.4976
黎巴嫩	-11.4981
機率	-11.4981
鋁	-11.4981
仁宗	-11.4982
次会议	-11.4985
怎	-11.4985
冷却	-11.4986
莱茵	-11.4986
全国人民代表大会	-11.4986
短暂	-11.4987
虛擬	-11.4987
呆	-11.4991
波士頓	-11.4991
物资	-11.4991
服装	-11.4994
河川	-11.4994
貨運	-11.4994
李登輝	-11.4996
不必	-11.4996
誅	-11.4997
识别	-11.4997
投影	-11.4998
梳	-11.5
照明	-11.5001
流程	-11.5002
閃電	-11.5003
字形	-11.5004
拿破崙	-11.5005
gra	-11.5006
每一個	-11.5011
翼龍	-11.5011
绘画	-11.5011
阅读	-11.5011
步枪	-11.5011
罕見	-11.5012
實踐	-11.5012
本次	-11.5012
比亚	-11.5012
有時會	-11.5013
細菌	-11.5014
沧	-11.5015
瀛	-11.5015
廟宇	-11.5016
世紀末	-11.5017
My	-11.5018
期待	-11.5019
橡	-11.502
幫忙	-11.5021
表現出	-11.5023
获取	-11.5024
魁北克	-11.5025
统治者	-11.5025
賦予	-11.5026
查尔斯	-11.5028
行政中心	-11.5029
都尉	-11.503
广播电视	-11.5031
拓展	-11.5032
插曲	-11.5032
︰	-11.5035
中国古代	-11.5036
苻	-11.5036
結業	-11.5037
三角洲	-11.5038
皮肤	-11.504
回归	-11.5041
标本	-11.5042
族自治县	-11.5043
時裝	-11.5044
钩	-11.5045
號班機	-11.5045
跟随	-11.5048
we	-11.5048
励	-11.5049
歷史學家	-11.5051
體育場	-11.5052
新潟	-11.5053
緬	-11.5055
种子	-11.5056
论坛	-11.5057
宜蘭縣	-11.5058
蝙蝠	-11.5059
微軟	-11.506
主导	-11.5061
类似于	-11.5061
目的地	-11.5063
暑	-11.5063
消化	-11.5063
医药	-11.5063
蝕	-11.5064
泵	-11.5065
导致了	-11.5066
冰川	-11.5066
ook	-11.5067
学士	-11.5069
壽命	-11.5069
消费	-11.5069
版權	-11.5072
贼	-11.5075
棱	-11.5075
男歌手	-11.5076
收益	-11.5079
樺	-11.508
cy	-11.508
等方面	-11.508
探險	-11.5081
接着	-11.5082
歌舞	-11.5082
號月台	-11.5082
に	-11.5085
排行第	-11.5088
卡片	-11.5091
知名度	-11.5091
南華	-11.5092
世紀初	-11.5097
违反	-11.5097
Ba	-11.5098
ier	-11.5099
噴射	-11.5099
队员	-11.5099
結論	-11.5099
愿意	-11.51
唱歌	-11.5106
受損	-11.5107
繫	-11.5108
軟件	-11.5108
伺服器	-11.5109
無敵	-11.511
民主進步黨	-11.5114
甚麼	-11.5115
被评为	-11.5115
瞬間	-11.5116
取代了	-11.5117
恪	-11.5119
指標	-11.5123
出現於	-11.5124
〉、〈	-11.5124
这项	-11.5125
但也有	-11.5126
ire	-11.5127
美國總統	-11.5127
茵	-11.5129
新西兰	-11.5134
安东尼	-11.5135
編制	-11.5136
譯名	-11.5138
封鎖	-11.514
邮政编码	-11.5143
LO	-11.5144
录音	-11.5149
搜尋	-11.515
納粹	-11.515
答案	-11.515
新興	-11.5157
中央委员会	-11.5157
室内	-11.5158
台中市	-11.5158
六个	-11.516
考生	-11.5162
代目	-11.5163
鑲	-11.5164
衰落	-11.5165
喇嘛	-11.5167
找出	-11.5168
兜	-11.5169
追封	-11.5169
瞻	-11.5169
盟友	-11.517
反攻	-11.5174
現代化	-11.5175
疗	-11.5175
可愛	-11.5177
應付	-11.5177
獲頒	-11.5179
图书	-11.5179
博士學位	-11.518
消灭	-11.518
名词	-11.5181
乌拉	-11.5181
二級	-11.5183
某種	-11.5184
歌剧	-11.5186
amp	-11.5186
副總統	-11.519
暂时	-11.5191
環繞	-11.5191
螢	-11.5193
家鄉	-11.5193
带着	-11.5196
担心	-11.5196
底下	-11.5197
布拉格	-11.5201
電訊	-11.5203
修斯	-11.5203
1,7	-11.5204
野战军	-11.5209
聪	-11.5209
西域	-11.5209
戰事	-11.521
一块	-11.5213
芦	-11.5219
Da	-11.5222
ial	-11.5222
三十六	-11.5223
奥运	-11.5223
槟	-11.5224
1880	-11.5224
Ad	-11.5228
勃艮第	-11.5229
薩拉	-11.5234
懼	-11.5234
巡迴演唱會	-11.5235
感應	-11.5236
物流	-11.5237
1885	-11.5237
懋	-11.524
EV	-11.524
俘	-11.5245
囚禁	-11.5245
车体	-11.5247
湊	-11.5249
天橋	-11.5249
決心	-11.525
都很	-11.5252
编写	-11.5253
目前已	-11.5253
浓度	-11.5254
主办	-11.5255
系主任	-11.5255
鱼类	-11.5255
营业	-11.5258
塔爾	-11.5258
心靈	-11.5259
迈克尔	-11.5259
船舶	-11.5259
窦	-11.526
平常	-11.5268
建安	-11.5269
判定	-11.5269
预算	-11.5272
相對於	-11.5273
加利福尼亚州	-11.5273
枢	-11.5275
廈門	-11.5277
前进	-11.528
想像	-11.5281
松本	-11.5282
搜查	-11.5282
不变	-11.5282
KBS	-11.5284
饼	-11.5285
安東尼	-11.5285
转会	-11.5286
极端	-11.5288
发掘	-11.5291
彈匣	-11.5292
榴	-11.5294
負面	-11.5296
捕捉	-11.5296
邊形	-11.5297
亮度	-11.5299
塾	-11.5299
指责	-11.53
ear	-11.5301
北側	-11.5303
傳遞	-11.5306
噪	-11.5306
二千	-11.531
描绘	-11.531
安葬	-11.531
三部曲	-11.531
栽培	-11.5311
樞	-11.5314
率軍	-11.5314
中华人民共和国成立后	-11.5315
嗜	-11.5315
雲林縣	-11.5315
美国总统	-11.5322
各方	-11.5322
为中国的特有植物	-11.5325
始终	-11.5326
倡	-11.5326
责	-11.5326
煥	-11.5328
秀吉	-11.5328
逃離	-11.5329
开办	-11.533
进球	-11.5332
契丹	-11.5332
结论	-11.5333
第一次世界大戰	-11.5335
搏	-11.5335
帽子	-11.5339
广西壮族自治区	-11.534
護理	-11.534
薩摩	-11.534
分隔	-11.5341
氏族	-11.5341
沿著	-11.5341
Di	-11.5344
军政	-11.5345
虐待	-11.5346
Mon	-11.5347
即将	-11.5348
生死	-11.535
萃	-11.535
工作人員	-11.535
充满	-11.5352
耕地	-11.5353
適用	-11.5354
李氏	-11.5356
樑	-11.5359
強迫	-11.5363
天气	-11.5364
海口	-11.5364
校方	-11.5365
硕士学位	-11.5366
▁Tr	-11.537
Ha	-11.5371
囚	-11.5373
某种	-11.5374
惡化	-11.5376
普利	-11.5376
穿過	-11.5378
壓縮	-11.5379
拉丁文	-11.5379
改編自	-11.538
氨	-11.5381
蚀	-11.5381
里面	-11.5382
gn	-11.5384
四面	-11.5384
晶片	-11.5385
煞	-11.5386
词汇	-11.5386
可分為	-11.5387
IR	-11.5388
湿地	-11.5391
3.1	-11.5391
曾多次	-11.5392
誼	-11.5394
慣	-11.5394
nes	-11.5395
帝王	-11.5396
描述了	-11.5397
儀器	-11.5399
亞科	-11.5402
村庄	-11.5402
运作	-11.5403
緊張	-11.5404
傳承	-11.5404
海軍陸戰隊	-11.5406
配套	-11.5407
SBS	-11.5407
二氧化碳	-11.5407
教育家	-11.5408
激光	-11.541
稚	-11.5411
翻唱	-11.5412
七世	-11.5416
撤回	-11.5416
賠償	-11.5417
み	-11.5417
Sc	-11.542
希望能	-11.5421
纬	-11.5423
从未	-11.5423
熱門	-11.5427
格鬥	-11.5429
啟德	-11.5431
老挝	-11.5431
南投縣	-11.5432
姦	-11.5432
Lu	-11.5433
正規	-11.5434
漳州	-11.5434
咀	-11.5437
是中国的特有植物	-11.5437
人受伤	-11.5438
傀儡	-11.5442
流经	-11.5446
飞行员	-11.5446
孫中山	-11.5446
研究员	-11.5448
吉田	-11.545
迪亞	-11.5451
撕	-11.5452
謊	-11.5452
ero	-11.5453
濃度	-11.5453
政治部主任	-11.5454
高潮	-11.5454
1870	-11.5456
難民	-11.5457
兀	-11.5462
防線	-11.547
男爵	-11.5471
小時候	-11.5472
液体	-11.5473
苗栗縣	-11.5475
督察	-11.5478
挡	-11.5478
相傳	-11.5479
建筑师	-11.5479
產量	-11.548
洋基	-11.5481
菲尔德	-11.5483
哲学家	-11.5486
唐山	-11.5487
ern	-11.5491
投入使用	-11.5493
諡	-11.5493
颂	-11.5493
洩	-11.5494
遵循	-11.5494
萬年前	-11.5495
玉山	-11.5496
贝克	-11.5497
保加利亚	-11.5499
佬	-11.5499
剩餘	-11.5502
識別	-11.5503
農場	-11.5503
灭亡	-11.5505
富裕	-11.5506
比爾	-11.5508
回國	-11.5509
参见	-11.5512
空襲	-11.5512
停播	-11.5514
書法	-11.5514
辭去	-11.5517
艾莉	-11.5518
具备	-11.5519
南側	-11.5521
钧	-11.5524
酿	-11.5525
赢得了	-11.5526
美少女	-11.5532
渡邊	-11.5533
依次	-11.5534
丫	-11.5535
階層	-11.5535
5.2	-11.5536
轰炸	-11.5538
後備	-11.5541
民事	-11.5541
TBS	-11.5541
排序	-11.5542
ā	-11.5546
年时的人口为	-11.5546
流派	-11.5546
示威者	-11.5549
网球	-11.5549
差別	-11.5549
木村	-11.5549
毒品	-11.5551
燦	-11.5551
编制	-11.5551
En	-11.5553
長時間	-11.5555
资助	-11.5555
粹	-11.5555
補助	-11.5559
西太平洋	-11.5559
半徑	-11.556
司令官	-11.556
av	-11.5561
为基础	-11.5562
工作人员	-11.5564
新聞台	-11.5564
償	-11.5566
清除	-11.5566
继任	-11.5566
始于	-11.5566
妍	-11.5572
篡	-11.5577
东亚	-11.5579
游泳池	-11.558
仅次于	-11.5582
頑	-11.5582
塞尔维亚	-11.5582
调节	-11.5586
老鼠	-11.5587
陰謀	-11.559
蘇軍	-11.5591
第一期	-11.5591
高加索	-11.5592
歼	-11.5594
專欄	-11.5594
伯克	-11.5595
糕	-11.5597
血統	-11.5599
依舊	-11.56
宗旨	-11.5602
很難	-11.5602
阪	-11.5602
相机	-11.5603
畑	-11.5603
青铜	-11.5604
不清楚	-11.5605
哆啦	-11.5608
凭借	-11.5608
筹备	-11.5609
梅花	-11.561
尔顿	-11.5611
網民	-11.5612
廚	-11.5613
干线	-11.5613
護衛	-11.5614
附設	-11.5614
中斷	-11.5615
较低	-11.5617
第四次	-11.5617
加快	-11.5619
欢迎	-11.562
旅程	-11.5622
繁忙	-11.5623
滯	-11.5623
釘	-11.5624
綏	-11.5624
休閒	-11.5625
分院	-11.5625
官職	-11.5626
偕	-11.5628
咸豐	-11.5629
锅	-11.5629
射線	-11.5631
灌溉	-11.5634
4.6	-11.5635
4.3	-11.5635
肺炎	-11.5636
4.8	-11.5639
增援	-11.5643
黨員	-11.5644
SU	-11.5644
淞	-11.5644
师长	-11.5647
彪	-11.5649
最佳女主角	-11.5649
携带	-11.5649
嶋	-11.565
發展出	-11.5652
美女	-11.5656
背鰭	-11.5656
更换	-11.5656
一行人	-11.5656
容許	-11.5657
徙	-11.5659
′	-11.566
史蒂芬	-11.566
語音	-11.566
同行	-11.5662
複合	-11.5665
骗	-11.5665
隼	-11.5666
转向	-11.5666
域名	-11.5666
度量	-11.5666
內心	-11.5667
复合	-11.5667
業餘	-11.5667
衰退	-11.5669
临床	-11.5669
彝	-11.5669
憤	-11.567
MBC	-11.567
格蘭	-11.5673
便宜	-11.5674
精确	-11.5674
同進士出身	-11.5676
倩	-11.5676
克勞	-11.5678
埃斯	-11.568
魅力	-11.5681
琛	-11.5682
東涌	-11.5682
塑料	-11.5683
參演	-11.5683
副教授	-11.5685
進士出身	-11.5686
餐厅	-11.5686
配角	-11.5687
西藏自治区	-11.5687
山峰	-11.569
忒	-11.5691
呼吁	-11.5692
生物學	-11.5693
辈	-11.5693
產生了	-11.5695
前身是	-11.5695
僵	-11.5697
寻求	-11.5699
俘虜	-11.57
雾	-11.5702
有機會	-11.5703
摩擦	-11.5705
费尔	-11.5706
竺	-11.5708
土著	-11.571
BL	-11.5711
明亮	-11.5711
隅	-11.5713
情节	-11.5713
进口	-11.5714
單純	-11.5717
縣知縣	-11.5717
探討	-11.5718
数百	-11.5719
魔力	-11.572
富豪	-11.5722
系教授	-11.5724
上杉	-11.5725
3.0	-11.5726
蔭	-11.5729
星光	-11.5729
俗名	-11.5729
頒獎禮	-11.573
代碼	-11.573
萬港元	-11.5731
旬	-11.5733
处长	-11.5734
其种加词	-11.5734
查爾斯	-11.5735
强制	-11.5735
囚犯	-11.5736
留守	-11.574
准确	-11.5742
朝阳	-11.5742
ros	-11.5743
二十一年	-11.5744
新竹縣	-11.5744
鈔	-11.5745
土星	-11.5746
公国	-11.5747
加密	-11.5748
樓宇	-11.575
天水圍	-11.575
泰尔	-11.5751
無關	-11.5753
摺	-11.5755
英皇	-11.5755
崇禎	-11.5756
鲁斯	-11.5758
登记	-11.5759
表彰	-11.576
假面騎士	-11.5761
趨勢	-11.5762
孤立	-11.5764
師團	-11.5766
轉任	-11.577
提早	-11.577
邮政	-11.577
萱	-11.5771
暱稱	-11.5771
綽號	-11.5773
一番	-11.5775
爪哇	-11.5776
公布时间为	-11.5777
新店	-11.578
牺牲	-11.5781
北非	-11.5784
勇者	-11.5785
吵	-11.5787
同情	-11.5787
合格	-11.5788
同学	-11.5793
螢幕	-11.5793
劲	-11.5793
指向	-11.5795
冻	-11.5797
緻	-11.5798
贬	-11.5798
百分之	-11.5801
oo	-11.5802
奥斯卡	-11.5803
缀	-11.5803
鲸	-11.5803
迪克	-11.5803
無線	-11.5805
石頭	-11.5805
棕色	-11.5805
專屬	-11.5809
編寫	-11.5809
他自己	-11.581
董事會	-11.5811
und	-11.5813
罪犯	-11.5813
懲	-11.5813
不肯	-11.5813
諸侯	-11.5816
委托	-11.5816
他认为	-11.5817
账	-11.5818
悟空	-11.5819
世俗	-11.582
呈现	-11.5822
提起	-11.5822
曾一度	-11.5822
划入	-11.5823
三級	-11.5824
闇	-11.5824
史上最	-11.5824
相隔	-11.5827
釣魚	-11.5828
贖	-11.5829
DI	-11.583
第一座	-11.5833
延续	-11.5834
濁	-11.5835
cl	-11.5837
教派	-11.5837
红旗	-11.5838
鯛	-11.584
胡安	-11.584
當晚	-11.5841
宁夏	-11.5843
共和黨	-11.5843
極端	-11.5843
企图	-11.5843
淮南	-11.5845
GUNDAM	-11.5846
布置	-11.5846
ami	-11.5846
發言	-11.5847
za	-11.5852
意指	-11.5853
а	-11.5856
内陆省份	-11.5856
販賣	-11.5857
来自于	-11.586
ish	-11.5865
聖公會	-11.5866
温州	-11.5866
霄	-11.5867
寒冷	-11.5869
洞穴	-11.5869
銀牌	-11.5875
收取	-11.5876
火災	-11.5876
填詞	-11.5876
暹	-11.5878
會會長	-11.5879
子弟	-11.5879
对话	-11.588
清理	-11.5881
巨型	-11.5881
之役	-11.5883
盪	-11.5883
失控	-11.5883
修订	-11.5884
過往	-11.5884
Ru	-11.5885
矮星	-11.5886
降水量	-11.5887
两座	-11.5888
嘉庆	-11.5888
糾	-11.5888
性行為	-11.5889
研究室	-11.5889
南岸	-11.589
平方呎	-11.5894
飼養	-11.5894
BC	-11.5894
gh	-11.5894
自行车	-11.5896
9.5	-11.5897
sch	-11.5898
包裝	-11.5899
天体	-11.5899
寶可夢	-11.5899
EL	-11.59
建造了	-11.5901
主編	-11.5902
果實	-11.5902
隨機	-11.5902
城邦	-11.5903
拘留	-11.5903
接口	-11.5906
又稱為	-11.5907
ok	-11.5907
指挥官	-11.5909
纷纷	-11.591
DR	-11.5911
混血	-11.5911
第十五	-11.5911
支出	-11.5913
共和党	-11.5913
改元	-11.5919
二十一	-11.592
遠征	-11.592
回去	-11.5928
隨之	-11.593
冲击	-11.5931
烹	-11.5931
法学院	-11.5932
財團法人	-11.5933
遇見	-11.5933
橢圓	-11.5934
氧化物	-11.5935
威尔士	-11.5935
支线	-11.5936
捧	-11.5937
电流	-11.5937
获奖	-11.5937
終極	-11.5939
公约	-11.5941
星期日	-11.5941
dr	-11.5942
遺體	-11.5942
鹿兒島	-11.5942
Linux	-11.5942
Har	-11.5943
綁架	-11.5944
奧斯卡	-11.5944
等海域	-11.5946
|	-11.5948
鸚鵡	-11.5948
人口密度每平方公里	-11.5948
阵亡	-11.5948
信長	-11.5948
瑪莉	-11.5949
帕克	-11.5949
立场	-11.5951
ost	-11.5952
辛亥革命	-11.5953
吉隆坡	-11.5953
知縣	-11.5953
现代化	-11.5953
總統府	-11.5954
緩慢	-11.5954
接下来	-11.5957
卡洛斯	-11.5958
鶯	-11.5958
早晨	-11.5964
魚雷	-11.5964
頂級	-11.5967
标记	-11.5968
範疇	-11.5969
陶瓷	-11.597
預言	-11.5971
塌	-11.5973
异常	-11.5974
外星人	-11.5977
幽默	-11.5977
公墓	-11.5979
衫	-11.598
数码	-11.598
收錄於	-11.5984
嬪	-11.5986
参谋	-11.5986
浑	-11.5986
永乐	-11.5987
繁忙時間	-11.5987
奶奶	-11.5988
定義為	-11.5992
编程	-11.5993
Am	-11.5995
王妃	-11.5995
偶爾	-11.5997
湯姆	-11.5997
術語	-11.5998
神奈川縣	-11.5999
梅尔	-11.6003
摔角	-11.6004
糧食	-11.6006
古希臘	-11.6006
刻意	-11.6007
中国铁路	-11.6008
竞选	-11.6008
射线	-11.6008
炮台	-11.6011
诸侯	-11.6013
貝克	-11.6014
武汉大学	-11.6015
運轉	-11.6015
故鄉	-11.6015
第三季	-11.6018
阎	-11.602
条例	-11.6024
莎拉	-11.6027
霍尔	-11.6027
面具	-11.6029
閻	-11.6029
悬挂	-11.6029
尺度	-11.603
黑白	-11.6031
平壤	-11.6032
履行	-11.6033
轩	-11.6034
世祖	-11.6034
屋頂	-11.6034
檢驗	-11.6035
權威	-11.6035
吸引了	-11.6036
獨特	-11.6037
頂點	-11.604
症状	-11.6043
掌控	-11.6043
1886	-11.6044
逃出	-11.6047
周末	-11.6049
電壓	-11.6049
开幕	-11.605
ま	-11.6051
精神病	-11.6052
招待	-11.6052
滑雪	-11.6053
台南市	-11.6054
無效	-11.6055
波士顿	-11.6056
切尔	-11.6056
剧场	-11.6059
大将军	-11.606
沿途	-11.6061
陰陽	-11.6062
刪除	-11.6065
心脏	-11.6065
斯洛伐克	-11.6067
奧林匹克	-11.6067
GDP	-11.6067
綺	-11.6067
美丽	-11.6071
袁世凯	-11.6072
争取	-11.6072
檢討	-11.6074
PP	-11.6078
之弟	-11.608
以免	-11.608
最佳男主角	-11.608
她们	-11.6081
天文學	-11.6081
紐約市	-11.6082
戰勝	-11.6084
上限	-11.6084
沸	-11.6089
ake	-11.609
士官	-11.6092
是一所	-11.6093
地底	-11.6093
东南亚	-11.6094
祸	-11.6094
电压	-11.6097
村合併為	-11.6097
共計	-11.6099
都御史	-11.61
抵制	-11.6103
纳尔	-11.6107
疑似	-11.6109
進駐	-11.611
被称作	-11.6111
号种子	-11.6112
製品	-11.6112
细菌	-11.6113
硬件	-11.6113
立方米	-11.6116
碳酸	-11.6116
啓	-11.6117
首長	-11.6121
灌丛	-11.6123
蒙古族	-11.6123
未婚	-11.6124
本質	-11.6127
时段	-11.6127
orn	-11.6133
一連串	-11.6133
誦	-11.6133
现今	-11.6135
交涉	-11.6137
BE	-11.6137
約定	-11.6137
手术	-11.6138
蒿	-11.6138
豎	-11.6138
選票	-11.6139
园区	-11.6141
曲線	-11.6141
大敗	-11.6141
燃烧	-11.6142
諒	-11.6144
1892	-11.6145
陪同	-11.6145
發掘	-11.6146
保守黨	-11.6146
弘治	-11.6147
牛奶	-11.6147
至少有	-11.6149
蛮	-11.6149
VI	-11.6151
常规	-11.6153
孢	-11.6155
氰	-11.6155
Gu	-11.6156
景观	-11.6156
伊勢	-11.6162
工学院	-11.6164
運河	-11.6164
節奏	-11.6165
专利	-11.6165
艷	-11.6166
gen	-11.6169
ix	-11.617
1888	-11.6172
血型	-11.6174
只限	-11.6182
さ	-11.6183
每小時	-11.6183
遇难	-11.6184
厦	-11.6184
颁	-11.6186
山顶	-11.6186
的其中一	-11.6188
產物	-11.6188
rr	-11.6193
鬱	-11.6193
諫	-11.6194
波爾	-11.6195
1600	-11.6197
採購	-11.62
•	-11.6205
琉璃	-11.6205
沽	-11.6205
新竹市	-11.6206
布蘭	-11.6206
墾	-11.6207
該地區	-11.6208
埃纳省	-11.6208
书写	-11.6209
哈密	-11.6214
pi	-11.6215
亚美尼亚	-11.6215
8000	-11.6216
氛	-11.6218
光度	-11.6221
专员	-11.6225
詞彙	-11.6228
调任	-11.6228
象棋	-11.6228
總教練	-11.6229
fe	-11.6229
厘	-11.623
参与了	-11.6231
愁	-11.6232
巖	-11.6233
时刻	-11.6233
一段时间	-11.6234
甲板	-11.6235
抗戰	-11.6236
男友	-11.6236
1884	-11.6236
系数	-11.6237
逃跑	-11.6237
爷	-11.6243
暴雨	-11.6244
电池	-11.6246
收费	-11.6247
廣義	-11.6247
滚	-11.6249
博客	-11.6249
詢問	-11.625
只需	-11.625
金陵	-11.6252
瞬	-11.6252
武漢	-11.6252
维多利亚	-11.6254
体积	-11.6255
黑洞	-11.6256
转向架	-11.6258
顧客	-11.6261
大使馆	-11.6263
率部	-11.6266
〇	-11.6266
读者	-11.6267
復出	-11.6268
現金	-11.6269
變換	-11.627
了一系列	-11.627
录制	-11.627
菇	-11.6271
國家足球隊	-11.6271
裘	-11.6271
機身	-11.6273
福田	-11.6273
帕尔	-11.6274
指責	-11.6274
楚国	-11.6274
海灣	-11.6275
绣	-11.6276
溃	-11.6277
歡樂	-11.6283
必需	-11.6285
雷达	-11.6286
歧	-11.6286
2.9	-11.6289
友誼	-11.629
事項	-11.6291
围绕	-11.6291
加冕	-11.6292
女演员	-11.6297
艺人	-11.6297
蕙	-11.6299
摩根	-11.6299
4,000	-11.6299
ata	-11.63
制品	-11.6301
1887	-11.6302
中尉	-11.6303
提醒	-11.6307
判断	-11.6307
表面上	-11.6308
煤矿	-11.631
配樂	-11.6311
刑法	-11.6313
虚拟	-11.6316
塞克斯	-11.6319
5.6	-11.6319
船只	-11.632
落入	-11.632
战术	-11.6321
猩猩	-11.6321
SL	-11.6322
存在于	-11.6322
最後一次	-11.6322
整修	-11.6323
新成立的	-11.6324
第十六	-11.6325
藝名	-11.6327
傳輸	-11.6329
短期大学	-11.633
CI	-11.6333
尊敬	-11.6336
微生物	-11.6338
巡演	-11.6338
最主要的	-11.6338
竭	-11.6339
蛋白質	-11.6339
下車	-11.634
面積約	-11.6344
代表團	-11.6344
嫌疑	-11.6344
混乱	-11.6346
細節	-11.6346
纪念碑	-11.6347
荃	-11.6348
善良	-11.6351
自由黨	-11.6351
追加	-11.6352
0°	-11.6352
之妻	-11.6353
怎么	-11.6355
肯尼迪	-11.6355
翅膀	-11.6355
提示	-11.6355
常數	-11.6356
伯恩	-11.6359
猛烈	-11.6359
宁县	-11.6359
ari	-11.636
氟化	-11.636
特快	-11.636
简化	-11.6363
日常生活	-11.6364
hu	-11.6366
曙	-11.6366
顺利	-11.6366
阿尔卑斯	-11.6366
第一次世界大战	-11.6366
羲	-11.6367
视觉	-11.6369
况	-11.637
跋	-11.6372
ham	-11.6373
据说	-11.6374
魔鬼	-11.6375
现已	-11.6376
All	-11.6378
高速铁路	-11.6378
那个	-11.6379
偵測	-11.6379
太古	-11.6381
尘	-11.6383
汉口	-11.6386
人大常委会	-11.6388
携	-11.6389
去世后	-11.6391
災難	-11.6394
Per	-11.6394
睡眠	-11.6395
YouTube	-11.64
諷刺	-11.6401
左手	-11.6406
Team	-11.6407
健身	-11.6407
尸体	-11.641
探险	-11.6413
批复	-11.6413
Fe	-11.6414
破裂	-11.6414
pro	-11.6415
籤	-11.6416
br	-11.6417
锥	-11.6417
き	-11.6417
昊	-11.6418
敵方	-11.642
仙女	-11.6421
媒	-11.6421
動態	-11.6424
教材	-11.6424
歌迷	-11.6426
30%	-11.6426
京城	-11.6427
彤	-11.6428
4.4	-11.6431
迁移	-11.6434
屡	-11.6434
第十八	-11.6435
僅僅	-11.6436
正當	-11.6436
巡抚	-11.6436
看守	-11.6436
錄得	-11.644
交通局	-11.6443
高铁	-11.6445
竞技	-11.6446
Sch	-11.6447
中壢	-11.6451
直轄市	-11.6451
溺	-11.6451
服用	-11.6455
1,9	-11.6455
致力于	-11.6457
音樂劇	-11.6457
棵	-11.6457
描写	-11.6458
被选为	-11.6464
!!	-11.6464
繪製	-11.6465
好感	-11.6466
會產生	-11.6468
4.7	-11.6474
UTC	-11.6474
壺	-11.6474
葵涌	-11.6475
嘉義市	-11.6477
司職	-11.6477
头衔	-11.6477
溶解	-11.6478
ther	-11.6478
巨蛋	-11.6478
火車站	-11.6482
厌	-11.6485
羅馬帝國	-11.6485
探測	-11.6486
蘋果日報	-11.6486
元代	-11.6487
玉米	-11.6487
首映	-11.649
不列顛	-11.6491
签约	-11.6492
率军	-11.6492
传奇	-11.6493
Ga	-11.6493
講座	-11.6494
祭司	-11.6495
市辖区	-11.6496
影集	-11.6503
發言人	-11.6503
近期	-11.651
把它	-11.651
歷經	-11.6513
十餘	-11.6514
摩洛哥	-11.6514
川崎	-11.6515
预备	-11.6516
煽	-11.652
莓	-11.652
这类	-11.6522
華納	-11.6522
举行了	-11.6527
卡斯特	-11.6529
該片	-11.653
奉行	-11.653
巴伐利亚	-11.6531
诉讼	-11.6531
嫁給	-11.6533
搬遷	-11.6533
乾隆帝	-11.6534
開展	-11.6535
實業	-11.6537
紧张	-11.6538
编号为	-11.654
噪音	-11.654
二层	-11.6542
厲	-11.6542
與此同時	-11.6543
办学	-11.6543
目錄	-11.6544
1,5	-11.6545
就業	-11.6545
嬰	-11.6547
北斗	-11.6547
次列车	-11.6549
爭論	-11.6551
澄清	-11.6552
警備	-11.6553
皇太子	-11.6554
叔叔	-11.6556
事變	-11.6556
打开	-11.6559
優異	-11.6559
渾	-11.656
鄒	-11.6561
女皇	-11.6562
卫队	-11.6565
俸	-11.6565
倒塌	-11.6567
瓦解	-11.6568
指派	-11.6569
Ta	-11.6577
後衛	-11.6579
射程	-11.6582
托夫	-11.6583
硝酸	-11.6584
ade	-11.6585
落實	-11.6585
处理器	-11.6585
石家庄	-11.6589
6.2	-11.6589
花序	-11.6589
聯手	-11.659
lis	-11.6591
駐守	-11.6591
相應	-11.6593
焦點	-11.6594
闵	-11.6594
古希腊	-11.6595
極高	-11.6595
支廳	-11.6604
属性	-11.6606
或以上	-11.6606
追蹤	-11.6608
旅館	-11.6609
,700	-11.661
画面	-11.6611
干燥	-11.6612
ロ	-11.6612
低音	-11.6612
學派	-11.6612
塑造	-11.6613
數千	-11.6614
饱	-11.6617
表现出	-11.6619
MG	-11.6619
起点	-11.6626
總計	-11.6627
臨床	-11.6627
祂	-11.6629
栓	-11.6629
超新星	-11.6629
巧克力	-11.6629
鬍	-11.6629
投訴	-11.6632
貴州	-11.6633
题材	-11.6635
1876	-11.6637
登堡	-11.6638
心情	-11.664
憑藉	-11.6643
相鄰	-11.6649
克劳	-11.6654
摇滚	-11.6658
祚	-11.6658
派出所	-11.666
成員之一	-11.6663
崑	-11.6663
自動車道	-11.667
魔戒	-11.667
提取	-11.6671
雅克	-11.6673
校址	-11.6674
深水埗	-11.6675
電荷	-11.6678
踪	-11.6678
扯	-11.6681
还包括	-11.6681
设计师	-11.6681
〉，《	-11.6682
北韓	-11.6685
罗马帝国	-11.6685
港府	-11.6686
菅	-11.6687
只剩下	-11.6687
法西斯	-11.6691
亞太	-11.6691
温带	-11.6692
枫	-11.6693
无限	-11.6693
乐团	-11.6695
一律	-11.6697
代數	-11.6698
篠	-11.6698
乌鲁木齐	-11.6698
戍	-11.6699
樱	-11.6704
密碼	-11.6707
大阪府	-11.6708
剩余	-11.6709
永远	-11.6709
各级	-11.671
這麼	-11.6713
开辟	-11.6715
聂	-11.6721
理工大学	-11.6722
大嶼山	-11.6722
擴充	-11.6723
為首的	-11.6724
ja	-11.6726
性命	-11.6728
演唱会	-11.6729
敵軍	-11.673
銅牌	-11.673
电动	-11.6732
自幼	-11.6734
整數	-11.6735
羅賓	-11.6736
ite	-11.6736
宫殿	-11.6739
英屬	-11.6739
藝員	-11.674
陆地	-11.6741
潮流	-11.6742
杰克逊	-11.6745
姿態	-11.6746
社会科学	-11.6751
维克	-11.6752
香港仔	-11.6754
3.9	-11.6755
兩座	-11.6755
餓	-11.6757
沙皇	-11.6757
拓扑	-11.6757
NS	-11.6759
顺治	-11.6759
連鎖	-11.6765
事变	-11.6767
分佈於	-11.6767
翟	-11.6768
动态	-11.6768
捷克斯洛伐克	-11.6769
微软	-11.6773
減弱	-11.6773
七個	-11.6775
2,4	-11.6776
委员会主任	-11.6778
情绪	-11.6779
密码	-11.678
巡洋艦	-11.678
君士坦丁堡	-11.6781
多年來	-11.6782
ッ	-11.6786
开封	-11.6787
鑄	-11.6787
芯	-11.6789
倖存	-11.6789
感謝	-11.679
HI	-11.6792
5.4	-11.6794
体育馆	-11.6797
工程系	-11.6798
约翰逊	-11.6799
運營	-11.68
幸運	-11.6801
胖	-11.6803
伶	-11.6804
第二期	-11.6805
5.3	-11.6807
期限	-11.6812
代價	-11.6812
四強	-11.6813
金刚	-11.6816
空調	-11.6816
5.7	-11.6818
抓住	-11.6822
夏侯	-11.6822
遗迹	-11.6823
争夺	-11.6824
第二屆	-11.6824
亞美尼亞	-11.6827
鑫	-11.6833
信託	-11.6835
乘車	-11.6835
繁荣	-11.6835
诊	-11.6838
众议院	-11.6839
占地面积	-11.6839
GE	-11.6841
不含	-11.6841
根據美國	-11.6843
疼痛	-11.6845
僚	-11.6845
餘下	-11.6846
假期	-11.6849
誇	-11.6851
花費	-11.6851
判處	-11.6852
cc	-11.6853
驱	-11.6853
行銷	-11.6855
处决	-11.6856
譴責	-11.6857
明帝	-11.6859
汽油	-11.686
續集	-11.6864
專員	-11.6865
筆記	-11.6867
型电力机车	-11.6867
贩	-11.6868
奧林匹克運動會	-11.6869
男生	-11.6869
傍晚	-11.687
荊州	-11.6872
雙胞胎	-11.6875
非正式	-11.6876
平均每	-11.6878
确立	-11.6878
椒	-11.6878
稍後	-11.688
敞	-11.6881
上尉	-11.6884
纂	-11.6884
执导	-11.6885
二十三年	-11.6885
皮埃尔	-11.6886
夜晚	-11.6887
麥可	-11.6889
自治區	-11.6889
獵物	-11.6891
蔣介石	-11.6892
ATP	-11.6893
永樂	-11.6893
萼	-11.6894
至尊	-11.6894
星期一	-11.6896
肖像	-11.6897
認真	-11.6897
交匯處	-11.6898
鋸	-11.6898
カ	-11.6898
解剖	-11.6898
1893	-11.6899
获胜	-11.6899
物理學家	-11.6899
登场	-11.6902
放入	-11.6905
帆船	-11.6905
費城	-11.6907
鸦	-11.6908
隔離	-11.6912
棒球選手	-11.6912
在那裡	-11.6913
缔	-11.6916
80%	-11.6917
苞	-11.6917
旁邊	-11.6919
log	-11.6919
伤害	-11.692
另一种	-11.6921
涨	-11.6922
南宁	-11.6922
維也納	-11.6922
稠	-11.6922
章程	-11.6922
ase	-11.6923
タ	-11.6928
该市镇	-11.6932
石碑	-11.6932
5.8	-11.6932
病患	-11.6933
比利牛斯	-11.6934
器材	-11.6934
纖	-11.6939
扭曲	-11.6939
正值	-11.6939
Er	-11.6941
副使	-11.6942
右派	-11.6943
媳	-11.6946
蟾	-11.6946
千萬	-11.6948
尼奥	-11.6948
佩尔	-11.6949
桃園縣	-11.6949
神聖	-11.6951
专科学校	-11.6952
磯	-11.6952
曾擔任	-11.6953
馬匹	-11.6959
率兵	-11.696
貸款	-11.6965
ence	-11.6966
八卦	-11.6967
環狀	-11.6968
矽	-11.697
缺點	-11.697
艱	-11.697
蔡英文	-11.6975
夸克	-11.6975
繡	-11.6976
看台	-11.6977
不錯	-11.6977
战区	-11.698
反叛	-11.698
話題	-11.6981
河道全長	-11.6982
芥	-11.6983
局勢	-11.6984
担当	-11.6985
盟军	-11.6986
嶽	-11.6988
嫁给	-11.6988
出身於	-11.6989
實用	-11.699
シ	-11.6994
懸掛	-11.6995
櫻花	-11.6995
长征	-11.6996
官僚	-11.6998
帐	-11.7
主打歌	-11.7002
太陽系	-11.7002
4.1	-11.7003
适用于	-11.7003
证券	-11.7004
被取消	-11.7006
平息	-11.7007
應用程式	-11.7008
隔离	-11.7008
维修	-11.7008
制裁	-11.7009
社會科學	-11.7012
高等学校	-11.7013
Bu	-11.7018
6.8	-11.7024
皂	-11.7024
珊瑚礁	-11.7024
所述	-11.7026
季軍	-11.7027
釜山	-11.7031
搞笑	-11.7031
ett	-11.7032
战斗机	-11.7032
多摩	-11.7034
先知	-11.7035
客户	-11.7035
钙	-11.7036
丢	-11.7036
ino	-11.7036
主機	-11.7038
就读于	-11.7039
哺乳	-11.704
不符合	-11.7041
蟬	-11.7042
灭绝	-11.7043
簽下	-11.7044
陣容	-11.7048
鑒	-11.7048
付出	-11.7049
阿塞拜疆	-11.7053
衛冕	-11.7056
二十九年	-11.7056
矩陣	-11.7056
安息	-11.7057
哥德	-11.7059
编译	-11.7059
金字塔	-11.706
灶	-11.706
毫不	-11.706
CV	-11.7061
送給	-11.7062
困境	-11.7064
退伍	-11.7065
節度使	-11.7066
即便	-11.7066
Star	-11.7069
祇	-11.7073
效忠	-11.7073
評論家	-11.7074
巡回	-11.7076
介面	-11.7077
烃	-11.7078
代言人	-11.7079
加勒比海	-11.708
福克斯	-11.7085
外貌	-11.7086
甘肅	-11.7086
5.1	-11.7087
这条	-11.7088
圖片	-11.7088
Ki	-11.7089
膳	-11.709
乌尔	-11.7092
廈	-11.7093
本质	-11.7094
靴	-11.7096
含义	-11.7098
承诺	-11.7104
疏散	-11.7105
電梯	-11.7106
職業生涯	-11.7106
泾	-11.7108
舞曲	-11.7108
DJ	-11.7111
輕鐵	-11.7113
每一个	-11.7114
娃娃	-11.7115
嶺南	-11.7116
终止	-11.7116
發電廠	-11.7117
策划	-11.7117
集团有限公司	-11.7119
6.6	-11.7121
整数	-11.7121
ress	-11.7123
遠離	-11.7123
教育局	-11.7123
伴奏	-11.7123
师团	-11.7124
那裡	-11.7125
名录	-11.7126
商標	-11.7126
图片	-11.7128
羅馬天主教	-11.7128
停辦	-11.7128
決鬥	-11.7128
汗国	-11.7131
手臂	-11.7134
国家公园	-11.7137
書局	-11.7137
四郎	-11.7138
1868	-11.7138
十字架	-11.714
城际	-11.7141
纪念馆	-11.7144
柑	-11.7144
奥林匹克	-11.7144
饭店	-11.7147
引爆	-11.7149
6.4	-11.715
功臣	-11.715
乍	-11.7151
八達通	-11.7151
通商	-11.7152
關卡	-11.7153
無雙	-11.7153
總冠軍	-11.7155
豐田	-11.7161
没有任何	-11.7162
1891	-11.7162
珍妮	-11.7162
辞去	-11.7163
海豚	-11.7164
此处	-11.7166
步道	-11.7166
ze	-11.7169
佛羅里達	-11.7169
销量	-11.717
吉祥	-11.717
過渡	-11.7172
幽靈	-11.7174
習俗	-11.7174
詢	-11.7174
槍械	-11.7177
经理	-11.718
官吏	-11.7181
網友	-11.7181
遷入	-11.7181
城隍	-11.7182
华侨	-11.7185
乐器	-11.7185
纳入	-11.7186
会计	-11.7186
充足	-11.7191
棉花	-11.7192
就已經	-11.7194
電子遊戲	-11.7198
反共	-11.7199
捐贈	-11.7207
暴動	-11.7207
相望	-11.7208
實習	-11.7211
嘆	-11.7212
祺	-11.7212
全国人大常委会	-11.7213
此種	-11.7216
铎	-11.7217
酚	-11.7218
很难	-11.7218
诸多	-11.7218
崩潰	-11.7219
工程学院	-11.7219
細小	-11.722
9.9	-11.7222
咨询	-11.7224
发育	-11.7226
del	-11.7227
種種	-11.7228
1883	-11.7228
7.2	-11.723
白堊紀	-11.723
自願	-11.7233
放射	-11.7234
經紀公司	-11.7236
篷	-11.7243
畢業生	-11.7244
慢性	-11.7245
电机	-11.7246
围棋	-11.7246
團員	-11.7247
露西	-11.7247
谨	-11.7249
书店	-11.7249
绒	-11.7249
友谊	-11.725
固体	-11.7253
林业	-11.7254
臺北縣	-11.7256
製造商	-11.7261
封闭	-11.7261
東京電視台	-11.7262
发电机	-11.7262
協商	-11.7263
修女	-11.7263
表述	-11.7266
島式月台	-11.7267
豈	-11.7268
第十七	-11.7271
Gra	-11.7272
迁往	-11.7272
マ	-11.7273
皋	-11.7274
途徑	-11.7274
假如	-11.7275
擊出	-11.7278
補選	-11.7279
牧师	-11.7281
苗族	-11.7283
引致	-11.7285
跪	-11.7286
所辖的一个村	-11.7286
去除	-11.7288
壁画	-11.729
Super	-11.7292
克服	-11.7294
步兵第	-11.7294
黜	-11.7298
望远镜	-11.7298
熱帶風暴	-11.7298
复制	-11.7304
支撐	-11.7306
扩	-11.7306
Pe	-11.7308
好像	-11.731
悍	-11.731
屑	-11.731
飲料	-11.7313
匈牙利语	-11.7313
女婿	-11.7314
初登場	-11.7318
见到	-11.7319
修理	-11.7321
靶	-11.7322
近年来	-11.7323
号机车	-11.7323
基隆市	-11.7328
調節	-11.7329
决策	-11.7335
傳入	-11.7337
6.7	-11.7338
同知	-11.7339
旗帜	-11.7341
鎧	-11.7342
争论	-11.7343
入獄	-11.7345
den	-11.7347
信念	-11.7347
ical	-11.7347
施加	-11.7348
ek	-11.7348
戰績	-11.7349
入讀	-11.7349
各類	-11.7352
執法	-11.7352
椭	-11.7354
ensis	-11.7355
讲话	-11.7355
橋樑	-11.7356
40%	-11.7356
覺醒	-11.7357
導彈	-11.7361
布兰	-11.7362
腊	-11.7364
委员会副主任	-11.7366
姻	-11.7366
艰	-11.7373
高句丽	-11.7379
钾	-11.7379
詛咒	-11.7379
勇敢	-11.738
营养	-11.7381
条件下	-11.7382
6.3	-11.7383
额外	-11.7383
历代	-11.7383
硝	-11.7384
差不多	-11.7386
OVA	-11.7387
所殺	-11.7388
7.3	-11.7388
荣获	-11.7396
特有的	-11.74
靈感	-11.74
语音	-11.74
雷射	-11.7401
愉	-11.7402
惯	-11.7403
瀏覽	-11.7404
數學家	-11.7405
精通	-11.7406
游击	-11.7409
Ben	-11.741
曹魏	-11.7411
嘉定	-11.7411
ild	-11.7414
成份	-11.7414
被用作	-11.7421
电气化	-11.7421
之际	-11.7422
湿润	-11.7423
聚合	-11.7423
總數	-11.7427
荫	-11.7427
披露	-11.7427
媒介	-11.743
财务	-11.7431
官網	-11.7432
法例	-11.7432
損害	-11.7434
羟	-11.7435
座椅	-11.7437
干預	-11.744
飓风	-11.744
挤	-11.7441
大碟	-11.7441
澜	-11.7441
招式	-11.7444
义务	-11.7446
巡邏	-11.7447
化学家	-11.7448
芮	-11.7448
直升机	-11.7448
瘋狂	-11.7448
溫柔	-11.7449
法规	-11.7452
熱帶低氣壓	-11.7454
师范	-11.7457
變動	-11.7457
引導	-11.7458
詮釋	-11.746
道格拉斯	-11.746
約瑟夫	-11.746
兼容	-11.746
相接	-11.746
分組賽	-11.746
认证	-11.7462
恥	-11.7466
困擾	-11.7467
霉	-11.7472
该片	-11.7474
下载	-11.7476
仪器	-11.7477
投靠	-11.7478
☆	-11.7479
瑋	-11.7479
講師	-11.748
Cent	-11.7481
蛾	-11.7485
反映了	-11.7485
鉤	-11.7485
致力於	-11.7485
懲罰	-11.7485
致死	-11.7487
菲尔	-11.7489
指引	-11.749
秋田	-11.7491
县知县	-11.7492
北投	-11.7494
譯本	-11.7494
位於臺灣	-11.7497
7.7	-11.7498
不列颠	-11.7504
拉丁语	-11.7504
ü	-11.7504
維吉尼亞	-11.7504
仙台	-11.7504
毕业生	-11.7509
保衛	-11.7509
克罗地亚	-11.751
1862	-11.751
流域面積	-11.7511
結尾	-11.7511
终身	-11.7515
Cr	-11.7515
魄	-11.7516
炸弹	-11.7517
代表人物	-11.7519
4.9	-11.7519
继位	-11.7521
騎士團	-11.7521
檢察	-11.7521
豪華	-11.7522
把自己	-11.7523
师范学校	-11.7524
演繹	-11.7524
　　	-11.7525
FM	-11.7526
亚热带	-11.753
企業家	-11.7531
rin	-11.7532
八強	-11.7534
頻繁	-11.7537
缺席	-11.7538
7.8	-11.7541
频繁	-11.7543
財富	-11.7546
集團軍	-11.7547
字体	-11.7548
同性恋	-11.7548
du	-11.7549
語系	-11.755
1882	-11.755
网页	-11.755
财富	-11.7553
万立方米	-11.7553
新莊	-11.7554
否決	-11.7555
輿論	-11.7555
掘	-11.7555
Ri	-11.7559
布鲁克	-11.756
宿主	-11.756
橫跨	-11.7561
昏迷	-11.7562
ale	-11.7563
咸丰	-11.7565
牌照	-11.7566
輕易	-11.7568
一幅	-11.7568
杭州市	-11.7568
1879	-11.7569
特區政府	-11.757
保守派	-11.7572
哲學家	-11.7574
奪冠	-11.7574
蘊	-11.7574
评选	-11.7575
ave	-11.7576
伴侶	-11.7577
公安部	-11.7577
距離首府	-11.7578
諸多	-11.758
信件	-11.7583
樣本	-11.7584
衰變	-11.7586
布列塔尼	-11.7586
樓梯	-11.7591
权威	-11.7594
变种	-11.7594
实体	-11.7595
功夫	-11.7595
俄语	-11.7595
摔	-11.7597
光谱	-11.7599
琉	-11.7602
防護	-11.7603
内存	-11.7605
嘯	-11.7605
煎	-11.7606
1861	-11.7606
硼	-11.7612
马恩省	-11.7615
醋	-11.7618
執照	-11.7618
恕	-11.7619
LI	-11.7625
買賣	-11.7626
2,3	-11.7629
昨	-11.7631
萬英鎊	-11.7631
現身	-11.7634
理工学院	-11.7636
瘋	-11.7637
新市鎮	-11.7637
ple	-11.7638
加裝	-11.7639
新一代	-11.764
关联	-11.7641
响应	-11.7642
檢察官	-11.7643
叔父	-11.7643
盎	-11.7643
顯得	-11.7643
新臺幣	-11.7644
90%	-11.7644
苟	-11.7645
传教	-11.7645
聰明	-11.7648
不堪	-11.7649
毗邻	-11.765
奪回	-11.7651
索尔	-11.7652
屏幕	-11.7653
1878	-11.7654
露天	-11.7655
願望	-11.7656
酪	-11.7657
對待	-11.7658
延遲	-11.7661
麾下	-11.7666
苗栗	-11.7667
兵衛	-11.7669
dd	-11.767
桃花	-11.767
兴起	-11.7671
1848	-11.7675
臧	-11.7675
潼	-11.7676
綴	-11.7676
住院	-11.7676
理事會	-11.7678
核武器	-11.7681
缪	-11.7682
戮	-11.7682
清洗	-11.7683
邹	-11.7683
Facebook	-11.7688
上市公司	-11.7691
工場	-11.7691
極度	-11.7691
对阵	-11.7691
ure	-11.7692
帕斯	-11.7695
斃	-11.7695
天主教徒	-11.7696
失效	-11.7696
急性	-11.7697
屠杀	-11.7697
明珠	-11.7701
簡介	-11.7703
吉他手	-11.7706
半径	-11.7707
闡	-11.7708
同胞	-11.7708
交響曲	-11.7714
＝	-11.7714
ail	-11.7715
寰	-11.7715
十余	-11.7718
組別	-11.7718
离婚	-11.772
接納	-11.772
獲取	-11.772
媚	-11.7721
拐	-11.7721
大獎賽	-11.7724
秩	-11.7727
7000	-11.7728
竞赛	-11.7728
改组	-11.7733
谴责	-11.7734
密西西比	-11.7734
暢銷	-11.7734
住房	-11.7736
1864	-11.7739
二郎	-11.7739
教皇	-11.7741
攻破	-11.7741
管治	-11.7742
耶和華	-11.7746
阿爾巴尼亞	-11.7746
Java	-11.7747
拉丁美洲	-11.7747
重组	-11.7748
新娘	-11.775
ち	-11.7753
1875	-11.7756
镶	-11.7759
莉莉	-11.7763
性别	-11.7763
那樣	-11.7765
滿意	-11.7765
大阪市	-11.7769
1867	-11.777
處死	-11.7773
立法局	-11.7775
華麗	-11.7775
簡易	-11.7776
現行	-11.7776
委員會主席	-11.7778
繁榮	-11.7779
峯	-11.778
打败	-11.7782
受邀	-11.7782
mar	-11.7784
霍爾	-11.7785
楞	-11.7785
电信	-11.7786
菲爾德	-11.7786
删除	-11.7788
4.0	-11.7792
控股有限公司	-11.7795
Hu	-11.7797
插畫	-11.7799
體操	-11.78
光碟	-11.78
停泊	-11.7802
聶	-11.7805
机组	-11.7806
光復	-11.7806
農村	-11.7807
褐	-11.7808
}	-11.781
狩	-11.7811
未經	-11.7811
濠	-11.7812
備受	-11.7818
西伯利亚	-11.7818
部部長	-11.7819
领事	-11.7819
開創	-11.7821
侵入	-11.7822
運動場	-11.7824
く	-11.7825
目睹	-11.7825
届全国人大	-11.7826
常規	-11.7828
那不勒斯	-11.7831
国民革命军	-11.7831
鹹	-11.7831
合唱團	-11.7833
古埃及	-11.7834
PlayStation	-11.7837
位于中国广东省	-11.7837
精度	-11.7838
购物	-11.7839
護士	-11.784
模樣	-11.7842
自衛隊	-11.7844
William	-11.7844
8.6	-11.7844
必定	-11.7845
总队	-11.7846
会导致	-11.7846
圣殿	-11.785
蔣經國	-11.785
失業	-11.7853
电力机车	-11.7854
闲	-11.7856
ral	-11.7859
售出	-11.7863
有限责任公司	-11.7864
开发区	-11.7864
专题	-11.7868
處決	-11.7869
旗幟	-11.787
镇管辖	-11.7871
二十六年	-11.7871
渴望	-11.7871
液體	-11.7873
谣	-11.7877
納粹德國	-11.7878
歐美	-11.7879
花蓮縣	-11.7879
北洋政府	-11.788
跳舞	-11.788
釋出	-11.788
飞船	-11.7881
溴	-11.7883
這首歌	-11.7883
驕	-11.7883
二次大戰	-11.7884
躲避	-11.7884
停車	-11.7884
配备	-11.7884
相差	-11.7884
服飾	-11.7884
帶回	-11.7887
滬	-11.7889
冒险	-11.789
沉默	-11.789
魅	-11.789
打死	-11.7891
流失	-11.7892
ash	-11.7892
作業系統	-11.7895
更容易	-11.7898
獎勵	-11.79
咽	-11.7903
專題	-11.7904
中華民國總統	-11.7905
总管	-11.7906
斯科特	-11.7906
海濱	-11.7909
厚度	-11.7912
奇蹟	-11.7912
付費	-11.7914
标志着	-11.7914
观看	-11.7916
ISO	-11.7917
胸部	-11.7917
脏	-11.7918
除去	-11.792
轎	-11.7923
数值	-11.7925
乙烯	-11.7925
参观	-11.7925
进军	-11.7926
報復	-11.7929
验证	-11.7934
締結	-11.7935
活塞	-11.7937
鈾	-11.7942
马克思主义	-11.7942
常栖息在	-11.7943
狮子	-11.7945
駕駛員	-11.7945
你们	-11.7946
San	-11.7947
普通話	-11.7947
就读	-11.7948
枣	-11.7949
东莞	-11.7953
發育	-11.7953
地貌	-11.7954
白云	-11.7956
陡	-11.7962
覓	-11.7962
未成年	-11.7962
大使館	-11.7965
演变	-11.7971
kg	-11.7972
宫廷	-11.7972
探测	-11.7973
园林	-11.7975
鰓	-11.7975
渦輪	-11.7976
典礼	-11.7977
收復	-11.7978
氣氛	-11.7978
孔雀	-11.7981
泰晤士	-11.7982
被誉为	-11.7982
臼	-11.7982
牛肉	-11.7982
都會區	-11.7984
見證	-11.7985
開拓	-11.7985
晶體	-11.7985
光束	-11.7986
褚	-11.7989
完顏	-11.7992
竟然	-11.7992
暴龍	-11.7993
形势	-11.7995
減輕	-11.7995
工業區	-11.7998
參議員	-11.8001
竇	-11.8002
毗鄰	-11.8003
部落格	-11.8003
禮儀	-11.8003
傳聞	-11.8004
方针	-11.8005
可行性	-11.8009
蔓延	-11.8009
配件	-11.8012
篇文章	-11.8012
职责	-11.8013
文憑	-11.8014
必殺技	-11.8015
榴彈	-11.8017
环球	-11.802
shi	-11.802
塑膠	-11.8022
取景	-11.8023
少校	-11.8029
專訪	-11.8032
人類學	-11.8032
師範大學	-11.8035
о	-11.8035
終點站	-11.8036
頒布	-11.8038
学院院长	-11.8039
act	-11.804
芷	-11.8041
细节	-11.8042
切割	-11.8043
起始	-11.8044
硕	-11.8044
佛陀	-11.8047
稱讚	-11.8047
清潔	-11.8047
東晉	-11.8047
las	-11.8049
陛下	-11.8053
不夠	-11.8054
池田	-11.8058
委员会主席	-11.8059
总数	-11.806
6.1	-11.806
的緣故	-11.8062
若望	-11.8063
喜爱	-11.8065
科下的一个属	-11.8068
年夏季奧林匹克運動會	-11.8069
惠州	-11.807
赌	-11.8075
赞助	-11.8076
社會學	-11.8078
暉	-11.8081
van	-11.8082
馬鞍山	-11.8082
1,500	-11.8084
个行政村	-11.8086
五郎	-11.8087
苷	-11.8088
産	-11.8088
緊密	-11.8089
起源於	-11.8089
總統選舉	-11.809
朝鲜半岛	-11.8091
now	-11.8094
擊落	-11.8097
配偶	-11.8097
俘虏	-11.8098
內陸	-11.8098
美國陸軍	-11.8099
阵地	-11.81
主委	-11.8101
氦	-11.8102
大氣層	-11.8102
博覽會	-11.8102
沾	-11.8102
爺爺	-11.8103
寶貝	-11.8105
林彪	-11.8105
菲爾	-11.8106
her	-11.8108
9.8	-11.8108
条款	-11.8108
新疆维吾尔自治区	-11.8108
倫理	-11.8109
海灘	-11.811
廢棄	-11.8111
参议员	-11.8111
eo	-11.8113
可以追溯到	-11.8115
桑德	-11.8119
目录	-11.8119
舅	-11.8121
磊	-11.8122
属下的一个植物种	-11.8122
罹患	-11.8122
百度	-11.8122
畜牧	-11.8122
在此之前	-11.8125
合資	-11.8132
Pri	-11.8134
詩歌	-11.8134
詹姆士	-11.8135
學士學位	-11.8135
电磁	-11.8137
結盟	-11.8138
穹	-11.8142
退位	-11.8142
寺庙	-11.8143
樹木	-11.8143
字幕	-11.8144
費爾	-11.8144
絡	-11.8144
間諜	-11.8146
垦	-11.8148
大洋洲	-11.8149
愛你	-11.815
此类	-11.815
刺殺	-11.815
焕	-11.8151
fer	-11.8152
100%	-11.8152
高中生	-11.8152
所用的	-11.8154
証	-11.8155
神祇	-11.8162
累计	-11.8162
纪录片	-11.8164
報章	-11.8164
朝鮮半島	-11.8165
驰	-11.8169
祝福	-11.8169
1865	-11.817
閔	-11.8171
輕鬆	-11.8171
業界	-11.8173
獎牌	-11.8175
底特律	-11.8176
垮	-11.8176
靡	-11.8176
香港浸會大學中醫藥學院	-11.8176
职能	-11.8179
折返	-11.818
青岛市	-11.8182
財政部	-11.8182
莒	-11.8182
貫穿	-11.8182
龔	-11.8183
详	-11.8183
螺科	-11.8184
建構	-11.8186
一定要	-11.8187
优先	-11.8189
弗朗西斯	-11.8189
貧窮	-11.8189
可以看到	-11.8191
完畢	-11.8191
坟	-11.8196
Inter	-11.8196
獎章	-11.8196
卤	-11.8196
先锋	-11.8196
星期一至五	-11.8196
活力	-11.8199
外观	-11.8199
动词	-11.82
是一个位于中国	-11.8201
旗艦	-11.8203
千歲	-11.8203
遁	-11.8203
中国科学院院士	-11.8203
效能	-11.8206
構想	-11.8208
工业大学	-11.8209
竖	-11.8209
傻	-11.821
首屆	-11.8211
保密	-11.8215
傣	-11.8216
曦	-11.8216
沐	-11.8217
莞	-11.8218
沿着	-11.8219
禮拜	-11.822
刑警	-11.8222
核准	-11.8225
8.8	-11.8226
聘請	-11.8228
莲花	-11.8228
lus	-11.8229
LED	-11.823
筠	-11.823
追捕	-11.823
廬	-11.8231
赛车	-11.8231
歉	-11.824
常数	-11.824
总监	-11.8242
9.6	-11.8243
轰	-11.8243
嫻	-11.8243
天文学家	-11.8246
层次	-11.8246
九龍城	-11.825
机车车辆	-11.825
叱	-11.825
1877	-11.8252
1872	-11.8253
音樂錄影帶	-11.8257
朽	-11.8264
審議	-11.8265
哈布斯堡	-11.827
奥斯曼帝国	-11.827
顛	-11.8271
名偵探柯南	-11.8271
农历	-11.8271
变更	-11.8272
太空船	-11.8273
伴隨	-11.8274
表情	-11.8277
汞	-11.8277
陈列	-11.8278
續約	-11.8284
按察使	-11.8284
甦	-11.8284
鷲	-11.8284
该剧	-11.8286
霸王	-11.8286
升降機	-11.8287
否认	-11.8288
70%	-11.8288
Comm	-11.8289
许可	-11.829
炯	-11.8291
陵墓	-11.8291
監禁	-11.8293
剝	-11.8296
嘗	-11.8297
原子核	-11.8298
稀少	-11.8298
武汉市	-11.83
监管	-11.8301
战争期间	-11.8301
罕见	-11.8304
揭幕	-11.8307
的一座城市	-11.8308
黃埔	-11.8309
难民	-11.8309
夢幻	-11.8309
马其顿	-11.8311
糖尿病	-11.8311
鳩	-11.8312
起诉	-11.8317
貸	-11.8317
温泉	-11.8318
珂	-11.8319
延長至	-11.8322
滥	-11.8325
驻扎	-11.8325
灼	-11.8326
樂曲	-11.8326
贫困	-11.8327
í	-11.8332
は	-11.8332
倉庫	-11.8334
庾	-11.8339
民族主义	-11.834
1873	-11.834
县的一个市镇	-11.8345
駱	-11.8346
交替	-11.8347
潰	-11.8348
畿	-11.835
泰坦	-11.8352
綜藝	-11.8352
凱爾	-11.8352
生产总值	-11.8352
ら	-11.8353
7.4	-11.8354
獨裁	-11.8354
LL	-11.8355
逆轉	-11.8358
客运专线	-11.8359
レ	-11.836
債務	-11.8363
教导	-11.8364
爆发后	-11.8366
万人次	-11.8366
蝠	-11.8366
Mark	-11.8372
鈣	-11.8373
业余	-11.8375
情景	-11.8377
应用程序	-11.8378
統籌	-11.8379
1866	-11.8381
狩獵	-11.8388
三國志	-11.8388
环绕	-11.8389
最高峰	-11.8391
境界	-11.8391
層面	-11.8392
反对派	-11.8394
阿尔巴尼亚	-11.8394
其他地方	-11.8394
傾斜	-11.8395
胥	-11.8396
參戰	-11.8397
論述	-11.8397
red	-11.8398
奚	-11.8401
承擔	-11.8402
輸給	-11.8402
1881	-11.8404
董卓	-11.8405
感動	-11.8407
竿	-11.8407
惡劣	-11.8409
貨車	-11.841
远东	-11.8411
遣使	-11.8411
進展	-11.8412
首演	-11.8415
乘搭	-11.8415
預告	-11.8418
观音	-11.8419
四分之一	-11.8422
換取	-11.8427
環節	-11.8427
苔	-11.8428
塞琉古	-11.8428
掀起	-11.843
奠定了	-11.843
但實際上	-11.8433
7.9	-11.8433
白俄羅斯	-11.8436
撤離	-11.8438
喜好	-11.8439
得票率	-11.8442
否则	-11.8443
敦煌	-11.8443
京劇	-11.8446
幸存	-11.8446
臘	-11.8447
軀	-11.8449
警務處	-11.8456
腫	-11.8456
謬	-11.8456
痴	-11.8456
番禺	-11.8456
贷款	-11.8456
供电	-11.846
砸	-11.8477
渦	-11.8482
烂	-11.8484
匙	-11.8491
苓	-11.8491
隘	-11.8498
渥	-11.8533
峪	-11.8533
ジ	-11.854
娄	-11.8547
お	-11.8561
椿	-11.8582
椰	-11.8582
繆	-11.8589
毘	-11.859
揆	-11.8596
鲨	-11.8596
闹	-11.8602
憐	-11.861
諱	-11.861
炫	-11.8617
萝	-11.8617
侗	-11.8617
淇	-11.8624
歳	-11.8631
斡	-11.8638
醜	-11.8645
廂	-11.8651
佚	-11.8652
笃	-11.8659
虑	-11.8665
彙	-11.8665
耍	-11.8681
垒	-11.8685
蒜	-11.8688
臀	-11.8695
攸	-11.8703
龚	-11.8705
槐	-11.8708
璐	-11.8709
刪	-11.8712
滞	-11.8723
刹	-11.873
犁	-11.8733
侖	-11.8744
盼	-11.8745
溯	-11.875
²	-11.8752
鰻	-11.8766
驿	-11.8766
衆	-11.8767
賄	-11.8787
陋	-11.8788
笙	-11.8795
兌	-11.8802
蚊	-11.8802
疯	-11.8809
ド	-11.8816
钥	-11.8823
査	-11.8845
拦	-11.8852
鉅	-11.886
吋	-11.8863
○	-11.8867
綜	-11.887
涯	-11.8881
閏	-11.8889
墊	-11.8903
婴	-11.8909
吡	-11.891
躁	-11.8918
咎	-11.8939
脆	-11.8946
柜	-11.8946
芋	-11.8947
骚	-11.8953
洼	-11.897
脾	-11.8976
丕	-11.8976
昧	-11.8976
ö	-11.8983
偿	-11.899
淋	-11.9
栽	-11.9011
萎	-11.9012
欖	-11.9012
恤	-11.9012
淄	-11.9013
あ	-11.902
殆	-11.9027
翊	-11.9064
噬	-11.9071
踩	-11.9079
圳	-11.9084
蕴	-11.9086
滄	-11.9086
扑	-11.9093
仑	-11.9122
蜡	-11.9138
蚤	-11.9153
浜	-11.916
蕉	-11.9165
狠	-11.9167
畅	-11.9175
鈉	-11.9175
锌	-11.9182
吗	-11.9182
攬	-11.9182
μ	-11.9197
贛	-11.9198
沮	-11.9205
沅	-11.9206
窃	-11.9213
纠	-11.922
晟	-11.9243
扔	-11.9257
够	-11.9267
驛	-11.928
倆	-11.928
淤	-11.9295
樵	-11.9302
瞄	-11.9325
汲	-11.9325
苛	-11.9325
舷	-11.9332
嫂	-11.9333
刮	-11.9348
沦	-11.9348
剎	-11.9348
衢	-11.9363
艳	-11.9363
蠟	-11.9386
薨	-11.9387
蔷	-11.9394
妳	-11.9394
胚	-11.9401
峭	-11.9409
崁	-11.9409
稷	-11.9417
谕	-11.9417
嘲	-11.9438
珪	-11.9447
緋	-11.9463
虾	-11.9493
顎	-11.9501
燮	-11.9501
毆	-11.9524
鏢	-11.9524
毋	-11.9524
泪	-11.9531
疹	-11.9532
γ	-11.9532
聆	-11.9532
璽	-11.9547
慌	-11.9562
汙	-11.9562
渗	-11.9562
狸	-11.957
咖	-11.957
鞘	-11.9578
尻	-11.9586
豚	-11.9592
擄	-11.9601
蹟	-11.9624
陌	-11.9625
厢	-11.963
舵	-11.9648
甬	-11.9663
绸	-11.9663
叡	-11.9664
柵	-11.9688
漕	-11.9695
戦	-11.9703
弈	-11.9711
飢	-11.9711
奢	-11.9718
篆	-11.9719
寝	-11.9719
妆	-11.9727
鯰	-11.9734
肽	-11.9742
冉	-11.975
饲	-11.975
拷	-11.9751
剃	-11.9766
こ	-11.9766
蔑	-11.9774
悖	-11.9774
姪	-11.9774
瞿	-11.9782
昱	-11.9798
烦	-11.9798
凿	-11.9806
烘	-11.9814
壕	-11.9814
姥	-11.982
厨	-11.983
挾	-11.983
钞	-11.9845
撃	-11.9854
葆	-11.9861
懶	-11.9861
愧	-11.9862
骆	-11.9877
オ	-11.9878
纤	-11.9907
{	-11.9914
贪	-11.9917
酱	-11.9918
儉	-11.9919
醚	-11.9926
鈍	-11.9934
侃	-11.9957
僖	-11.9965
卦	-11.9969
描	-11.997
肛	-11.9974
釣	-11.9976
簇	-11.9982
鳍	-11.9982
俾	-11.999
畝	-12.0015
朕	-12.0016
蔓	-12.0021
キ	-12.0022
寢	-12.0023
ó	-12.0031
逗	-12.0065
奠	-12.007
暈	-12.0072
挪	-12.0077
埤	-12.0088
虧	-12.0088
淪	-12.0103
吠	-12.0105
泼	-12.0112
汴	-12.0113
脅	-12.0126
剖	-12.0145
藓	-12.0145
塢	-12.0162
灑	-12.017
婭	-12.0178
隸	-12.0182
渚	-12.0203
鄞	-12.021
闢	-12.0216
鱸	-12.0236
骏	-12.0243
唸	-12.0244
囑	-12.0244
и	-12.0244
蔥	-12.0244
訶	-12.0253
驼	-12.0277
檳	-12.0344
顱	-12.0352
桔	-12.0352
遏	-12.0361
釵	-12.0369
鍛	-12.0369
鐮	-12.0377
を	-12.0386
吒	-12.0386
陂	-12.0394
诞	-12.04
毯	-12.0403
兑	-12.042
诛	-12.0429
葱	-12.0437
柚	-12.0437
鷺	-12.0445
幌	-12.0453
戸	-12.0454
叹	-12.0462
鼬	-12.047
拌	-12.0487
駝	-12.0488
垫	-12.0496
厭	-12.0519
剥	-12.0521
琰	-12.0524
歪	-12.0538
襯	-12.0539
燭	-12.0581
羈	-12.0607
羧	-12.0625
婢	-12.0633
麒	-12.065
竞	-12.0672
コ	-12.0676
倦	-12.0685
绰	-12.0703
弩	-12.0711
箕	-12.0711
晖	-12.072
ナ	-12.072
が	-12.0746
杠	-12.0755
啸	-12.0763
圃	-12.0763
喘	-12.0781
缆	-12.0781
妨	-12.0808
咏	-12.0808
瀚	-12.0816
勻	-12.0816
［	-12.0816
纱	-12.0824
雉	-12.0833
樽	-12.0833
谏	-12.0834
膚	-12.084
柿	-12.0842
飼	-12.085
@	-12.0868
］	-12.0869
绪	-12.0871
ミ	-12.0886
杞	-12.0886
１	-12.0886
て	-12.0895
孩	-12.0904
撈	-12.0913
泸	-12.0913
疼	-12.0921
圩	-12.0922
孺	-12.0931
輿	-12.0939
濮	-12.0939
瀾	-12.0941
屿	-12.0947
悶	-12.0949
瀬	-12.0967
濂	-12.0983
唔	-12.0984
澎	-12.099
儘	-12.1006
畸	-12.1028
槳	-12.1029
胰	-12.1038
壶	-12.1047
堇	-12.1047
卅	-12.1055
绅	-12.1056
ä	-12.1056
嘻	-12.1056
綸	-12.1057
幡	-12.1061
誣	-12.1065
サ	-12.1074
н	-12.1074
謨	-12.1083
浏	-12.1091
礙	-12.1092
巽	-12.11
倘	-12.1101
磺	-12.111
蘚	-12.111
矯	-12.1119
貂	-12.112
フ	-12.1146
晤	-12.1164
婁	-12.1164
嫔	-12.1183
颠	-12.1192
吼	-12.1192
紮	-12.1218
澀	-12.1236
絨	-12.1237
釜	-12.1245
闯	-12.1247
鄙	-12.1256
侏	-12.1265
楔	-12.1265
糸	-12.1283
釧	-12.1284
賠	-12.1293
蠍	-12.1302
濬	-12.1312
拂	-12.1312
賤	-12.133
れ	-12.133
е	-12.1348
逵	-12.1357
襟	-12.1366
テ	-12.1367
枋	-12.1376
裳	-12.1376
铀	-12.1384
挥	-12.1389
頤	-12.1395
鴿	-12.1396
怜	-12.1413
诈	-12.1441
±	-12.1441
浊	-12.145
砷	-12.1451
桅	-12.146
韌	-12.146
滤	-12.1464
鑿	-12.1469
呀	-12.1479
つ	-12.1479
禿	-12.1506
潞	-12.1507
毙	-12.1517
傍	-12.1524
陞	-12.1525
捏	-12.1525
齣	-12.1526
诵	-12.1526
贿	-12.1532
詭	-12.1535
勛	-12.1544
攔	-12.1553
趟	-12.1563
璉	-12.1563
栈	-12.1564
―	-12.1573
檻	-12.1573
鵑	-12.1592
π	-12.1601
洮	-12.1629
冢	-12.163
伺	-12.163
翎	-12.164
諷	-12.1648
琮	-12.1658
麼	-12.1659
缠	-12.1668
躺	-12.1677
鷗	-12.1687
煩	-12.1696
璇	-12.1697
拙	-12.1697
撐	-12.1714
餉	-12.1717
绎	-12.1735
晝	-12.1736
谊	-12.1752
岚	-12.1754
擂	-12.1755
粥	-12.1755
蛟	-12.1755
厉	-12.1763
す	-12.1764
喃	-12.1764
蠢	-12.1783
乖	-12.1783
﹐	-12.1793
咕	-12.1793
饿	-12.1803
夠	-12.181
叮	-12.1813
僻	-12.1832
弋	-12.1833
隧	-12.1841
赢	-12.1845
窯	-12.1851
薑	-12.1854
刁	-12.187
禱	-12.1871
ウ	-12.1881
錘	-12.189
愤	-12.19
赎	-12.19
瑕	-12.19
惱	-12.19
霆	-12.1917
駭	-12.192
稟	-12.192
槓	-12.192
巩	-12.1938
曳	-12.1939
劈	-12.194
帛	-12.194
祉	-12.1969
驶	-12.199
钊	-12.1995
晦	-12.1999
檜	-12.2008
岬	-12.2009
﹑	-12.2009
樁	-12.2018
逍	-12.2019
祜	-12.2019
Ⅱ	-12.2038
熾	-12.2059
捆	-12.2068
潟	-12.2083
儂	-12.2108
瑠	-12.2118
扈	-12.2118
钉	-12.2138
訣	-12.2148
亏	-12.2158
蟒	-12.2158
肿	-12.2168
虢	-12.2179
鈺	-12.219
涡	-12.2197
唤	-12.2197
徳	-12.2198
侣	-12.2208
栅	-12.2208
酥	-12.2208
玟	-12.2209
赔	-12.2218
洙	-12.2227
鉀	-12.2229
昼	-12.2229
锂	-12.2229
褶	-12.2249
諜	-12.2274
锤	-12.2279
沢	-12.2279
泣	-12.2289
翹	-12.23
猷	-12.2308
蚌	-12.2309
р	-12.231
昕	-12.231
訥	-12.2351
剔	-12.2351
豔	-12.2351
荐	-12.2361
妲	-12.2361
谟	-12.2361
鞠	-12.2361
靳	-12.2362
锯	-12.2371
啶	-12.2371
窪	-12.2371
黒	-12.2382
玖	-12.2382
谜	-12.2392
夔	-12.2402
轿	-12.2412
輾	-12.2422
饑	-12.2423
骂	-12.2433
隴	-12.2433
掙	-12.2443
邕	-12.2443
禎	-12.2453
闰	-12.2454
芜	-12.2459
鲤	-12.2474
宦	-12.2479
饥	-12.2484
咨	-12.2485
飘	-12.2505
緹	-12.2516
撿	-12.2537
菈	-12.2547
匆	-12.2557
熄	-12.2557
俭	-12.2558
ム	-12.2579
丐	-12.26
蜗	-12.26
肘	-12.2611
卞	-12.2611
脇	-12.2621
秤	-12.2631
凜	-12.2631
莘	-12.2632
絮	-12.2642
惰	-12.2652
偃	-12.2653
牒	-12.2654
吓	-12.2673
è	-12.2673
荻	-12.2695
皿	-12.2695
奄	-12.2705
贷	-12.2714
膺	-12.2715
諮	-12.2716
缉	-12.2716
蚕	-12.2726
攏	-12.2737
蟠	-12.2737
醣	-12.2747
僉	-12.2748
璜	-12.2748
糟	-12.2759
慨	-12.2769
も	-12.2769
螂	-12.278
阙	-12.278
迂	-12.278
煜	-12.278
撇	-12.279
宸	-12.2791
顽	-12.2791
倖	-12.2828
兮	-12.2833
茫	-12.2833
エ	-12.2833
尝	-12.2835
潢	-12.2844
惇	-12.2845
殲	-12.2853
恺	-12.2865
撮	-12.2865
脹	-12.2865
宕	-12.2865
瀝	-12.2866
掷	-12.2887
碉	-12.2898
蠅	-12.2898
馈	-12.2909
羨	-12.2909
薹	-12.292
呵	-12.2931
删	-12.2937
悚	-12.2941
暇	-12.2942
撓	-12.2952
窺	-12.2963
渴	-12.2973
糞	-12.2974
屁	-12.2974
峇	-12.2985
兗	-12.2986
憾	-12.2995
澱	-12.2995
糯	-12.3007
σ	-12.3018
鄺	-12.3018
匝	-12.3018
佟	-12.3028
馴	-12.3029
碁	-12.304
夭	-12.3061
忻	-12.3072
δ	-12.3073
岷	-12.3083
綬	-12.3094
轅	-12.3095
笈	-12.3105
癮	-12.3128
λ	-12.3128
咳	-12.3128
嗅	-12.3139
蚁	-12.3149
鎚	-12.315
閑	-12.3161
掖	-12.3162
巔	-12.3171
裤	-12.3172
曇	-12.3183
榔	-12.3194
捞	-12.3194
バ	-12.3195
谅	-12.3195
鈕	-12.3204
坞	-12.3206
ε	-12.3217
楨	-12.322
恢	-12.3226
沱	-12.3228
俏	-12.3239
羰	-12.3239
幂	-12.325
络	-12.3258
澡	-12.3261
癖	-12.3284
眺	-12.3295
脖	-12.3307
钮	-12.3318
絞	-12.3329
曬	-12.3351
絃	-12.3374
勐	-12.3385
槌	-12.3386
↔	-12.3397
婿	-12.3401
躬	-12.3408
哮	-12.3431
匈	-12.3442
杵	-12.3455
爸	-12.3477
麝	-12.3477
じ	-12.3523
斂	-12.3523
‰	-12.3534
镍	-12.3534
篩	-12.3534
ィ	-12.3534
堕	-12.3535
阀	-12.3539
烽	-12.3546
潑	-12.3556
釉	-12.3557
孀	-12.3557
宙	-12.3558
璞	-12.356
潍	-12.3569
飆	-12.3569
劭	-12.3582
銓	-12.3593
昶	-12.3604
饋	-12.3604
鎂	-12.3615
汛	-12.3615
迥	-12.3615
晒	-12.3627
グ	-12.365
熵	-12.365
巻	-12.3651
泌	-12.3657
恬	-12.3661
遴	-12.3662
厥	-12.3673
蠕	-12.3674
餵	-12.3685
姫	-12.3685
哇	-12.3697
臻	-12.3697
籬	-12.3697
陝	-12.3698
孽	-12.3709
デ	-12.3709
籽	-12.372
讳	-12.3721
择	-12.373
漩	-12.3732
骰	-12.3732
鑼	-12.3732
硒	-12.3744
耻	-12.3755
焊	-12.3776
狙	-12.3778
怠	-12.378
絆	-12.3791
乒	-12.3791
雏	-12.3791
プ	-12.3791
滲	-12.3803
诬	-12.3826
荧	-12.3838
鑾	-12.3838
荼	-12.3839
阐	-12.3849
紛	-12.385
で	-12.3851
冼	-12.3851
貳	-12.3851
煒	-12.3852
惕	-12.3863
瞧	-12.3863
燊	-12.3874
帘	-12.3874
酌	-12.3875
瞭	-12.3882
廁	-12.3891
歹	-12.3898
颐	-12.3899
礫	-12.391
ガ	-12.3922
佃	-12.3934
チ	-12.3946
圻	-12.3958
莺	-12.3958
筱	-12.3958
邯	-12.3959
聿	-12.3969
鑰	-12.397
抖	-12.397
埕	-12.397
辻	-12.3982
歎	-12.3983
眶	-12.4006
珮	-12.4018
榨	-12.4042
澈	-12.4043
や	-12.4043
剋	-12.4043
檯	-12.4043
醮	-12.4044
砾	-12.4055
亢	-12.4055
嘱	-12.408
鰕	-12.4091
﹔	-12.4092
冗	-12.4103
嬴	-12.4116
摯	-12.4128
け	-12.4128
坳	-12.4128
桦	-12.414
浒	-12.4141
愷	-12.4141
麴	-12.4152
佗	-12.4152
誡	-12.4153
娛	-12.4163
涪	-12.4177
棣	-12.4181
爹	-12.4189
堺	-12.4189
怯	-12.419
滔	-12.419
孛	-12.4201
颅	-12.4201
[...]
