<unk>	0
<s>	0
</s>	0
<pad>	0
，	-2.89764
。	-3.49339
的	-3.8969
▁	-3.92285
、	-4.25782
年	-4.49824
（	-4.85388
在	-5.01961
）	-5.10467
和	-5.19444
月	-5.25336
：	-5.53372
是	-5.57158
日	-5.63363
中	-5.83396
》	-5.8564
《	-5.87625
人	-5.87737
·	-5.8847
「	-5.89873
與	-6.00638
為	-6.04912
有	-6.12319
及	-6.13675
以	-6.1386
1	-6.20835
而	-6.23052
“	-6.24484
了	-6.3002
为	-6.30471
」	-6.34904
於	-6.36703
上	-6.38262
大	-6.39272
被	-6.40874
3	-6.45393
之	-6.46014
2	-6.46788
等	-6.47117
；	-6.49294
由	-6.51785
-	-6.55926
4	-6.59204
他	-6.64285
後	-6.64592
与	-6.6679
5	-6.67886
其	-6.70086
或	-6.76058
6	-6.76253
時	-6.76979
”	-6.78424
到	-6.82533
7	-6.82662
8	-6.83208
但	-6.83452
也	-6.83562
一	-6.84108
），	-6.85774
10	-6.89018
至	-6.89022
9	-6.91198
子	-6.91659
不	-6.98771
新	-6.98927
前	-7.00178
12	-7.0063
后	-7.04398
下	-7.04732
並	-7.07369
所	-7.09424
王	-7.09998
于	-7.10647
第	-7.12359
三	-7.1241
山	-7.13883
名	-7.13927
小	-7.14792
地	-7.17337
11	-7.17635
對	-7.17642
將	-7.18078
德	-7.18176
市	-7.20203
高	-7.21135
多	-7.21958
西	-7.22104
者	-7.22398
家	-7.22673
)	-7.24169
因	-7.26726
使用	-7.26986
會	-7.27654
道	-7.27974
站	-7.289
以及	-7.30652
文	-7.30972
都	-7.32087
）。	-7.32529
对	-7.37536
南	-7.37873
时	-7.39553
向	-7.40921
天	-7.40969
可	-7.41134
路	-7.41166
法	-7.43828
水	-7.43831
自	-7.4403
金	-7.44152
性	-7.44891
里	-7.45334
科	-7.45792
▁《	-7.45838
村	-7.46311
并	-7.46389
日本	-7.47143
如	-7.47914
▁-	-7.47936
(	-7.47991
包括	-7.48964
米	-7.4897
用	-7.49712
成	-7.49849
海	-7.49986
/	-7.5214
香港	-7.52372
（）	-7.52871
县	-7.53975
将	-7.54741
林	-7.54776
分	-7.55054
從	-7.55265
李	-7.55482
城	-7.55537
,	-7.55628
比	-7.55765
生	-7.5681
出	-7.56844
外	-7.5704
因此	-7.58305
中国	-7.59432
原	-7.59578
特	-7.59651
部	-7.61012
二	-7.62235
州	-7.62364
.	-7.62634
本	-7.63019
區	-7.6415
20	-7.64512
可以	-7.65622
她	-7.66359
明	-7.66454
安	-7.66782
公司	-7.66847
內	-7.67212
正	-7.67745
区	-7.67947
:	-7.68856
就	-7.69228
來	-7.69434
號	-7.70204
四	-7.70479
斯	-7.70501
从	-7.70942
線	-7.71691
國	-7.72593
長	-7.72982
美	-7.73537
任	-7.73733
15	-7.7451
又	-7.7459
成為	-7.7492
曾	-7.75565
光	-7.75739
16	-7.75762
五	-7.76543
則	-7.76821
已	-7.76833
平方公里	-7.77123
北	-7.77127
即	-7.77334
政府	-7.7743
▁在	-7.78093
卡	-7.78349
－	-7.78558
之一	-7.79011
要	-7.79158
其中	-7.795
平	-7.79891
拉	-7.80363
▁(	-7.80422
阿	-7.81508
河	-7.81758
更	-7.82831
」。	-7.82984
此	-7.83192
化	-7.83251
能	-7.83282
台灣	-7.83442
」，	-7.84016
台	-7.84208
利	-7.84544
式	-7.84666
克	-7.85636
作	-7.8622
30	-7.86296
元	-7.86904
加	-7.87158
亦	-7.8764
馬	-7.87701
）、	-7.87757
我	-7.88474
会	-7.88773
同	-7.88853
A	-7.89175
行	-7.89475
該	-7.8953
軍	-7.89705
石	-7.89737
型	-7.8985
内	-7.90394
”。	-7.90546
神	-7.907
使	-7.91218
全	-7.91326
17	-7.92939
工作	-7.93332
位	-7.9398
花	-7.94347
中國	-7.94972
美國	-7.95732
把	-7.95797
進行	-7.96873
無	-7.96926
14	-7.97372
心	-7.97725
東	-7.99288
一個	-7.99999
表示	-8.00336
各	-8.00422
一个	-8.00457
白	-8.00794
塔	-8.00807
13	-8.01417
长	-8.02128
田	-8.02255
个	-8.0257
集	-8.02903
龍	-8.03103
公	-8.03137
（），	-8.03241
重	-8.03626
力	-8.03965
字	-8.04831
個	-8.05083
18	-8.05376
号	-8.05411
研究	-8.05717
約	-8.05897
再	-8.06278
起	-8.06292
氏	-8.06433
次	-8.06552
国	-8.07229
去	-8.07483
部分	-8.07631
马	-8.07827
之後	-8.08254
军	-8.0837
尼	-8.08558
得	-8.08644
巴	-8.08803
主要	-8.09017
入	-8.09021
中心	-8.09068
清	-8.09106
古	-8.09609
著	-8.10192
女	-8.10205
省	-8.10237
位于	-8.10292
其他	-8.10345
派	-8.10445
中的	-8.10721
江	-8.1078
主	-8.10822
它	-8.1091
共	-8.10983
该	-8.11098
方	-8.113
代表	-8.1136
開始	-8.11571
達	-8.11819
位於	-8.11934
格	-8.12109
六	-8.12327
這	-8.12585
郡	-8.12938
回	-8.13171
19	-8.13366
25	-8.13776
B	-8.14546
公里	-8.14586
今	-8.14711
最	-8.14923
世界	-8.15479
文化	-8.15746
因為	-8.16068
自己	-8.16273
来	-8.16343
s	-8.16378
C	-8.16577
木	-8.17092
东	-8.17146
镇	-8.17285
受	-8.17425
頭	-8.17665
張	-8.17926
街	-8.17956
局	-8.1819
基	-8.18631
手	-8.19605
周	-8.19854
縣	-8.19933
由於	-8.20035
提供	-8.20233
但是	-8.20339
”，	-8.20505
——	-8.20626
》、《	-8.20754
陳	-8.2099
當	-8.2128
立	-8.21308
史	-8.2143
也是	-8.22167
伊	-8.22391
美国	-8.22465
武	-8.22616
21	-8.22712
說	-8.22951
波	-8.23288
所有	-8.24007
沒有	-8.24373
他們	-8.24496
非	-8.24829
令	-8.24994
第一	-8.25104
官	-8.25445
信	-8.25508
进行	-8.25775
大学	-8.26041
星	-8.26114
吉	-8.26244
：「	-8.26546
例如	-8.26899
華	-8.27226
成立	-8.27271
且	-8.27628
管理	-8.27699
24	-8.28351
八	-8.28499
島	-8.28544
羅	-8.28931
當時	-8.28989
地區	-8.29245
作為	-8.29636
只	-8.2978
正式	-8.30322
隊	-8.30496
面	-8.30521
地区	-8.30714
版	-8.30721
：）	-8.30724
真	-8.3075
学名	-8.30847
兩	-8.30848
大學	-8.31318
制	-8.31326
事	-8.31365
相	-8.31424
沙	-8.31607
便	-8.317
口	-8.3203
》，	-8.32063
通	-8.32129
线	-8.32176
不同	-8.32324
七	-8.32627
班	-8.32775
點	-8.33096
系	-8.33161
成为	-8.33202
张	-8.33401
国家	-8.33431
度	-8.33458
經	-8.33595
門	-8.33676
布	-8.33711
教育	-8.3386
一些	-8.33964
夫	-8.34112
萬	-8.34126
士	-8.34257
才	-8.34352
年代	-8.34513
所以	-8.34514
民	-8.35062
川	-8.35413
28	-8.35553
恩	-8.35815
指	-8.35952
宗	-8.36495
城市	-8.36831
過	-8.36916
志	-8.36967
中央	-8.37218
電影	-8.37531
D	-8.37796
23	-8.37848
那	-8.38021
兵	-8.38137
擔任	-8.38143
建	-8.38224
代	-8.38657
九	-8.38709
車	-8.38721
港	-8.38911
打	-8.39006
达	-8.39057
定	-8.39257
门	-8.39348
工程	-8.3935
學	-8.3994
黑	-8.40311
：“	-8.40556
　	-8.40611
黃	-8.40723
第二	-8.40756
讓	-8.41101
系統	-8.41275
英	-8.41291
通过	-8.4137
需要	-8.41421
老	-8.41717
他的	-8.41876
》（	-8.41917
22	-8.42017
M	-8.42415
未	-8.42424
堂	-8.42601
歲	-8.42729
數	-8.42821
好	-8.42866
事件	-8.42915
府	-8.42967
上海	-8.43405
作为	-8.43489
-{	-8.43573
受到	-8.4361
球	-8.4362
認為	-8.43719
则	-8.43841
世	-8.44014
可能	-8.4408
亞	-8.44114
26	-8.4419
要求	-8.44417
S	-8.44481
无	-8.44605
27	-8.44658
座	-8.45109
开始	-8.45424
獲得	-8.45494
期	-8.45685
具有	-8.45724
同時	-8.45902
作品	-8.4614
國家	-8.46417
政治	-8.46757
北京	-8.46864
音	-8.46866
万	-8.48012
一般	-8.481
反	-8.48248
發展	-8.48264
先	-8.48309
首	-8.48744
只有	-8.48744
奇	-8.49303
罗	-8.49309
龙	-8.49379
町	-8.4955
愛	-8.4963
31	-8.49892
森	-8.50092
湖	-8.50145
書	-8.50162
開	-8.5049
雷	-8.50718
機	-8.50975
還	-8.51146
段	-8.51665
器	-8.51819
成功	-8.51928
國際	-8.52055
流	-8.52512
臺灣	-8.52581
福	-8.52599
完成	-8.5265
建立	-8.52758
車站	-8.52858
支持	-8.52921
玉	-8.53164
間	-8.5324
社	-8.53375
你	-8.53647
最後	-8.53774
乡	-8.54002
同年	-8.54124
均	-8.54331
常	-8.54565
两	-8.54848
這些	-8.54875
加入	-8.54912
青	-8.55029
29	-8.55357
说	-8.55688
学	-8.5569
合	-8.55855
人口	-8.55867
近	-8.55932
他们	-8.56026
前往	-8.56061
太	-8.56421
寺	-8.56458
院	-8.56852
得到	-8.56902
目前	-8.57142
場	-8.57266
風	-8.57444
就是	-8.57627
这	-8.57636
語	-8.57692
没有	-8.57913
政	-8.57939
若	-8.57988
迪	-8.58173
野	-8.58249
曲	-8.58463
每	-8.58604
还	-8.58743
然而	-8.58851
F	-8.58902
洛	-8.58913
兼	-8.58985
率	-8.59016
普	-8.59051
設計	-8.5922
英國	-8.59697
约	-8.60007
這個	-8.60121
泰	-8.60126
卻	-8.60499
T	-8.60601
由于	-8.60667
松	-8.60689
改	-8.60707
华	-8.60733
故	-8.60749
屬	-8.60791
活動	-8.60814
服務	-8.61054
群	-8.61158
教	-8.61422
处	-8.61468
勒	-8.61477
50	-8.616
雅	-8.61697
處	-8.61737
角	-8.61762
。”	-8.6188
做	-8.62134
"	-8.62145
卷	-8.62282
zh	-8.62352
G	-8.62698
仁	-8.62709
合作	-8.62717
聖	-8.62747
过	-8.62807
瓦	-8.62861
康	-8.62871
體	-8.62937
另外	-8.62965
室	-8.6298
之后	-8.63269
擁有	-8.63352
点	-8.63373
梅	-8.63432
永	-8.63496
・	-8.63687
後來	-8.63751
納	-8.63863
發現	-8.63943
上的	-8.63966
十	-8.64158
P	-8.64353
商	-8.64519
香	-8.64561
管	-8.64668
劉	-8.6489
片	-8.64918
属	-8.64929
希	-8.65177
半	-8.65413
火	-8.65542
色	-8.65919
都是	-8.65958
往	-8.65976
)，	-8.66044
身	-8.6641
40	-8.66544
伯	-8.66556
提出	-8.66557
唐	-8.67214
學校	-8.67279
裡	-8.67341
獎	-8.67403
方面	-8.6757
根	-8.67587
死	-8.67596
副	-8.67606
超	-8.67925
博	-8.68028
K	-8.681
体	-8.68287
期間	-8.6841
—	-8.68448
经	-8.686
時間	-8.68674
}-	-8.68795
物	-8.68815
皮	-8.68888
義	-8.69346
2010	-8.69386
景	-8.69557
直接	-8.69758
遊戲	-8.70047
非常	-8.70065
系列	-8.70237
給	-8.70249
接受	-8.70389
系统	-8.70454
铁路	-8.70694
当	-8.70758
;	-8.70884
纳	-8.70907
進	-8.70998
这些	-8.71118
列	-8.71142
师	-8.71203
空	-8.71315
師	-8.71407
哈	-8.71461
地方	-8.71543
刘	-8.71782
属于	-8.71821
保	-8.71861
族	-8.71929
像	-8.72103
連	-8.72104
除了	-8.72216
總	-8.72364
头	-8.72401
章	-8.72405
称	-8.72517
草	-8.72522
量	-8.72547
取得	-8.72549
控制	-8.72572
修	-8.72805
朱	-8.72891
組	-8.72893
陈	-8.72935
進入	-8.7305
方式	-8.73206
学校	-8.73234
發	-8.73248
春	-8.7331
紅	-8.73541
获得	-8.7359
这个	-8.73627
工	-8.73839
国际	-8.74249
托	-8.74293
雖然	-8.74318
尾	-8.74491
表	-8.74598
宮	-8.74734
胡	-8.74785
尔	-8.74905
着	-8.74953
鄉	-8.74968
界	-8.75049
队	-8.75104
生活	-8.7516
蘭	-8.75202
稱	-8.75226
歌	-8.75283
船	-8.75515
造成	-8.75751
利用	-8.75887
首次	-8.75893
直	-8.76169
見	-8.76233
重新	-8.76268
爾	-8.76373
黄	-8.76416
机	-8.76621
自由	-8.76722
语	-8.76999
100	-8.77041
他在	-8.77048
通常	-8.77053
鎮	-8.77162
並且	-8.77184
E	-8.77224
傳	-8.77377
夏	-8.77575
跟	-8.77585
同时	-8.77611
何	-8.7763
谷	-8.77861
如果	-8.77913
治	-8.78258
仍	-8.78267
案	-8.78483
富	-8.78507
完全	-8.78563
。」	-8.78572
理	-8.78686
土	-8.78781
航空	-8.78846
漢	-8.78853
曼	-8.78861
男	-8.79006
決定	-8.79061
车	-8.79067
图	-8.79117
權	-8.7914
2000	-8.79181
朝	-8.79317
圖	-8.79405
而且	-8.79552
亚	-8.79588
戰	-8.79758
形成	-8.79963
音樂	-8.8004
組織	-8.8004
不過	-8.8008
第三	-8.80124
自己的	-8.80193
源	-8.80219
此外	-8.8049
已經	-8.80524
女性	-8.80572
塞	-8.80647
莫	-8.80696
认为	-8.81
想	-8.81026
樓	-8.81114
為了	-8.81205
封	-8.81248
任何	-8.81288
社會	-8.81542
帝	-8.81558
初	-8.81868
总面积	-8.81892
组织	-8.82284
甚至	-8.82303
出現	-8.82515
成員	-8.82519
直到	-8.82602
丁	-8.82722
司	-8.82763
数	-8.82907
岛	-8.8305
通過	-8.83073
不能	-8.83201
梁	-8.83205
低	-8.83387
嘉	-8.83799
樂	-8.83843
因为	-8.84153
书	-8.84265
再次	-8.84266
瑞	-8.84304
／	-8.84352
許多	-8.84385
情	-8.84416
除	-8.84419
形	-8.84441
2008	-8.84644
問題	-8.84695
良	-8.8477
雄	-8.84892
應	-8.85083
獲	-8.85088
種	-8.85321
登	-8.85355
房	-8.85362
知	-8.85466
很	-8.8587
增加	-8.86071
話	-8.86312
姆	-8.86392
提	-8.86411
葉	-8.86542
校	-8.86747
学院	-8.86813
英国	-8.86869
運動	-8.86915
▁飾	-8.86923
等人	-8.87036
宣布	-8.87065
N	-8.87102
X	-8.87113
甲	-8.87151
场	-8.8719
威	-8.87226
寶	-8.87237
參與	-8.87242
R	-8.87272
）：	-8.87315
维	-8.87587
圣	-8.87596
经济	-8.87637
較	-8.87639
共同	-8.87644
隆	-8.87989
开	-8.88071
一起	-8.88241
無法	-8.88328
印度	-8.88365
佛	-8.88427
賽	-8.88471
之前	-8.88528
雙	-8.88571
0	-8.886
H	-8.88634
皆	-8.88727
稱為	-8.88748
走	-8.89153
」（	-8.89209
根据	-8.89288
發生	-8.89352
秀	-8.89484
雲	-8.89492
索	-8.89538
60	-8.89633
雪	-8.89886
2009	-8.90089
级	-8.90126
2012	-8.90162
取	-8.90239
學生	-8.90325
昌	-8.90419
年至	-8.90454
毛	-8.90551
時期	-8.90809
參加	-8.90917
少	-8.90938
兰	-8.90952
深	-8.91017
井	-8.91062
命	-8.91197
君	-8.91284
法国	-8.91295
红	-8.91323
杜	-8.91633
存在	-8.91659
人口密度	-8.91667
溪	-8.91833
左	-8.91978
法國	-8.91983
团	-8.91984
百	-8.9202
能力	-8.92065
帶	-8.92294
的人	-8.9253
值	-8.92689
种	-8.92691
製作	-8.93196
2007	-8.9338
母	-8.93385
言	-8.93404
鐵	-8.93621
演出	-8.93623
吳	-8.93678
勝	-8.93771
藏	-8.93919
祖	-8.94272
居	-8.94459
一直	-8.94653
店	-8.94818
技术	-8.94821
出版	-8.94824
維	-8.95165
2006	-8.95206
▁第	-8.95247
人民	-8.95262
2011	-8.95701
解	-8.95726
丹	-8.95802
強	-8.95823
忠	-8.95834
類	-8.95944
全部	-8.95971
当时	-8.96078
越	-8.96377
世纪	-8.96383
智	-8.96554
計劃	-8.96636
主席	-8.96693
」、「	-8.9677
聲	-8.96783
奧	-8.96835
千	-8.97126
團	-8.97383
思	-8.97399
庄	-8.97414
是由	-8.97445
最終	-8.97566
发展	-8.97598
』	-8.97767
魚	-8.97903
食	-8.97914
對於	-8.97968
楊	-8.98002
总	-8.98175
角色	-8.98203
参加	-8.98273
影響	-8.98509
也有	-8.98525
艾	-8.98531
附近	-8.98531
云	-8.98533
发	-8.98684
屬於	-8.98807
希望	-8.98866
桥	-8.98895
品	-8.9898
德国	-8.99018
守	-8.99181
樹	-8.99189
惠	-8.99281
看	-8.99423
进入	-8.99633
电影	-8.9971
包含	-8.9983
油	-8.9995
經濟	-9.00025
教授	-9.00085
舊	-9.00132
季	-9.00198
諾	-9.00266
德國	-9.00371
大量	-9.00581
意	-9.00604
報	-9.00641
最高	-9.01045
京	-9.01053
負責	-9.01094
担任	-9.0111
总人口	-9.01217
L	-9.01242
交	-9.01292
級	-9.01497
牌	-9.01579
架	-9.01602
蒂	-9.01612
V	-9.01653
风	-9.01658
给	-9.0185
節	-9.01905
已经	-9.01915
關係	-9.02133
法律	-9.02182
依	-9.02289
具	-9.02296
徐	-9.0242
蒙	-9.02484
病	-9.02545
双	-9.02645
故事	-9.02715
陽	-9.02737
．	-9.03
節目	-9.03034
使得	-9.03065
安全	-9.03073
叶	-9.03262
票	-9.03346
杨	-9.03419
设计	-9.03588
类	-9.0362
萨	-9.03635
條	-9.03689
汉	-9.03811
善	-9.03813
政策	-9.03853
之間	-9.03946
夜	-9.04018
进	-9.04101
館	-9.04237
街道	-9.04281
舉行	-9.0472
宋	-9.04854
根據	-9.05052
眼	-9.05265
橋	-9.05313
獨立	-9.05325
果	-9.05329
或者	-9.05332
牛	-9.05352
堡	-9.05741
宁	-9.059
时期	-9.06176
W	-9.06334
方法	-9.06441
攻擊	-9.06453
方向	-9.0655
奥	-9.06698
血	-9.06821
尚	-9.06907
單	-9.07027
右	-9.07269
版本	-9.07366
人物	-9.07512
阳	-9.07744
岩	-9.07932
包	-9.08208
兩個	-9.08208
活动	-9.08296
篇	-9.08505
目	-9.08768
〈	-9.08938
廣	-9.09028
興	-9.09072
峰	-9.09073
孔	-9.09111
J	-9.09162
n	-9.09289
『	-9.09348
制度	-9.09361
虎	-9.09371
社会	-9.09447
比賽	-9.09526
板	-9.09536
屋	-9.0956
一次	-9.097
放	-9.0973
主持	-9.09774
y	-9.09806
蘇	-9.09817
建筑	-9.09909
核	-9.09935
素	-9.09988
权	-9.09996
自然	-9.10155
飛	-9.10381
關	-9.10427
2005	-9.10435
發行	-9.10649
遠	-9.1085
繼續	-9.10866
乃	-9.10989
全国	-9.11072
遭	-9.11527
女子	-9.1153
诺	-9.11578
委員會	-9.11655
计划	-9.11686
酒	-9.1169
70	-9.11746
一名	-9.11799
調	-9.11856
市镇	-9.1187
置	-9.11927
80	-9.11962
～	-9.11963
竹	-9.11968
密	-9.12016
薩	-9.12046
U	-9.12212
有限公司	-9.1225
技術	-9.12303
民族	-9.12414
赫	-9.12552
皇帝	-9.12619
让	-9.12631
面積	-9.12649
洪	-9.12659
居民	-9.12808
南部	-9.12887
骨	-9.12893
期间	-9.12916
歌曲	-9.13051
建设	-9.13136
奖	-9.13158
单	-9.13403
業	-9.13744
黨	-9.13841
集團	-9.13866
年度	-9.13906
收	-9.13932
特別	-9.14014
最佳	-9.14147
邦	-9.14334
t	-9.14438
党	-9.14489
这一	-9.14565
冠軍	-9.14771
郭	-9.14825
问题	-9.14856
西班牙	-9.14915
留	-9.14926
歷史	-9.15072
飾演	-9.15119
靈	-9.15158
按	-9.1519
两个	-9.15222
条	-9.15256
余	-9.15356
施	-9.1536
導致	-9.15393
连	-9.15426
第一次	-9.15533
形式	-9.15597
帕	-9.15682
革命	-9.15765
短	-9.15829
刀	-9.15915
位置	-9.15927
超過	-9.16067
澤	-9.16116
菜	-9.16135
轉	-9.16183
歐洲	-9.1619
接	-9.16193
发现	-9.16344
氣	-9.1642
（，）	-9.16522
O	-9.1653
宝	-9.16544
岁	-9.16629
有關	-9.16671
論	-9.16703
90	-9.16933
列車	-9.16951
客	-9.17081
苏	-9.17298
盛	-9.17554
禮	-9.17906
莱	-9.17934
朗	-9.18104
2013	-9.18117
個人	-9.1812
全球	-9.18255
親	-9.18319
屆	-9.1834
地球	-9.18355
指出	-9.1836
楼	-9.18453
死亡	-9.18556
旗	-9.18703
層	-9.18796
功能	-9.18897
兒	-9.18952
戰爭	-9.19043
改為	-9.19173
拥有	-9.19244
員	-9.19366
住	-9.19519
交通	-9.1952
但在	-9.19582
作家	-9.19631
许多	-9.19894
越南	-9.20187
人士	-9.20213
热	-9.20221
僅	-9.20234
▁2012	-9.20287
切	-9.20302
埃	-9.20312
鲁	-9.20345
來自	-9.20489
带	-9.20556
這種	-9.20669
機場	-9.20683
运动	-9.20777
魯	-9.20791
澳門	-9.20928
茶	-9.20982
占	-9.20997
生物	-9.21
電	-9.21034
35	-9.21058
2004	-9.21059
世紀	-9.21104
路線	-9.21151
共有	-9.21155
很多	-9.21156
每年	-9.21189
學院	-9.21249
家庭	-9.21288
奈	-9.21417
程	-9.21425
不是	-9.21531
能夠	-9.21537
麗	-9.21559
时间	-9.21724
結果	-9.21736
十分	-9.21737
排	-9.21759
採用	-9.21781
决定	-9.21807
透過	-9.21826
底	-9.21858
只是	-9.21999
模式	-9.22226
武器	-9.22594
南京	-9.22638
铁	-9.22693
洞	-9.22834
考	-9.23149
强	-9.233
宗教	-9.2331
破	-9.23332
記	-9.23332
48	-9.234
这种	-9.23486
加拿大	-9.23534
是下辖的一个乡镇级行政单位	-9.23604
间	-9.23604
中共	-9.23692
支	-9.23693
传	-9.23895
组	-9.23985
久	-9.23992
大型	-9.24025
印	-9.24125
意大利	-9.24194
是在	-9.2428
等地	-9.24327
播出	-9.2462
單位	-9.24621
計畫	-9.24647
委员会	-9.24731
姓	-9.24732
年起	-9.24738
延	-9.24741
劍	-9.24868
吴	-9.2493
罪	-9.24934
增	-9.25013
第四	-9.25018
差	-9.25241
經過	-9.25298
青年	-9.253
侯	-9.25397
娜	-9.2541
人類	-9.25426
寧	-9.25469
易	-9.25481
冰	-9.2551
感	-9.25581
发生	-9.25601
游戏	-9.25638
公主	-9.2569
臣	-9.25741
建築	-9.2581
落	-9.25887
北部	-9.25896
遭到	-9.25928
▁2010	-9.25957
广	-9.25958
植物	-9.25966
行動	-9.26047
公尺	-9.26143
新聞	-9.26154
以上	-9.26324
以下	-9.26341
e	-9.26361
报	-9.26364
库	-9.26365
呈	-9.26461
榮	-9.26741
的一个	-9.26743
欧洲	-9.2676
？	-9.2677
分析	-9.26896
菲	-9.26944
后来	-9.26972
加上	-9.27065
父	-9.27182
魔	-9.27201
服务	-9.27272
泉	-9.27284
宫	-9.27348
時代	-9.27508
於是	-9.27546
衣	-9.27572
桑	-9.2759
m	-9.27602
孝	-9.27638
失	-9.27715
專輯	-9.27717
飾	-9.27771
最终	-9.27796
三年	-9.27825
倫	-9.27897
土地	-9.28013
面积	-9.28022
熱	-9.28203
選	-9.28226
友	-9.2826
到了	-9.28299
退	-9.28319
升	-9.28451
魏	-9.28549
相關	-9.28596
仙	-9.28641
並在	-9.28641
战	-9.28717
之间	-9.28851
組成	-9.28959
基本	-9.2898
电	-9.29023
仍然	-9.29075
曰	-9.29304
200	-9.29312
端	-9.29348
中華民國	-9.29352
費	-9.29391
演員	-9.29465
殿	-9.29493
詞	-9.29701
并且	-9.29719
历史	-9.29806
巴士	-9.29829
遂	-9.2983
聯盟	-9.29877
！	-9.29965
树	-9.30017
們	-9.30023
部隊	-9.30028
變	-9.30067
設	-9.30071
声	-9.30224
查	-9.30267
不同的	-9.30275
的主要	-9.30328
公路	-9.30357
▁2013	-9.3045
著名	-9.30455
設有	-9.30524
秋	-9.30629
實	-9.30739
庫	-9.30877
現在	-9.31016
藍	-9.31135
早	-9.31293
▁2011	-9.31357
兩人	-9.31616
齊	-9.31681
陵	-9.31835
滿	-9.31998
回到	-9.32101
义	-9.32117
電視	-9.32157
展	-9.32172
最大的	-9.32181
快	-9.32198
调	-9.32267
必須	-9.32332
玩家	-9.32446
苏联	-9.32457
赛	-9.32461
结构	-9.32742
歐	-9.32819
足	-9.32838
官方	-9.32851
什	-9.32945
喜	-9.32986
拜	-9.33008
吃	-9.33038
独立	-9.33325
推出	-9.33342
球隊	-9.33393
▁2008	-9.33412
行政	-9.33458
I	-9.33527
一樣	-9.33549
其後	-9.33624
相當	-9.33694
节	-9.33735
影响	-9.33736
望	-9.33737
津	-9.33774
鐵路	-9.33775
營	-9.33819
頓	-9.3389
佩	-9.33907
佐	-9.33981
和平	-9.34035
多次	-9.3404
孫	-9.3406
貝	-9.34089
秦	-9.34248
歌手	-9.34258
微	-9.34347
称为	-9.34474
采用	-9.34514
气	-9.34646
雨	-9.3469
45	-9.34698
新的	-9.34761
爱	-9.34802
32	-9.34851
科技	-9.3486
2003	-9.34913
鬼	-9.3496
应	-9.3498
男子	-9.35004
关于	-9.35016
k	-9.35047
号线	-9.35159
家族	-9.35299
韓國	-9.35408
联	-9.35416
柏	-9.35451
关	-9.35454
'	-9.35507
大部分	-9.35522
出任	-9.35558
邊	-9.35572
▁李	-9.35588
耶	-9.35634
早期	-9.35673
乐	-9.35812
處理	-9.35941
動	-9.35942
灣	-9.36013
左右	-9.36257
相同	-9.36351
現	-9.36361
編	-9.3641
分別	-9.36455
離開	-9.36503
公園	-9.36534
產生	-9.36548
銀行	-9.36567
远	-9.3661
需	-9.36663
人員	-9.36665
赵	-9.36672
基地	-9.36697
生產	-9.36808
层	-9.36916
兴	-9.3694
▁2009	-9.36949
佳	-9.36952
然	-9.37127
战争	-9.37139
曹	-9.37181
蔡	-9.37216
设	-9.37221
詩	-9.37415
保護	-9.37514
擊敗	-9.37527
冠	-9.37588
民主	-9.37594
机场	-9.37764
生产	-9.37836
转	-9.37882
最初	-9.37978
英文	-9.38086
圈	-9.3813
原本	-9.38147
曾經	-9.38218
地下	-9.38287
資料	-9.38332
舞	-9.38429
動畫	-9.3847
健	-9.38667
許	-9.38683
拿	-9.38832
速度	-9.39061
学生	-9.39093
別	-9.39094
〉	-9.3913
內容	-9.39134
我們	-9.39165
略	-9.39246
俊	-9.39264
2020	-9.39343
席	-9.39368
信息	-9.39385
警察	-9.39443
重要	-9.39471
電子	-9.39495
影	-9.3952
一位	-9.39656
服	-9.39758
供	-9.39784
最大	-9.39829
先生	-9.39881
孙	-9.40051
1990	-9.40065
杰	-9.40149
干	-9.40192
洋	-9.40368
豐	-9.4037
厂	-9.40399
分子	-9.40425
調查	-9.40466
去世	-9.4047
市場	-9.40497
極	-9.40557
倍	-9.40694
命名	-9.40797
集团	-9.4086
部队	-9.40862
一種	-9.40952
團體	-9.40961
返回	-9.41004
傑	-9.41067
皇	-9.41084
曾任	-9.41099
降	-9.41114
沃	-9.41142
表演	-9.41276
芳	-9.41309
叫	-9.41387
工業	-9.41392
柱	-9.41402
工业	-9.41587
及其	-9.4159
辛	-9.41648
園	-9.41683
有些	-9.41699
（，），	-9.41703
楚	-9.41735
敏	-9.41821
網	-9.41868
作用	-9.41987
项目	-9.41993
協助	-9.42024
日起	-9.42056
亞洲	-9.42059
鄭	-9.4207
慶	-9.42126
音乐	-9.42151
環	-9.42174
琴	-9.42217
描述	-9.42299
開發	-9.42307
現代	-9.42359
或是	-9.42371
結束	-9.42371
是一个	-9.42549
列车	-9.42561
醫院	-9.4278
36	-9.4281
关系	-9.42817
興建	-9.42825
穆	-9.42878
夢	-9.42912
兄弟	-9.4295
博士	-9.42954
當中	-9.43023
Z	-9.43057
一世	-9.43068
送	-9.4322
论	-9.43291
總統	-9.43332
發表	-9.43406
取代	-9.43476
新加坡	-9.43551
旅	-9.43594
配	-9.43826
毫米	-9.43859
一种	-9.4388
齐	-9.43927
d	-9.44018
i	-9.44039
因而	-9.4406
造	-9.44068
耳	-9.44182
：《	-9.44391
业	-9.44395
動物	-9.44436
則是	-9.44439
中文	-9.44452
求	-9.44459
a	-9.44463
紀	-9.44493
藝術	-9.44618
執行	-9.44718
车站	-9.44749
昭	-9.44782
將軍	-9.44833
選擇	-9.44852
部份	-9.44921
经过	-9.44926
茲	-9.44987
翼	-9.45017
錢	-9.45032
▁2007	-9.45098
職	-9.45133
署	-9.45162
对于	-9.45192
天津	-9.4523
麻	-9.453
會議	-9.45347
元年	-9.45359
敬	-9.45479
2015	-9.45508
高中	-9.4555
2014	-9.45567
西部	-9.45569
還有	-9.45601
地位	-9.45627
公共	-9.45632
請	-9.45671
經營	-9.45673
Y	-9.45695
网	-9.45817
輪	-9.45846
研究所	-9.4596
皇后	-9.4597
戴	-9.46031
2002	-9.46067
中华人民共和国	-9.46111
▁2014	-9.46184
出现	-9.46203
中學	-9.46233
都有	-9.46253
引起	-9.46421
賢	-9.4645
词	-9.46616
投	-9.46717
溫	-9.4675
限制	-9.46807
摩	-9.46818
2016	-9.46828
復	-9.46888
陶	-9.46911
拍攝	-9.46974
四川	-9.47007
2019	-9.47044
含	-9.47285
國王	-9.47288
赴	-9.47304
功	-9.47326
台北	-9.47441
區域	-9.47445
鳥	-9.47491
在此	-9.47503
支援	-9.47512
領	-9.4762
狀	-9.47703
奉	-9.47726
负责	-9.47853
继续	-9.47991
散	-9.48052
烏	-9.48085
授	-9.48114
射	-9.4827
变	-9.48302
照	-9.48429
用于	-9.48464
道路	-9.48473
重建	-9.48485
假	-9.48541
語言	-9.48573
军队	-9.48578
首都	-9.48596
彈	-9.48685
順	-9.48709
贝	-9.48722
浦	-9.48791
员	-9.48797
边	-9.48908
保持	-9.48928
艺术	-9.48934
反對	-9.49025
斯特	-9.49062
聯	-9.49135
銀	-9.49203
殺	-9.49205
俄罗斯	-9.49218
步	-9.49283
祥	-9.49334
清朝	-9.49363
舉辦	-9.49374
精	-9.49392
机构	-9.49437
圓	-9.49454
離	-9.49496
改革	-9.4952
直至	-9.49537
異	-9.49569
”（	-9.49669
她的	-9.497
訓練	-9.49816
全國	-9.49817
是否	-9.49902
导致	-9.49975
寫	-9.4998
池	-9.49986
获	-9.50004
浙江	-9.50072
营	-9.50113
再度	-9.5012
十二	-9.50192
籍	-9.50272
驻	-9.50277
哥	-9.50294
唱	-9.50307
2001	-9.50355
反应	-9.50454
趙	-9.50468
戈	-9.50499
伦	-9.50565
公分	-9.50616
柳	-9.50626
零	-9.50637
建造	-9.5069
”、“	-9.50723
33	-9.50922
500	-9.50949
鱼	-9.50983
當地	-9.51031
聯合	-9.51059
導演	-9.51134
至今	-9.51218
力量	-9.51302
▁2006	-9.51527
却	-9.51545
亮	-9.51558
而在	-9.51582
性的	-9.51605
並於	-9.51614
學習	-9.51641
34	-9.51658
乘	-9.51723
潘	-9.51789
只能	-9.51821
届	-9.51825
標準	-9.51876
燕	-9.51879
会议	-9.5191
科学	-9.52043
中学	-9.52135
来自	-9.52197
我们	-9.52278
为了	-9.52358
快速	-9.5236
虽然	-9.52361
国王	-9.52369
項目	-9.52369
觀	-9.52387
珠	-9.52403
是指	-9.52407
航	-9.52445
接近	-9.52525
飞	-9.5257
是一個	-9.52573
御	-9.52685
大臣	-9.52824
儿	-9.52842
甘	-9.52849
西北	-9.5288
+	-9.52891
科學	-9.52894
酸	-9.52921
复	-9.52965
戰鬥	-9.53045
教堂	-9.53298
同意	-9.53305
亭	-9.53325
范	-9.5338
絲	-9.53453
傳統	-9.53705
協會	-9.53723
组成	-9.53755
1980	-9.53761
初期	-9.53773
畫	-9.53801
防	-9.53805
致	-9.53821
設立	-9.53833
随后	-9.53943
機構	-9.53965
→	-9.53974
西南	-9.53987
宏	-9.54084
承	-9.54158
不可	-9.54182
巴黎	-9.54349
弘	-9.54414
媒體	-9.54463
麥	-9.54465
300	-9.54495
的一個	-9.54515
一同	-9.54538
整	-9.54614
公開	-9.5466
不少	-9.54791
莉	-9.54817
電視劇	-9.54869
宇宙	-9.54878
蒙古	-9.5488
第五	-9.54897
豪	-9.54899
环	-9.54954
网络	-9.55015
難	-9.55031
b	-9.55064
選舉	-9.55123
速	-9.55241
37	-9.55257
陸	-9.55302
联合	-9.5543
军事	-9.55453
最早	-9.55461
霍	-9.55516
停止	-9.55523
企业	-9.55546
電腦	-9.55582
尊	-9.5559
倒	-9.55637
警	-9.55671
末	-9.55711
推	-9.55713
謝	-9.55769
環境	-9.55844
基督教	-9.55936
无法	-9.55945
▁|	-9.56028
最后	-9.56052
運	-9.56071
域	-9.56073
韩国	-9.56103
总统	-9.56115
須	-9.5613
平均	-9.56186
实	-9.56199
隨後	-9.56251
见	-9.56326
仲	-9.56369
它的	-9.56377
电子	-9.56387
仅	-9.56499
年間	-9.56507
成员	-9.56577
日至	-9.56586
空間	-9.5666
父親	-9.56677
普通	-9.56704
非洲	-9.56805
紫	-9.56944
的地方	-9.57007
厚	-9.57031
各種	-9.57043
二年	-9.57105
–	-9.57123
38	-9.57155
材料	-9.5719
不再	-9.57214
]	-9.57221
茨	-9.57248
▁2015	-9.57361
还有	-9.57377
园	-9.57378
視	-9.57455
軍隊	-9.57462
小說	-9.57472
记	-9.5751
二世	-9.57527
注	-9.57539
創作	-9.57565
元素	-9.57597
精神	-9.57607
改为	-9.57751
隨	-9.57819
夫人	-9.57832
羽	-9.57832
沈	-9.57925
禁	-9.57955
佛教	-9.58041
枚	-9.58056
温	-9.58214
東京	-9.58374
之子	-9.58385
存	-9.58403
結構	-9.58553
标准	-9.58557
顯示	-9.58594
露	-9.58708
廷	-9.58712
游	-9.58715
持	-9.58788
模型	-9.58839
赤	-9.58872
福建	-9.58874
乌	-9.58904
炮	-9.58933
扎	-9.59039
昭和	-9.59065
现代	-9.59083
台湾	-9.59123
随	-9.59127
姬	-9.59141
39	-9.59339
廳	-9.59352
巨	-9.59408
引	-9.59494
救	-9.59507
必	-9.59508
保护	-9.59513
足球	-9.59603
之外	-9.59606
另一	-9.59646
海軍	-9.59716
盤	-9.59728
逐漸	-9.59755
過去	-9.59799
现	-9.59866
思想	-9.59887
h	-9.59927
学习	-9.59989
另	-9.60042
的方式	-9.60086
默	-9.60105
桂	-9.60108
2018	-9.6011
身份	-9.60183
戶	-9.60194
东北	-9.60208
孟	-9.60285
儀	-9.60395
郎	-9.60398
▁2019	-9.60408
卢	-9.60443
球員	-9.60491
苦	-9.60548
仔	-9.60564
彩	-9.60578
的一部分	-9.60596
洲	-9.60649
▁2017	-9.60653
语言	-9.60737
企業	-9.60903
裝	-9.60943
少年	-9.61011
极	-9.61011
臺	-9.61042
四年	-9.6105
這是	-9.61065
列表	-9.61114
：），	-9.61127
之中	-9.61158
蛇	-9.61173
▁大	-9.61199
肉	-9.61229
才能	-9.61236
彭	-9.61489
它们	-9.61554
宣	-9.6157
漫畫	-9.61579
）；	-9.61595
▁2016	-9.61607
持續	-9.61631
文字	-9.6177
er	-9.61817
活	-9.61842
背	-9.61875
款	-9.62014
比較	-9.62021
理论	-9.62112
盧	-9.62127
毒	-9.62196
連接	-9.6225
凱	-9.62349
旧	-9.62381
出版社	-9.62414
待	-9.62444
尤	-9.6248
宽	-9.62491
广州	-9.62573
作戰	-9.62587
衛	-9.62604
韓	-9.62604
欲	-9.62646
中部	-9.62667
經常	-9.62687
英雄	-9.62814
紀錄	-9.62831
费	-9.62884
聚	-9.62958
坐	-9.62999
c	-9.63131
喜歡	-9.63225
宜	-9.63292
们	-9.63302
軍事	-9.63305
知道	-9.63336
學者	-9.63407
▁S	-9.63431
槍	-9.63469
歸	-9.63663
萊	-9.63728
全面	-9.63738
等等	-9.63879
……	-9.63896
類似	-9.63908
宇	-9.63919
▁2018	-9.63957
貓	-9.6396
亦有	-9.6396
藤	-9.6397
柯	-9.63979
振	-9.6398
帝國	-9.63991
產	-9.64118
莊	-9.64142
韩	-9.64222
1999	-9.64254
1998	-9.64276
未能	-9.64292
播放	-9.64306
2017	-9.64418
商業	-9.6451
胜	-9.64603
▁2005	-9.64627
套	-9.64827
主任	-9.64889
入侵	-9.64891
不會	-9.64911
行為	-9.65061
容	-9.65105
攻	-9.65126
傷	-9.65152
邨	-9.65176
祭	-9.65249
名稱	-9.65319
达到	-9.65434
製造	-9.65619
高度	-9.65658
诗	-9.65691
杯	-9.65715
設置	-9.65793
之下	-9.65845
秒	-9.65934
暗	-9.66055
影片	-9.66118
蘇聯	-9.66137
斗	-9.66195
距離	-9.66302
製	-9.66305
の	-9.66422
葛	-9.66446
设立	-9.66446
球队	-9.66528
正在	-9.66563
满	-9.66587
年间	-9.66598
作曲	-9.66654
改變	-9.66655
綠	-9.66791
股	-9.66952
必须	-9.66966
▁B	-9.66975
浩	-9.66991
文學	-9.6703
细胞	-9.67032
瑪	-9.67038
瑞典	-9.6704
俄羅斯	-9.67066
簡稱	-9.67076
人员	-9.67117
开发	-9.67161
专业	-9.67181
庭	-9.67189
刻	-9.67255
f	-9.67288
健康	-9.67293
不久	-9.67324
分鐘	-9.67355
弗	-9.67406
據	-9.6741
1997	-9.67447
黎	-9.67573
介	-9.67574
礼	-9.67598
西方	-9.67624
丘	-9.6765
明朝	-9.67708
此后	-9.67818
湖南	-9.67827
安排	-9.67879
亲	-9.6788
範圍	-9.67889
看到	-9.67929
55	-9.67939
飛機	-9.67966
能够	-9.67984
酒店	-9.68026
农	-9.68031
劇	-9.68035
x	-9.68076
p	-9.68089
文件	-9.68095
联盟	-9.68166
貴	-9.68269
参与	-9.6831
名為	-9.68347
助	-9.68389
議員	-9.684
社区	-9.68404
数据	-9.68551
輝	-9.686
方案	-9.68604
英語	-9.68624
結	-9.68703
偉	-9.68704
如下	-9.68732
潮	-9.68749
達到	-9.68753
隨著	-9.68778
沒	-9.68802
問	-9.68817
五年	-9.68881
交易	-9.68905
巴西	-9.68931
主義	-9.69096
駐	-9.69117
状	-9.69161
保留	-9.69266
选	-9.69286
钱	-9.6931
超过	-9.69315
on	-9.69322
件	-9.69361
程序	-9.69408
分别	-9.69522
有著	-9.69715
營運	-9.69929
勇	-9.69981
讀	-9.70006
按照	-9.70007
展開	-9.70036
澳洲	-9.70043
藥	-9.70051
始	-9.70058
市民	-9.70059
某	-9.7008
樂團	-9.70152
芬	-9.70152
理論	-9.7017
母親	-9.70252
蓋	-9.70338
質	-9.70348
禁止	-9.70355
人类	-9.70363
庆	-9.70409
曾在	-9.70428
並不	-9.70629
不足	-9.7066
鹿	-9.70722
南方	-9.70796
象	-9.70805
主义	-9.70903
恢复	-9.70924
▁王	-9.70947
太平洋	-9.70972
太陽	-9.70977
其它	-9.71006
现在	-9.71048
出生	-9.71093
灵	-9.71096
是一種	-9.7126
公民	-9.71298
分布于	-9.71315
举行	-9.71339
不过	-9.71445
64	-9.71446
轮	-9.71487
75	-9.71558
迅速	-9.71561
hans	-9.71594
命令	-9.71652
河南	-9.71694
质	-9.71742
兹	-9.71815
任務	-9.71856
唯一	-9.71874
著名的	-9.71899
馆	-9.71953
載	-9.71966
单位	-9.71972
2021	-9.72017
反对	-9.72081
腳	-9.72146
而是	-9.72161
凡	-9.72193
某些	-9.72212
42	-9.7225
产生	-9.72317
男性	-9.72327
又名	-9.7234
取消	-9.72341
46	-9.72362
又稱	-9.72416
獸	-9.72427
批評	-9.72451
為主	-9.72486
茂	-9.72538
埃及	-9.7263
完	-9.7268
演	-9.72755
当地	-9.72803
隧道	-9.72819
之間的	-9.72998
份	-9.73
缺乏	-9.73032
廠	-9.73044
珍	-9.73045
一座	-9.73096
《》	-9.7311
剛	-9.73154
眾	-9.73166
演唱	-9.7321
丰	-9.73279
引擎	-9.73366
朝鲜	-9.73376
如此	-9.73437
主演	-9.73449
資訊	-9.7345
晋	-9.73491
得以	-9.73511
原因	-9.73529
▁of	-9.73543
批准	-9.73612
o	-9.73683
运	-9.73728
操作	-9.73733
泽	-9.73742
▁C	-9.73842
▁A	-9.7391
平台	-9.73925
舍	-9.73931
领导	-9.73991
天主教	-9.74032
未來	-9.74095
一度	-9.74152
冷	-9.74166
委	-9.74248
处理	-9.74376
雜誌	-9.74387
宣佈	-9.74414
比赛	-9.74473
維持	-9.74516
森林	-9.74744
抗	-9.7476
区域	-9.7487
藩	-9.74875
跳	-9.74892
这是	-9.75012
一年	-9.75023
表現	-9.75029
整個	-9.75227
失去	-9.75283
连接	-9.75298
并在	-9.75303
乙	-9.75313
制作	-9.75345
幫助	-9.75351
賽事	-9.75415
頂	-9.75427
渡	-9.7545
旁	-9.75469
空间	-9.75494
標	-9.75527
▁由於	-9.7553
純	-9.75561
王朝	-9.75595
银行	-9.75638
画	-9.75707
出口	-9.75761
的時候	-9.75768
設施	-9.75778
告	-9.7583
法院	-9.75862
得知	-9.75963
金融	-9.76025
西藏	-9.76035
写	-9.76121
身體	-9.7613
掉	-9.76142
業務	-9.76176
連續	-9.76256
公园	-9.76275
試	-9.76305
烈	-9.76343
丸	-9.76444
品牌	-9.7649
▁2004	-9.76534
方言	-9.76625
概念	-9.76639
卫	-9.76706
休	-9.76726
函数	-9.76741
新闻	-9.76748
广东	-9.76757
岳	-9.76781
湾	-9.76853
震	-9.76878
停	-9.76964
提高	-9.76964
第六	-9.76979
嚴重	-9.77016
計	-9.77061
億	-9.77233
医院	-9.77244
被稱為	-9.77379
如何	-9.7738
糖	-9.77435
韦	-9.77494
繼	-9.77505
唱片	-9.77507
二人	-9.77514
海外	-9.77536
一家	-9.77557
归	-9.7771
重要的	-9.77758
主角	-9.7779
中國大陸	-9.77858
車輛	-9.77889
（15	-9.77972
建議	-9.78024
载	-9.78102
名字	-9.78125
核心	-9.78233
組合	-9.78282
黑色	-9.78292
作者	-9.78301
▁香港	-9.78366
境内	-9.78467
廣告	-9.78537
乾	-9.78554
调查	-9.78605
移	-9.78658
產品	-9.78662
临	-9.78715
白色	-9.78793
幾	-9.78828
追	-9.78847
項	-9.78854
执行	-9.78982
電視台	-9.79091
44	-9.79103
並沒有	-9.79175
冠军	-9.79223
牙	-9.79232
天皇	-9.79252
境	-9.79266
掌	-9.79277
投票	-9.79278
g	-9.79311
艦	-9.7936
协会	-9.79432
威廉	-9.7953
47	-9.79566
汽車	-9.79578
寬	-9.79592
建成	-9.79616
年底	-9.79624
移民	-9.79707
熊	-9.79759
急	-9.7977
裕	-9.79786
魔法	-9.79825
逝世	-9.79835
原名	-9.79852
規定	-9.79895
變成	-9.79933
设有	-9.79976
作出	-9.80083
修改	-9.80105
最多	-9.80173
然後	-9.8025
廟	-9.8025
市场	-9.8027
句	-9.80332
士兵	-9.80349
拍	-9.80356
益	-9.80356
翁	-9.80381
感到	-9.80413
普遍	-9.80447
时代	-9.80465
动物	-9.80466
羊	-9.80474
65	-9.80579
現時	-9.80583
佔	-9.80593
坡	-9.80687
配合	-9.80735
提名	-9.80744
撤销	-9.80755
耀	-9.80768
狗	-9.8081
晉	-9.80873
指揮	-9.80899
2022	-9.80929
實施	-9.80939
1970	-9.80971
特殊	-9.81001
英格蘭	-9.81006
话	-9.81048
兒童	-9.81051
念	-9.81064
流行	-9.8108
环境	-9.81102
49	-9.81104
改造	-9.81108
分布	-9.81133
玄	-9.81197
产品	-9.81205
吾	-9.81244
臺北	-9.81284
笑	-9.81309
药	-9.81356
網路	-9.81432
壁	-9.81446
丽	-9.81573
任命	-9.81593
以前	-9.81715
的研究	-9.81872
崇	-9.81902
第二次	-9.8203
岡	-9.82092
收入	-9.82113
盖	-9.82131
哲	-9.82152
距	-9.82168
一样	-9.82195
譯	-9.82274
||	-9.82289
郑	-9.82314
高速公路	-9.82356
海洋	-9.82357
有效	-9.82374
燈	-9.82378
聯賽	-9.82419
課程	-9.82442
擊	-9.82475
袁	-9.82505
玛	-9.82616
宿	-9.82617
顺	-9.82647
王國	-9.82655
发行	-9.82715
本身	-9.82721
崎	-9.82726
大陸	-9.82794
予	-9.82837
算	-9.82879
提升	-9.83019
1996	-9.8304
廣場	-9.83076
能量	-9.83079
任务	-9.83088
有关	-9.83095
報告	-9.83111
盐	-9.83112
進攻	-9.83204
雖	-9.83215
的重要	-9.83235
農	-9.83263
跨	-9.83267
刺	-9.83274
穿	-9.83311
恢復	-9.83325
它們	-9.83362
以後	-9.83379
之间的	-9.8341
异	-9.83436
主要是	-9.83482
的作品	-9.83485
离	-9.83491
指挥	-9.83494
物理	-9.83628
陸軍	-9.83629
实现	-9.83651
广场	-9.83652
▁2020	-9.83664
諸	-9.83675
43	-9.83693
相信	-9.83718
固定	-9.83723
還是	-9.83726
臨	-9.83731
庙	-9.83737
人们	-9.83768
博物馆	-9.83774
十年	-9.83788
雙方	-9.83798
排名	-9.83815
遊	-9.83838
文学	-9.83904
的新	-9.83934
湯	-9.83977
地面	-9.84121
韋	-9.84155
卓	-9.84179
设备	-9.84256
大樓	-9.84267
那些	-9.84287
事故	-9.84296
關於	-9.84345
建設	-9.84394
结果	-9.84398
in	-9.84437
幸	-9.84448
務	-9.84473
比如	-9.84559
海军	-9.84568
移動	-9.846
生命	-9.84608
一切	-9.84624
浮	-9.84635
小學	-9.84659
第七	-9.84663
墓	-9.84664
改善	-9.84726
斷	-9.84729
各种	-9.84729
輕	-9.84805
冬	-9.84825
此時	-9.84839
更加	-9.84863
拳	-9.84918
統一	-9.84924
小時	-9.84945
)。	-9.85003
投資	-9.85071
事務	-9.85086
可能是	-9.85099
同樣	-9.85132
慧	-9.8516
議會	-9.85168
节目	-9.85229
年人口	-9.8546
借	-9.85533
娛樂	-9.85561
400	-9.85589
征	-9.8561
1992	-9.85674
克斯	-9.85699
食品	-9.85705
番	-9.85709
妃	-9.85709
相关	-9.85729
記載	-9.85743
大道	-9.85747
民國	-9.85751
是以	-9.85793
和其他	-9.85821
乾隆	-9.8584
选择	-9.85848
58	-9.85856
育	-9.85892
56	-9.85961
hk	-9.85993
琳	-9.86024
沿	-9.8604
事業	-9.86049
補	-9.86093
變化	-9.86159
戲	-9.86184
發射	-9.86338
（2011	-9.8634
鳳	-9.86434
陆	-9.86518
欧	-9.86548
交流	-9.86549
羅馬	-9.86577
用於	-9.86705
tw	-9.86726
兼任	-9.86727
申	-9.86743
結婚	-9.86746
被迫	-9.86756
至少	-9.86779
山东	-9.86835
奏	-9.86852
太子	-9.86866
不斷	-9.86893
特别	-9.86993
个人	-9.87008
的故事	-9.87038
壽	-9.87038
北方	-9.87069
▁P	-9.8708
招	-9.87081
较	-9.87125
赛季	-9.87173
;}-	-9.8718
观	-9.87183
媒体	-9.87212
拒絕	-9.87235
德语	-9.87236
降低	-9.87266
聽	-9.87302
顿	-9.87335
更多	-9.87412
居住	-9.87443
策	-9.87444
他是	-9.87457
準備	-9.87469
首先	-9.87501
狼	-9.87505
靠	-9.87584
以色列	-9.87616
al	-9.87665
昂	-9.87681
天下	-9.87705
投入	-9.87754
妮	-9.87849
減少	-9.87872
碧	-9.87899
城区	-9.87955
三個	-9.8797
工人	-9.87978
各地	-9.88024
万人	-9.882
逐渐	-9.88206
随着	-9.88225
被称为	-9.88373
保存	-9.88374
出席	-9.88436
網站	-9.88459
教會	-9.88493
惟	-9.88613
内容	-9.88668
專	-9.88692
许	-9.88693
银	-9.88725
階段	-9.88729
律	-9.88749
申請	-9.88754
le	-9.88755
据	-9.88783
1995	-9.88827
字母	-9.88851
1991	-9.88892
1960	-9.88906
亂	-9.88913
规定	-9.88919
统一	-9.88922
荷	-9.88961
合成	-9.89068
開放	-9.89113
體育	-9.89141
例	-9.89144
济	-9.89239
而被	-9.89243
治療	-9.89246
68	-9.89255
农业	-9.89291
卿	-9.8945
爲	-9.89463
突然	-9.89506
朋友	-9.89528
1994	-9.89626
程度	-9.8976
爆發	-9.89776
ing	-9.8978
一帶	-9.89809
十三	-9.8991
長期	-9.89912
Q	-9.89953
厅	-9.89988
規劃	-9.90073
飛行	-9.90222
塘	-9.9025
外交	-9.90268
‧	-9.90293
▁2003	-9.90369
味	-9.90458
深圳	-9.90472
父母	-9.90473
跑	-9.90493
炎	-9.90515
破壞	-9.90523
誠	-9.90575
是一种	-9.90598
童	-9.90629
比较	-9.90636
肯	-9.90642
▁zh	-9.90684
也可以	-9.90714
▁M	-9.90726
41	-9.90741
弱	-9.90746
目標	-9.90837
》（）	-9.91034
于是	-9.91047
皇家	-9.91119
人們	-9.91142
職業	-9.91183
不得	-9.91187
古代	-9.91229
加盟	-9.91263
退出	-9.91381
尖	-9.91447
罗马	-9.91452
朝鮮	-9.91462
集中	-9.9155
化学	-9.91562
平原	-9.91612
約翰	-9.91639
少女	-9.9164
▁2021	-9.91674
餘	-9.91718
簡	-9.91778
海拔	-9.91822
犯罪	-9.91882
66	-9.91963
装	-9.91965
勢	-9.92001
瑟	-9.92008
王子	-9.92023
吕	-9.92141
反應	-9.92202
枝	-9.92227
进行了	-9.92273
帝国	-9.92278
汽车	-9.92352
監	-9.92378
荣	-9.92378
坦	-9.9239
以外	-9.92402
荷蘭	-9.92485
附近的	-9.92527
重大	-9.92595
主教	-9.92613
賴	-9.92646
海域	-9.92664
頻道	-9.92739
賀	-9.92802
谢	-9.92876
只要	-9.9291
獨	-9.93012
江西	-9.93048
典	-9.93054
甚	-9.93057
食物	-9.93149
高速	-9.93173
叔	-9.93257
土耳其	-9.93314
主張	-9.93334
裏	-9.93468
偏	-9.93482
崔	-9.93553
都市	-9.93693
发表	-9.93699
鼓	-9.93731
商业	-9.9375
實際	-9.93766
水平	-9.939
筆	-9.94001
賈	-9.94018
54	-9.94047
並非	-9.94068
1950	-9.94101
邀請	-9.94103
鹽	-9.94114
计算	-9.94176
整个	-9.9419
伊朗	-9.94191
解釋	-9.94217
▁陳	-9.94226
呂	-9.94366
在香港	-9.94384
弟	-9.94399
通道	-9.94399
顶	-9.94416
年初	-9.9442
倉	-9.94518
都會	-9.94522
出身	-9.94541
也在	-9.94551
慈	-9.94557
球會	-9.9458
而言	-9.94671
泥	-9.94678
共和国	-9.94746
东部	-9.94748
职	-9.94869
附	-9.94904
晚	-9.94957
历	-9.94958
苑	-9.94964
联邦	-9.94975
1989	-9.95028
探	-9.95029
距离	-9.95055
上述	-9.95152
斑	-9.95177
術	-9.95234
粉	-9.9531
舒	-9.95338
部落	-9.95348
紀念	-9.95359
月台	-9.95372
莎	-9.95372
統治	-9.95499
150	-9.95584
疾病	-9.95594
项	-9.95621
57	-9.95635
成本	-9.95643
找到	-9.95671
艘	-9.95715
葡萄牙	-9.95789
敵	-9.95794
登場	-9.95858
妻子	-9.95862
日軍	-9.9587
▁F	-9.95883
▁G	-9.95894
本站	-9.95915
側	-9.95937
內部	-9.96033
月至	-9.96038
代理	-9.9609
涅	-9.96094
即使	-9.961
恭	-9.96115
坊	-9.96119
日在	-9.96119
运行	-9.96158
墨西哥	-9.96172
大廈	-9.96248
起來	-9.96256
金屬	-9.96347
涉及	-9.96399
1000	-9.9644
共和國	-9.96656
犬	-9.96662
用户	-9.96689
豆	-9.96689
行动	-9.96704
蓝	-9.96735
廣東	-9.96745
88	-9.96839
橫	-9.96876
講	-9.96913
優	-9.97005
鏡	-9.97036
養	-9.97082
地震	-9.97108
領域	-9.97146
1993	-9.97174
背景	-9.97174
线路	-9.97188
记载	-9.97215
錦	-9.9725
中国大陆	-9.97256
镇下辖以下地区	-9.97304
互相	-9.97346
53	-9.97363
情況	-9.97419
产	-9.97457
症	-9.97469
三个	-9.975
59	-9.97583
戰役	-9.97656
将军	-9.97665
52	-9.977
證	-9.97704
解放	-9.97757
76	-9.97786
相比	-9.97818
社區	-9.97877
勞	-9.9791
產業	-9.97932
内部	-9.97984
細胞	-9.98038
电视	-9.98053
懷	-9.98058
編曲	-9.98087
飞机	-9.98157
动	-9.9816
計算	-9.9817
亦是	-9.98179
小时	-9.9818
海岸	-9.98222
料	-9.98315
▁阿	-9.98317
陣	-9.98321
君主	-9.98345
混合	-9.98377
天使	-9.98419
貿易	-9.98421
六年	-9.9845
灰	-9.98475
投资	-9.9849
还是	-9.98558
民眾	-9.98576
公布	-9.98586
單曲	-9.98604
波兰	-9.98642
特定	-9.98653
分為	-9.98671
殖民地	-9.98686
芝	-9.98718
司法	-9.9874
的關係	-9.98789
条件	-9.98884
序	-9.98921
選手	-9.98943
報導	-9.9895
寒	-9.98965
结束	-9.9901
負	-9.99041
選區	-9.99052
小型	-9.99073
盡	-9.99108
設備	-9.99183
文明	-9.99218
專業	-9.99253
臨時	-9.99257
記者	-9.99314
爆炸	-9.99462
成績	-9.99479
信仰	-9.99498
乘客	-9.9951
終	-9.99722
狀態	-9.99799
几	-9.99852
因素	-9.99899
墨	-9.99906
1988	-9.99954
派遣	-9.9998
约翰	-9.99988
超級	-10.0002
r	-10.0012
演唱會	-10.0013
菌	-10.0014
知名	-10.0014
工具	-10.0015
简称	-10.0017
太郎	-10.0019
發動	-10.0027
熙	-10.0028
圆	-10.0029
先後	-10.003
壓	-10.0032
群島	-10.0035
高雄	-10.0036
本地	-10.0038
亚洲	-10.0047
本人	-10.0047
綜合	-10.0049
老師	-10.0055
JR	-10.0055
立即	-10.0068
下令	-10.0069
解散	-10.0072
大使	-10.0074
历史上	-10.0077
l	-10.0081
畢業	-10.0081
私	-10.0083
使用的	-10.0085
義大利	-10.0095
剧	-10.0095
盘	-10.0097
效果	-10.0097
99	-10.0099
瑞士	-10.0104
获得了	-10.0105
警方	-10.0112
敗	-10.0113
發出	-10.0121
兆	-10.0121
圍	-10.0123
股份有限公司	-10.0125
病毒	-10.0125
阻止	-10.0126
固	-10.0127
絕	-10.0128
當選	-10.0133
勤	-10.0136
平方米	-10.0138
合併	-10.0141
是個	-10.0147
尚未	-10.0147
的影響	-10.0148
维尔	-10.0148
部門	-10.015
額	-10.0154
怪	-10.0158
貞	-10.0163
战役	-10.0167
唐朝	-10.0171
饰	-10.0171
措施	-10.0175
劳	-10.018
配音	-10.0186
厘米	-10.0186
第八	-10.0189
美軍	-10.0191
感染	-10.0203
朝廷	-10.0204
贵	-10.0211
的时候	-10.0214
政治人物	-10.0217
规划	-10.0219
丝	-10.022
表明	-10.0221
東北	-10.0223
每个	-10.0224
紙	-10.0231
软件	-10.0233
寿	-10.0234
觀眾	-10.0236
也會	-10.0236
主持人	-10.0237
的工作	-10.0239
秘密	-10.0243
呼	-10.0249
▁2000	-10.025
帮助	-10.025
的位置	-10.0254
尽管	-10.0265
河畔	-10.0268
火箭	-10.0268
的角色	-10.0273
正常	-10.0275
消息	-10.0277
錄	-10.0277
大小	-10.0283
然后	-10.0286
出來	-10.0288
介紹	-10.029
贾	-10.0296
▁2002	-10.0296
马来西亚	-10.0301
大多	-10.0306
The	-10.0307
鍾	-10.0309
在日本	-10.031
惡	-10.0311
記錄	-10.0316
了解	-10.0317
討論	-10.032
南北	-10.0323
发布	-10.0324
鐵道	-10.0325
相似	-10.0325
依然	-10.0333
86	-10.0334
箱	-10.0336
幾乎	-10.0341
浪	-10.0349
陰	-10.0351
并不	-10.0356
濟	-10.0358
下降	-10.036
锡	-10.0363
資	-10.0364
坑	-10.0367
重庆	-10.0369
本線	-10.0371
应用	-10.0372
旺	-10.0372
創	-10.0373
董	-10.0374
培	-10.038
容易	-10.0384
刊	-10.0387
牧	-10.0392
這一	-10.0395
賣	-10.0399
球場	-10.0407
鸟	-10.0407
地铁	-10.0409
投降	-10.0412
輛	-10.0412
视	-10.0418
數量	-10.0418
中華	-10.0421
~	-10.0423
是中国	-10.0428
細	-10.0432
运营	-10.0437
演员	-10.0439
》：	-10.0441
的名字	-10.0443
廣州	-10.0445
博物館	-10.0449
户	-10.045
自行	-10.0452
面對	-10.0454
冯	-10.046
学者	-10.0463
避免	-10.0466
馮	-10.0467
價	-10.0468
▁小行星	-10.0469
實驗	-10.0469
王国	-10.0474
兒子	-10.0474
體長可達	-10.0477
行为	-10.0478
靜	-10.0481
湘	-10.0484
中山	-10.0485
硬	-10.0487
编	-10.0488
原子	-10.0492
传统	-10.0496
將會	-10.05
读	-10.0504
指定	-10.0512
扬	-10.0518
云南	-10.0518
緣	-10.0519
先后	-10.0522
小说	-10.0522
法案	-10.0529
85	-10.053
艦隊	-10.053
也被	-10.0533
紅色	-10.0538
揚	-10.0538
敦	-10.0538
欧元	-10.0539
消失	-10.0545
岭	-10.0548
经常	-10.0549
亨利	-10.0555
針對	-10.0559
蕭	-10.0559
澳大利亚	-10.0564
展示	-10.0565
內的	-10.0567
彥	-10.0571
另有	-10.0579
▁T	-10.0583
棋	-10.0592
钟	-10.0595
免	-10.0602
攻击	-10.0605
符合	-10.0606
坦克	-10.0609
屯	-10.0609
难	-10.061
诸	-10.0611
岸	-10.0617
表面	-10.0622
进攻	-10.0628
范围	-10.0631
杀	-10.0633
倫敦	-10.0638
离开	-10.0641
十八	-10.0644
作战	-10.0645
資源	-10.0647
蓮	-10.0649
坎	-10.065
横	-10.065
同一	-10.0655
瓜	-10.066
纪	-10.066
的小	-10.0661
奪得	-10.0672
失敗	-10.0674
一部	-10.0683
他們的	-10.0684
意外	-10.0689
多個	-10.0691
怀	-10.0709
捷	-10.0712
價值	-10.0716
▁K	-10.0717
民国	-10.0718
尤其是	-10.0718
它是	-10.0725
目的	-10.0727
住宅	-10.0727
亡	-10.0729
英语	-10.0734
地理	-10.0736
基因	-10.074
继	-10.0741
既	-10.0746
人數	-10.0756
妻	-10.0756
對方	-10.0756
賞	-10.0757
办	-10.0759
突破	-10.0759
俄	-10.076
▁2022	-10.076
有所	-10.0764
運動員	-10.0767
課	-10.0769
领	-10.077
著作	-10.0772
幼	-10.0775
提到	-10.0778
报告	-10.0779
每個	-10.0783
中華人民共和國	-10.0787
蔣	-10.0793
曾经	-10.0798
刑	-10.08
吸引	-10.08
對手	-10.0802
蟲	-10.0802
有人	-10.0806
一致	-10.0812
承認	-10.0813
遗址	-10.0814
條件	-10.0817
毅	-10.082
95	-10.0829
-1	-10.0831
1987	-10.0835
1986	-10.0839
z	-10.0839
伏	-10.084
康熙	-10.0841
？」	-10.0843
而非	-10.0843
（，；）	-10.0844
的方法	-10.0849
数学	-10.0854
湖北	-10.0855
建立了	-10.0861
三世	-10.0869
農業	-10.0874
美元	-10.0879
狂	-10.0883
挑戰	-10.0885
▁2001	-10.0886
旗下	-10.0889
嘴	-10.0902
測試	-10.0904
犯	-10.0905
牠們	-10.0909
自治	-10.091
一條	-10.0913
喬	-10.0914
打算	-10.0921
年出生	-10.0922
次年	-10.0939
分为	-10.0939
桃	-10.0939
部门	-10.0941
榜	-10.0943
痛	-10.0945
冊	-10.0947
十六	-10.0947
粒子	-10.0948
鼠	-10.0949
多數	-10.0957
凯	-10.0958
实验	-10.0967
1985	-10.0975
小行星	-10.0978
舉	-10.0983
斯基	-10.0983
记录	-10.0984
山西	-10.0986
談	-10.0989
杭州	-10.0991
斯坦	-10.0994
龜	-10.0999
专	-10.1
所有的	-10.1012
玻璃	-10.1019
廣播	-10.1025
滅	-10.1026
週	-10.1027
宣傳	-10.1029
制造	-10.1032
暴	-10.1033
退休	-10.1039
替	-10.104
顯	-10.1043
儘管	-10.1044
努	-10.1045
理解	-10.1046
静	-10.1049
相對	-10.1049
聯邦	-10.1052
而成	-10.1052
膜	-10.1056
明治	-10.1057
往往	-10.1059
碑	-10.1061
官員	-10.1062
72	-10.1063
需求	-10.1063
隔	-10.1067
大约	-10.1068
教練	-10.1072
弹	-10.1076
形象	-10.1077
质量	-10.1078
采	-10.108
授予	-10.1083
今日	-10.1088
欣	-10.1088
敵人	-10.1091
or	-10.1092
翠	-10.1098
持有	-10.1098
截至	-10.11
大會	-10.1102
爭議	-10.1104
ia	-10.1104
年逝世	-10.1104
的能力	-10.1105
解決	-10.1106
批	-10.1108
身上	-10.111
上映	-10.1112
商品	-10.1114
请	-10.1116
物種	-10.1116
鼎	-10.1116
600	-10.1117
阿尔	-10.1118
77	-10.1118
一定	-10.1125
[	-10.1126
推動	-10.1129
▁–	-10.113
96	-10.1131
北海道	-10.1133
接收	-10.1137
并入	-10.1139
二十	-10.1146
奎	-10.1146
澳	-10.1147
行星	-10.1155
成都	-10.1157
NBA	-10.1158
啟	-10.1163
東方	-10.1163
▁3	-10.1168
花園	-10.1172
120	-10.1173
爆	-10.1173
67	-10.1174
公爵	-10.1178
希臘	-10.1179
us	-10.1188
98	-10.1192
标	-10.1194
翻	-10.1196
挪威	-10.1196
米的地区	-10.1202
下的	-10.1203
毛泽东	-10.1204
69	-10.1207
護	-10.1207
的大	-10.1208
导演	-10.1214
生长于海拔	-10.1217
新疆	-10.1219
路段	-10.122
是日本	-10.1223
剑	-10.1227
柏林	-10.1228
▁新	-10.123
议会	-10.123
凌	-10.1232
圖書館	-10.1235
盃	-10.1237
is	-10.124
省的一个市镇	-10.1246
廢	-10.1253
其餘	-10.1256
努力	-10.1259
以后	-10.1262
錫	-10.1262
醫學	-10.1263
在其	-10.1268
接任	-10.127
父亲	-10.1275
靖	-10.1277
生涯	-10.1277
冲	-10.128
63	-10.128
棒	-10.1287
給予	-10.1288
别	-10.1291
自身	-10.1294
准备	-10.1294
火山	-10.1299
到達	-10.1301
機械	-10.1312
乳	-10.1312
1945	-10.1318
萬人	-10.132
▁小	-10.1334
鄧	-10.1334
暨	-10.1334
江苏	-10.1336
1984	-10.1339
以來	-10.134
结	-10.1348
減	-10.1349
长期	-10.1349
贏得	-10.1352
奴	-10.1354
運輸	-10.1356
出演	-10.1365
將其	-10.1369
斜	-10.1374
裝置	-10.1376
僧	-10.1379
現場	-10.138
的第	-10.138
麦	-10.1383
的影响	-10.1385
到达	-10.1386
下午	-10.1391
杂志	-10.1395
彼得	-10.1395
而不是	-10.1396
號線	-10.14
显示	-10.1407
官方網站	-10.1415
分裂	-10.1417
养	-10.1419
過程	-10.1419
en	-10.1426
广西	-10.1427
太空	-10.1428
出生于	-10.1432
第一個	-10.1439
分钟	-10.1441
51	-10.1444
俱乐部	-10.1444
发射	-10.1445
賓	-10.1448
比例	-10.1451
三人	-10.1455
河北	-10.1456
積	-10.1461
稅	-10.1468
孩子	-10.1469
勢力	-10.147
曉	-10.1471
演奏	-10.1471
商人	-10.1471
匈牙利	-10.1472
助理	-10.1474
嚴	-10.1475
迷	-10.1477
讷	-10.148
也就是	-10.148
凤	-10.1491
盟	-10.15
特色	-10.1503
晚上	-10.1506
公元	-10.1508
己	-10.151
在美國	-10.1513
更名为	-10.1514
计算机	-10.1518
案件	-10.1522
网站	-10.1523
生于	-10.1525
但他	-10.1526
此後	-10.1527
79	-10.1528
主力	-10.1529
北京市	-10.1538
女王	-10.1538
上海市	-10.1542
类似	-10.1546
調整	-10.1558
女兒	-10.1563
断	-10.1566
变化	-10.1566
协议	-10.1568
文物	-10.1569
听	-10.1573
翔	-10.1576
校長	-10.1578
察	-10.1579
本土	-10.1581
城堡	-10.1593
创作	-10.1593
沟	-10.1596
霸	-10.1596
鴻	-10.1599
客運	-10.1602
舞台	-10.1605
市区	-10.1606
脫	-10.1617
結合	-10.1617
伍	-10.1618
78	-10.1623
薄	-10.1631
机车	-10.1633
大約	-10.1635
運作	-10.1644
駕駛	-10.1647
這樣	-10.1648
中共中央	-10.1649
实施	-10.1651
铜	-10.1653
又称	-10.1658
87	-10.1666
▁R	-10.1668
就會	-10.1669
菲律賓	-10.1674
國內	-10.1675
▁日本	-10.1677
平衡	-10.1685
召	-10.1687
独	-10.1689
数字	-10.169
似乎	-10.1691
通信	-10.1695
十一	-10.1696
統	-10.17
吸收	-10.1702
2023	-10.1708
中有	-10.1709
拉斯	-10.1711
这样	-10.1714
做出	-10.1714
el	-10.1717
尹	-10.1718
並未	-10.1721
技	-10.1728
巷	-10.173
疏	-10.1732
确定	-10.1734
佔領	-10.1736
是一位	-10.1741
为主	-10.1754
洗	-10.1767
折	-10.1767
有一	-10.1769
政权	-10.1769
目前尚未由人工引种栽培	-10.177
常常	-10.1773
含有	-10.1782
资源	-10.1782
幫	-10.1783
衝突	-10.1784
▁W	-10.1785
设置	-10.1786
实际	-10.1788
藝人	-10.1792
62	-10.1793
玩	-10.1795
800	-10.1799
民間	-10.1799
印尼	-10.18
过程	-10.1807
引入	-10.1813
基金	-10.1817
▁根據	-10.1819
大多数	-10.1823
波蘭	-10.1826
播	-10.1829
体育	-10.1831
建于	-10.1835
東部	-10.1835
教師	-10.1836
▁D	-10.1843
多个	-10.1845
定義	-10.1846
统治	-10.1847
1979	-10.1851
遷	-10.1853
用途	-10.1854
中国人民解放军	-10.1854
軌道	-10.1861
利益	-10.1865
条约	-10.1866
限	-10.1869
74	-10.1871
意为	-10.1871
物質	-10.1872
役	-10.1881
傅	-10.1885
華人	-10.1888
備	-10.189
從事	-10.1893
总理	-10.1898
简	-10.1898
将其	-10.19
坪	-10.1906
联赛	-10.1906
設定	-10.1914
状态	-10.1918
碳	-10.1922
▁中国	-10.1925
姚	-10.1928
模	-10.1934
连续	-10.1938
今天	-10.1939
敌	-10.194
由此	-10.1944
情况	-10.1945
對抗	-10.1947
副主席	-10.1947
砲	-10.1951
放棄	-10.1962
鷹	-10.1963
抵抗	-10.1964
u	-10.1966
符	-10.1969
不断	-10.197
信号	-10.1977
严重	-10.1978
汪	-10.1979
综合	-10.1979
（2009	-10.198
石油	-10.198
实行	-10.1983
从而	-10.1984
編號	-10.1986
戰後	-10.1988
酶	-10.1988
1982	-10.1994
妙	-10.1997
委員	-10.1998
姜	-10.1999
公开	-10.1999
錯	-10.2002
來說	-10.201
使用者	-10.2013
亨	-10.2014
】	-10.2018
选举	-10.2028
（2001	-10.204
醫	-10.2047
堅	-10.2054
访问	-10.2058
私人	-10.2058
阿拉伯	-10.2062
詹姆斯	-10.2067
曹操	-10.2072
宪法	-10.2076
更新	-10.2078
高級	-10.2079
風格	-10.208
房屋	-10.208
軸	-10.2081
贸易	-10.2087
派出	-10.2103
阿爾	-10.2103
銷售	-10.2108
證明	-10.2108
腹	-10.2112
吹	-10.2116
政權	-10.2117
南非	-10.2118
萧	-10.212
迎	-10.2121
確定	-10.2123
修建	-10.2126
當時的	-10.213
來到	-10.2131
找	-10.2139
废	-10.2142
化學	-10.2143
轻	-10.2147
证	-10.2149
轨道	-10.2149
恒	-10.2152
台北市	-10.2153
分類	-10.2159
％	-10.2161
举	-10.2163
海拔高度	-10.217
醫療	-10.2173
應用	-10.2174
爵士	-10.2174
不要	-10.2176
亿	-10.2177
導	-10.2179
藝	-10.2181
裔	-10.2181
昆	-10.2181
战斗	-10.2186
证明	-10.2187
1983	-10.2189
旅行	-10.2191
纪念	-10.2196
生成	-10.2197
出生於	-10.2207
武汉	-10.2208
)：	-10.2209
▁張	-10.221
其中男性	-10.222
迁	-10.2221
西安	-10.2222
领域	-10.2222
集合	-10.2223
轴	-10.2223
辦	-10.2228
滑	-10.2232
七年	-10.2236
金属	-10.224
97	-10.224
是一名	-10.2242
产业	-10.2243
淡	-10.2245
准	-10.2247
止	-10.2252
 	-10.2256
聞	-10.2266
鼻	-10.2267
压	-10.2269
教育部	-10.2269
小学	-10.2271
相互	-10.2273
汝	-10.2276
进一步	-10.2277
逃	-10.228
史上	-10.2281
儀式	-10.2281
▁2	-10.2282
淑	-10.2282
飞行	-10.2292
螺	-10.2296
收集	-10.2299
換	-10.2303
隻	-10.2312
第一个	-10.2316
階	-10.2317
試圖	-10.2317
頁	-10.2319
薛	-10.2324
雜	-10.2328
答	-10.2329
-{}-	-10.233
一人	-10.2332
提供了	-10.2332
狄	-10.2337
方便	-10.234
的政治	-10.2343
就讀	-10.2344
時任	-10.2345
繼承	-10.2348
化石	-10.2348
纯	-10.2353
寄	-10.2355
性格	-10.2356
占领	-10.2357
▁1999	-10.2359
得到了	-10.2363
ed	-10.2367
接替	-10.2368
似	-10.2369
运输	-10.2371
文章	-10.2375
途中	-10.2375
伤	-10.2377
舞蹈	-10.2377
风格	-10.2379
夷	-10.2381
遇	-10.2387
馬來西亞	-10.2388
贤	-10.2391
河流	-10.2392
▁金	-10.2393
咸	-10.2394
應該	-10.24
家人	-10.2403
顧問	-10.2415
有限	-10.2416
旅遊	-10.2417
決賽	-10.2418
港口	-10.242
阿根廷	-10.2423
混	-10.2425
戰士	-10.2426
▁E	-10.2433
氧化	-10.2434
臺北市	-10.2442
自我	-10.2443
汗	-10.2444
邓	-10.2445
此时	-10.2447
合約	-10.2452
虛	-10.2453
十四	-10.2454
1978	-10.2454
辖	-10.2458
中国共产党	-10.246
京都	-10.2462
窗	-10.2462
蛋	-10.2469
同盟	-10.247
1949	-10.2471
合并	-10.2473
卒	-10.2474
旅游	-10.2476
希腊	-10.2476
月球	-10.2478
引發	-10.2484
塊	-10.2491
阶段	-10.2493
众	-10.2497
每天	-10.2498
戲劇	-10.2499
飯	-10.2502
拔	-10.2503
一部分	-10.2504
隱	-10.2505
73	-10.2506
大家	-10.2508
商場	-10.2509
寮	-10.251
議	-10.251
通用	-10.2512
计	-10.2519
立法	-10.2524
邑	-10.2525
61	-10.2529
尋找	-10.2539
w	-10.2541
一段	-10.2543
安徽	-10.2544
沉	-10.2546
進一步	-10.2547
CD	-10.2548
改变	-10.2549
波斯	-10.255
原始	-10.2551
用作	-10.2552
保障	-10.2553
法官	-10.2554
徵	-10.2555
幕	-10.2556
玲	-10.2558
务	-10.2564
魂	-10.2565
國會	-10.2566
荒	-10.2567
名称	-10.2569
勝利	-10.2572
表達	-10.2576
平面	-10.2586
。2008	-10.2596
海上	-10.2596
代替	-10.2597
延伸	-10.2597
死後	-10.26
电视剧	-10.26
充	-10.2604
拒绝	-10.2609
麟	-10.2612
浙江省	-10.2615
官员	-10.2618
刚	-10.262
條約	-10.2624
太平	-10.2625
II	-10.2628
制定	-10.2629
生於	-10.2631
医学	-10.2631
旅客	-10.2632
他们的	-10.2636
的形式	-10.2638
當年	-10.2639
职业	-10.264
地點	-10.2644
类型	-10.265
能源	-10.2653
批评	-10.2654
专家	-10.2656
操	-10.2657
分配	-10.2662
創立	-10.2662
之女	-10.2662
小組	-10.2667
基於	-10.267
淡水	-10.267
开放	-10.2673
怡	-10.2674
大阪	-10.2675
图书馆	-10.2677
国内	-10.2678
改名	-10.2682
试图	-10.2682
国务院	-10.2685
问	-10.2686
領袖	-10.2686
嗣	-10.2687
般	-10.2691
▁1998	-10.2695
機關	-10.2706
陕西	-10.2706
▁H	-10.2707
遇到	-10.2709
接觸	-10.2715
第九	-10.272
與其他	-10.2731
莫斯科	-10.2737
的一種	-10.2737
令人	-10.2739
设施	-10.274
年開始	-10.274
冬季	-10.2741
騎	-10.2741
已有	-10.2746
服役	-10.2748
枪	-10.2749
机关	-10.2751
化合物	-10.2751
工廠	-10.2753
主題	-10.2753
逸	-10.2754
陆军	-10.2755
巨大	-10.2763
訓	-10.2765
菊	-10.2773
強調	-10.2774
穆斯林	-10.278
>	-10.2782
我的	-10.2783
地區的	-10.2784
▁本	-10.279
霞	-10.2791
笔	-10.2791
晶	-10.2791
磁	-10.2792
購買	-10.2794
军区	-10.2798
定居	-10.2798
數字	-10.28
收購	-10.28
梦	-10.2801
九龍	-10.2803
現任	-10.2806
網絡	-10.2809
雞	-10.2815
廖	-10.2815
道德	-10.2817
同样	-10.2821
控	-10.2824
脚	-10.2826
協議	-10.2836
’	-10.2837
患者	-10.2846
租	-10.2847
黑暗	-10.2849
撒	-10.2852
频道	-10.2859
採	-10.2862
統計	-10.2872
福州	-10.2875
留下	-10.2876
退役	-10.2878
两人	-10.289
燒	-10.2893
缺	-10.2897
成長	-10.2898
大陆	-10.2899
港鐵	-10.2902
步兵	-10.2906
碼頭	-10.2906
可以在	-10.2909
训练	-10.2912
較為	-10.2913
梨	-10.2918
晴	-10.292
民進黨	-10.2924
成了	-10.2924
泰國	-10.293
並以	-10.2935
衡	-10.2936
卡尔	-10.2941
綠色	-10.2944
綱	-10.2945
但因	-10.2952
▁10	-10.2957
公元前	-10.2958
構成	-10.2961
這次	-10.2967
在一起	-10.2968
後期	-10.2974
米至	-10.2975
法庭	-10.2975
破坏	-10.2976
指示	-10.2977
an	-10.2984
市區	-10.2984
粗	-10.2985
乔	-10.2987
定义	-10.2987
十五	-10.2989
爆发	-10.299
丈夫	-10.3001
正面	-10.301
讲	-10.3012
孤	-10.3016
黃金	-10.3021
1981	-10.3026
业务	-10.3026
國民黨	-10.303
国会	-10.3031
徽	-10.3036
另一個	-10.3044
以来	-10.3049
苗	-10.3052
的話	-10.3053
住在	-10.3054
說明	-10.306
年齡	-10.3066
空中	-10.3074
价	-10.3076
84	-10.3078
氧	-10.3078
星系	-10.3078
艇	-10.3084
阮	-10.3084
桐	-10.3087
儒	-10.3088
開設	-10.309
教區	-10.3091
運行	-10.3092
啟用	-10.3094
允许	-10.3095
最高的	-10.3095
允	-10.3098
相对	-10.3105
年由	-10.3108
裝備	-10.3108
管辖	-10.3109
家中	-10.3111
平方千米	-10.3115
▁林	-10.3117
不明	-10.3123
仪	-10.3124
潭	-10.3125
效力	-10.3126
89	-10.3129
数量	-10.3131
支付	-10.3132
司令部	-10.3133
襲擊	-10.3134
中华民国	-10.3134
留在	-10.3137
清代	-10.3138
抵達	-10.3138
貨	-10.314
最早的	-10.314
蜀	-10.3144
报道	-10.3147
疑	-10.3148
軟體	-10.3157
訪問	-10.316
经营	-10.3162
日期	-10.3166
舰	-10.3167
互	-10.3172
床	-10.3175
暴力	-10.3176
估計	-10.3179
的城市	-10.3181
她在	-10.3181
想要	-10.3183
灯	-10.3183
團隊	-10.3187
八年	-10.3187
东南	-10.3195
害	-10.3196
94	-10.3197
騎士	-10.3197
相同的	-10.3202
每日	-10.3202
用來	-10.3204
拆除	-10.321
現象	-10.321
一場	-10.3211
教会	-10.3216
的部分	-10.3219
在中国	-10.3219
焦	-10.322
憲法	-10.3221
陷入	-10.3222
腔	-10.3231
戒	-10.3232
財	-10.3232
南海	-10.3234
校区	-10.3241
显	-10.3243
第一位	-10.3245
通往	-10.3249
儿童	-10.3251
判	-10.3253
紋	-10.3254
達成	-10.3256
坂	-10.3265
譜	-10.3266
严	-10.3266
源自	-10.3267
軍團	-10.3267
的時間	-10.3269
鋼	-10.3272
述	-10.3273
注意	-10.3285
萬元	-10.3285
總部	-10.3286
數位	-10.3288
基于	-10.3294
！」	-10.3296
衛星	-10.3299
杉	-10.33
目标	-10.3305
▁1997	-10.3311
资料	-10.3311
運用	-10.3312
球员	-10.3313
政黨	-10.3313
唯	-10.3322
日军	-10.3323
憲	-10.3326
江南	-10.3332
被認為是	-10.3337
古典	-10.334
積極	-10.3341
原住民	-10.3342
增长	-10.3351
無綫電視	-10.3352
委员	-10.3353
伯爵	-10.3354
部长	-10.3354
效率	-10.3354
et	-10.3356
当选	-10.3359
弦	-10.336
出道	-10.3363
閣	-10.3366
完整	-10.3373
的所有	-10.3374
境內	-10.3374
阴	-10.3375
自動	-10.3375
妹	-10.3376
卡拉	-10.3377
依據	-10.3379
减少	-10.3382
一支	-10.339
哲学	-10.3392
卫星	-10.3394
畢	-10.3394
荷兰	-10.3399
發起	-10.34
没	-10.3401
并于	-10.3404
不会	-10.3407
的問題	-10.3408
双方	-10.3408
v	-10.3414
保安	-10.3415
加以	-10.3416
势	-10.3423
航空公司	-10.3424
並將	-10.3428
的一种	-10.343
税	-10.3434
陸續	-10.3436
解决	-10.3437
監督	-10.3439
名單	-10.3439
路易	-10.344
照片	-10.344
寨	-10.3442
鐘	-10.3442
的概念	-10.3442
太阳	-10.3443
掛	-10.3444
傳播	-10.3448
不滿	-10.3449
1958	-10.3451
邱	-10.3453
物质	-10.3454
)、	-10.3462
的生活	-10.3463
撤	-10.3463
液	-10.3464
教宗	-10.3465
剂	-10.3468
權力	-10.347
特徵	-10.3471
四個	-10.3477
湖南省	-10.348
恆星	-10.3481
現今	-10.3483
題	-10.3483
1.5	-10.3486
處於	-10.3487
几乎	-10.3493
怒	-10.3494
宅	-10.3497
蕾	-10.3497
逆	-10.3503
es	-10.3503
出現在	-10.3514
領導	-10.3518
事务	-10.3519
慢	-10.3522
確認	-10.3526
增設	-10.3527
唯一的	-10.3531
考慮	-10.3532
國民	-10.3533
評論	-10.3533
岗	-10.3535
的原因	-10.3539
结合	-10.3547
曆	-10.3548
弓	-10.355
上升	-10.3552
▁/	-10.3553
視為	-10.3553
▁圣	-10.3555
首位	-10.3558
宣传	-10.3558
夏季	-10.356
各自	-10.3561
不到	-10.3562
總理	-10.3563
嶺	-10.3565
憑	-10.3566
。2010	-10.3572
吧	-10.3574
琪	-10.358
很快	-10.359
書院	-10.3591
醫生	-10.3592
参	-10.3594
數學	-10.3598
截	-10.3598
火星	-10.3599
▁黃	-10.3602
机械	-10.3603
上陣	-10.3605
承认	-10.3606
at	-10.3607
近代	-10.3607
宾	-10.3614
資格	-10.3614
绿	-10.3616
钢	-10.3616
如今	-10.3617
墙	-10.3619
高校	-10.3623
地鐵	-10.3623
參	-10.3626
出售	-10.3627
额	-10.3627
表现	-10.3627
1940	-10.3632
祐	-10.3634
re	-10.3635
!	-10.3635
。2013	-10.3637
觀察	-10.3639
堤	-10.3639
上有	-10.3641
的一个市镇	-10.3642
隨即	-10.3644
淺	-10.3645
班次	-10.3645
专辑	-10.365
汤	-10.3651
此次	-10.3656
▁12	-10.3659
成为了	-10.366
阁	-10.3661
息	-10.3668
大多數	-10.3668
教學	-10.3669
道光	-10.367
1975	-10.3671
辽	-10.3677
导	-10.3679
國立	-10.368
貴族	-10.3684
成為了	-10.3684
在美国	-10.3686
长江	-10.3688
▁劉	-10.369
埔	-10.3691
性能	-10.3693
獅	-10.3699
一条	-10.37
名为	-10.37
妖	-10.3702
82	-10.3706
更名為	-10.371
是香港	-10.3713
進士	-10.3714
當局	-10.3715
弄	-10.3718
中原	-10.3719
齒	-10.3724
帶領	-10.373
译	-10.3732
大西洋	-10.3737
块	-10.3742
也不	-10.3744
傳說	-10.3746
娘	-10.3748
協	-10.3748
83	-10.375
矢	-10.375
试	-10.3751
起义	-10.3751
遺	-10.3752
▁4	-10.3753
真正	-10.3755
空军	-10.3757
▁飾演	-10.3759
自动	-10.3777
建築物	-10.3778
160	-10.3784
學會	-10.3784
使其	-10.3786
賽季	-10.3796
續	-10.3798
機會	-10.38
援	-10.3804
▁6	-10.3804
整合	-10.3806
錯誤	-10.3807
空軍	-10.381
另一方面	-10.3812
持续	-10.3812
鬥	-10.3816
危機	-10.3817
解释	-10.3817
属的植物	-10.3819
主唱	-10.382
幅	-10.3824
临时	-10.3825
其中包括	-10.3827
蒲	-10.3834
植	-10.3834
難以	-10.3837
三角	-10.3837
少數	-10.384
大会	-10.3842
▁7	-10.3848
質量	-10.385
終於	-10.3852
扮演	-10.3853
排列	-10.3858
93	-10.3875
态	-10.3875
团体	-10.3882
乡下辖以下地区	-10.3888
命名為	-10.3888
此事	-10.3888
發售	-10.3888
反而	-10.3889
记者	-10.389
銅	-10.3892
已被	-10.3892
举办	-10.3903
公斤	-10.3906
州刺史	-10.3911
垂	-10.3912
總督	-10.3912
一系列	-10.3914
彦	-10.3917
逾	-10.3919
燃料	-10.3921
晓	-10.3921
瓶	-10.3931
。2011	-10.3935
序列	-10.3937
三大	-10.3937
积	-10.3938
密度	-10.3941
司馬	-10.3941
謀	-10.3952
1930	-10.3953
放在	-10.3953
学科	-10.3959
遭遇	-10.396
青少年	-10.3962
稍	-10.3964
肥	-10.3967
避	-10.3968
平成	-10.397
作曲家	-10.3974
的力量	-10.3974
司令	-10.3975
巨大的	-10.398
個月	-10.3984
辰	-10.3984
經驗	-10.3985
cn	-10.3986
徒	-10.3991
三十	-10.3992
最低	-10.3992
1976	-10.3995
it	-10.3996
狀況	-10.4006
人工	-10.4008
劑	-10.4016
的情況下	-10.4017
裝甲	-10.4019
年前	-10.4019
為止	-10.4019
付	-10.4026
認識	-10.4026
隊長	-10.4029
督	-10.403
厄	-10.403
矿	-10.4031
处于	-10.4032
祖父	-10.4036
治疗	-10.4037
81	-10.4041
统	-10.4042
▁1996	-10.4043
电视台	-10.4044
教学	-10.4044
丙	-10.4045
试验	-10.4051
函數	-10.4052
殺死	-10.4053
「」	-10.4056
出了	-10.4057
柴	-10.4057
讨论	-10.4057
參選	-10.4062
化的	-10.4062
手段	-10.4065
城镇	-10.4067
最重要的	-10.4069
是法国	-10.4072
更是	-10.4072
天文	-10.4074
藉由	-10.4074
其實	-10.408
行政院	-10.4084
抽	-10.4088
规模	-10.4089
录	-10.409
廢除	-10.4091
類型	-10.4094
抵	-10.4098
婚	-10.4098
hant	-10.4099
▁9	-10.4099
上市	-10.41
运动员	-10.4112
條例	-10.4115
高雄市	-10.4116
特征	-10.4116
德拉	-10.412
票房	-10.412
兄	-10.4122
箭	-10.4123
伊拉克	-10.4127
过程中	-10.413
市中心	-10.4131
落成	-10.4134
政治家	-10.4136
地形	-10.4136
1972	-10.4139
脱	-10.4142
&	-10.4143
奧地利	-10.4143
推行	-10.4144
▁5	-10.4144
建议	-10.4145
四川省	-10.4145
豬	-10.4148
接壤	-10.4153
‘	-10.4157
會在	-10.4157
美洲	-10.4158
輔	-10.4162
胸	-10.4162
中間	-10.4163
可能會	-10.417
西班牙语	-10.4172
依照	-10.4174
但由於	-10.4176
江苏省	-10.4177
規則	-10.4179
管理局	-10.418
砂	-10.418
─	-10.4182
檔	-10.4182
則為	-10.4183
半島	-10.4189
猛	-10.4197
覺	-10.4205
規模	-10.4207
自此	-10.4209
▁1990	-10.4213
提及	-10.4213
奥地利	-10.4215
來源	-10.4216
明顯	-10.4217
北美	-10.4219
▁由于	-10.422
群岛	-10.4222
九年	-10.4223
稿	-10.4226
登上	-10.4227
收錄	-10.4231
腦	-10.4231
蛋白	-10.4235
。2019	-10.4236
职务	-10.424
以此	-10.4245
翻譯	-10.4245
颱風	-10.4248
忍	-10.4251
英格兰	-10.4258
尼亞	-10.4261
部長	-10.4269
泡	-10.4271
工厂	-10.4273
裂	-10.4273
那么	-10.4277
基金會	-10.428
遭受	-10.4282
卵	-10.4282
拍摄	-10.4287
亿元	-10.4288
心理	-10.4293
學系	-10.4296
00	-10.4298
原理	-10.4299
92	-10.4299
1973	-10.4301
很少	-10.4301
紐約	-10.4302
屈	-10.431
態	-10.4313
學園	-10.4316
击	-10.4319
调整	-10.4321
免費	-10.4322
靠近	-10.4326
嫁	-10.4326
打擊	-10.4326
獻	-10.4329
逮捕	-10.4332
危險	-10.4332
升任	-10.4338
戰車	-10.434
董事長	-10.4342
威脅	-10.4342
从事	-10.4344
撤退	-10.4346
個性	-10.4349
譚	-10.4352
高等	-10.4358
侍	-10.4363
700	-10.4366
印刷	-10.4368
▁台灣	-10.4368
旋	-10.4369
列入	-10.4369
▁1995	-10.4376
马尔	-10.4376
很大	-10.4379
辦公室	-10.4384
水库	-10.439
在北京	-10.4392
体系	-10.4393
测试	-10.4395
非法	-10.4395
參考	-10.4395
1920	-10.4397
殷	-10.4397
绍	-10.4398
首席	-10.4401
一份	-10.4401
=	-10.4407
负	-10.4411
地区的	-10.4412
×	-10.4413
翌年	-10.4415
女神	-10.4418
春秋	-10.4419
民主黨	-10.4421
整體	-10.4423
大致	-10.4425
鶴	-10.4429
第十	-10.4429
的发展	-10.4429
侧	-10.4434
并没有	-10.4436
贡	-10.4437
广东省	-10.4439
賜	-10.4439
神社	-10.4439
撞	-10.444
囊	-10.4442
動作	-10.4445
的存在	-10.4448
受傷	-10.4448
址	-10.4455
通訊	-10.4456
行走	-10.4463
则是	-10.4463
停靠	-10.4464
伟	-10.4464
餐	-10.4465
甫	-10.4465
辭	-10.4465
▁L	-10.4466
教师	-10.4468
广播	-10.447
弟子	-10.4472
男女	-10.4473
潔	-10.4474
昇	-10.4476
援助	-10.4478
统计	-10.4479
雀	-10.4481
炳	-10.4483
而不	-10.4485
鳴	-10.4489
th	-10.4492
提出了	-10.4494
平民	-10.4495
影像	-10.4495
人死亡	-10.4497
粵語	-10.4497
獎項	-10.4502
愛爾蘭	-10.4502
職務	-10.4504
族群	-10.4504
公司的	-10.4506
谱	-10.4507
st	-10.4512
動力	-10.4514
以南	-10.4515
演化	-10.4517
柔	-10.4517
廊	-10.4519
生存	-10.4521
編劇	-10.453
有着	-10.4531
1968	-10.4531
可是	-10.4535
来说	-10.4538
卡爾	-10.4539
戀	-10.454
绝	-10.4547
属下的一个种	-10.4551
1966	-10.4552
乔治	-10.4554
磨	-10.4554
车辆	-10.4554
DVD	-10.4554
會員	-10.4557
管轄	-10.4558
改名為	-10.4564
婆	-10.4564
。2006	-10.4566
顏色	-10.4568
的父親	-10.4568
經歷	-10.457
數據	-10.4572
殺害	-10.4573
il	-10.4576
母亲	-10.4578
劇情	-10.4583
意見	-10.4584
主題曲	-10.4585
后者	-10.4585
1974	-10.4586
as	-10.459
內閣	-10.4591
實現	-10.4593
更多的	-10.4596
天然	-10.4597
校友	-10.4597
尺	-10.4597
年到	-10.46
山地	-10.46
历任	-10.4605
登陸	-10.4605
不知	-10.4607
歷	-10.461
員工	-10.4613
偶像	-10.4618
實際上	-10.4625
蘇格蘭	-10.4625
消	-10.4627
烟	-10.4629
▁the	-10.463
子女	-10.4631
分校	-10.4633
紹	-10.4639
些	-10.464
──	-10.4641
05	-10.4644
慕	-10.4649
叫做	-10.4649
經由	-10.4651
一带	-10.4654
。2007	-10.4656
减	-10.4657
上下	-10.4658
加入了	-10.4662
下辖	-10.4663
定理	-10.467
四个	-10.4674
▁张	-10.4678
接著	-10.468
高级	-10.4681
1977	-10.4685
本名	-10.4688
在他	-10.469
廉	-10.4692
结婚	-10.4706
採取	-10.4707
▁自	-10.4708
人生	-10.4714
被視為	-10.4717
北平	-10.4718
遣	-10.4724
審	-10.4725
劇集	-10.4726
創造	-10.4726
回應	-10.4726
加強	-10.4736
藍色	-10.4741
起来	-10.4742
成就	-10.4744
擴大	-10.4747
杂	-10.4752
掌握	-10.4754
東京都	-10.4759
月底	-10.4761
虫	-10.4761
击败	-10.4766
兩種	-10.4767
嘗試	-10.4768
歷史上	-10.477
行駛	-10.477
繁	-10.4772
哲學	-10.4773
濱	-10.4779
动画	-10.4783
1941	-10.4783
渠	-10.4785
明星	-10.4787
私立	-10.4788
淳	-10.479
棒球	-10.479
巧	-10.4797
成立了	-10.4797
毕业	-10.4798
穩定	-10.4798
▁1994	-10.48
屏	-10.4801
细	-10.4803
有一個	-10.4808
▁1993	-10.4809
相反	-10.4814
山脈	-10.4815
檔案	-10.4817
擅長	-10.4818
顧	-10.4821
1967	-10.4822
錦標賽	-10.4823
警告	-10.4825
1969	-10.4826
发动	-10.4833
吊	-10.4837
碼	-10.4837
透露	-10.4838
沖	-10.4839
救援	-10.484
基础	-10.4841
喬治	-10.4841
逐步	-10.4842
大獎	-10.4843
武裝	-10.4849
大街	-10.4853
辆	-10.4854
man	-10.4857
貝爾	-10.4857
有時	-10.4858
學術	-10.486
德軍	-10.4862
榮譽	-10.4864
滕	-10.4865
契	-10.4868
起初	-10.4872
▁2023	-10.4872
-2	-10.4874
特拉	-10.4876
實行	-10.4878
▁南	-10.4878
肖	-10.488
指令	-10.4883
色彩	-10.4883
监	-10.4883
他也	-10.4885
眾多	-10.4887
指導	-10.4893
参加了	-10.4893
开通	-10.4898
律師	-10.4902
返	-10.4904
情報	-10.4906
修正	-10.4912
任期	-10.4913
▁8	-10.4914
基礎	-10.4916
超越	-10.4918
國語	-10.4919
盾	-10.492
朴	-10.492
防止	-10.4921
買	-10.4924
青岛	-10.4929
的地位	-10.493
評	-10.4931
收到	-10.4931
。2009	-10.4932
歲時	-10.4936
逼	-10.4937
坝	-10.4938
也因此	-10.4938
》(	-10.4947
主要的	-10.4948
身分	-10.4953
來往	-10.4955
率領	-10.4957
这次	-10.4961
共产党	-10.4961
众多	-10.4964
▁V	-10.497
被捕	-10.4974
觀光	-10.4976
污染	-10.4977
專門	-10.4977
堆	-10.4981
券	-10.4982
融	-10.4983
伸	-10.4984
施工	-10.4987
信徒	-10.4989
突	-10.4993
銘	-10.4999
西北部	-10.5001
測量	-10.5002
葬	-10.5002
构成	-10.5004
主管	-10.5007
爵	-10.5007
自殺	-10.5012
校園	-10.5015
刺激	-10.5019
首府	-10.5022
弟弟	-10.5024
学术	-10.5025
未有	-10.5027
收藏	-10.5031
煙	-10.5032
聯合國	-10.5032
四大	-10.5033
旧市镇	-10.5036
首度	-10.5037
应该	-10.5041
地名	-10.5041
親自	-10.5052
乱	-10.5054
的身份	-10.5054
领导人	-10.506
食用	-10.5061
戏	-10.5064
贵族	-10.5065
意識	-10.5068
韻	-10.5069
游泳	-10.5069
伦敦	-10.5069
补	-10.5073
多人	-10.5077
觀測	-10.5081
红色	-10.5083
策略	-10.5089
被认为是	-10.5092
現在的	-10.5096
傳媒	-10.5097
十字	-10.5099
日後	-10.5102
km	-10.5105
通常是	-10.5115
考試	-10.5115
享年	-10.5116
1971	-10.5117
赖	-10.5118
恆	-10.5125
▁根据	-10.5126
競爭	-10.5129
研	-10.513
年开始	-10.5137
移动	-10.5139
上帝	-10.5139
贺	-10.514
緊	-10.514
追求	-10.5143
億元	-10.5143
BBC	-10.5146
人民政府	-10.5147
这里	-10.515
藥物	-10.5152
關注	-10.5157
1964	-10.516
中间	-10.5162
薇	-10.5164
睡	-10.5166
茅	-10.5167
商店	-10.5168
東南	-10.517
金牌	-10.5175
他人	-10.5176
组合	-10.5177
的情況	-10.5179
议	-10.5181
▁此外	-10.5184
中华	-10.5187
澄	-10.5188
經典	-10.5189
满足	-10.5192
恐怖	-10.5194
▁高	-10.5201
小姐	-10.5202
以北	-10.5203
呈現	-10.5204
刑事	-10.5205
阿富汗	-10.5207
彌	-10.521
1965	-10.5212
大部份	-10.5214
像是	-10.5216
清水	-10.5216
秘	-10.5216
1952	-10.5217
任意	-10.5217
公眾	-10.5218
链	-10.5219
年被	-10.522
mm	-10.522
的發展	-10.5221
价值	-10.5222
早期的	-10.5223
▁三	-10.5223
舰队	-10.5224
國際機場	-10.5226
尼亚	-10.5227
ad	-10.5227
71	-10.5228
月起	-10.5229
AC	-10.5229
琉球	-10.5231
所在地	-10.5236
TV	-10.5237
新建	-10.5251
變得	-10.5253
广泛	-10.5255
都在	-10.5255
因應	-10.5256
。2012	-10.5263
十大	-10.5267
大幅	-10.5268
東西	-10.5269
伽	-10.527
巴基斯坦	-10.5271
巢	-10.5272
患	-10.5273
特性	-10.5274
代码为	-10.5276
利亞	-10.5277
之戰	-10.5278
的第一	-10.5278
溫度	-10.5279
芒	-10.5281
败	-10.5283
西南部	-10.5287
重量	-10.5289
【	-10.5295
編輯	-10.5303
真正的	-10.5304
是一颗围绕太阳公转的小行星	-10.5305
手中	-10.5306
替代	-10.5306
桓	-10.5308
此地	-10.5308
配置	-10.5317
通車	-10.5322
筒	-10.5322
智慧	-10.5326
就在	-10.5328
俗	-10.5329
增加了	-10.533
召开	-10.533
使用了	-10.533
灭	-10.5333
▁目前	-10.5334
一套	-10.5335
對象	-10.5336
隊伍	-10.5337
斯塔	-10.5338
公佈	-10.534
關閉	-10.5343
融合	-10.5344
樣	-10.5355
妹妹	-10.5361
人才	-10.5366
大眾	-10.5367
舉行的	-10.5368
3000	-10.5368
廣泛	-10.5369
鈴	-10.5369
邪	-10.5371
耐	-10.5371
精靈	-10.5372
天文台	-10.5373
路口	-10.5374
1959	-10.5384
銷量	-10.5384
衝	-10.5384
不得不	-10.5391
壓力	-10.5391
交換	-10.5392
射擊	-10.5393
攻打	-10.5394
1955	-10.5394
願	-10.5397
官至	-10.5398
▁作詞	-10.5401
跑道	-10.5401
温度	-10.5406
程式	-10.5406
困難	-10.5408
竟	-10.5412
恐龍	-10.5413
嘉靖	-10.5419
用来	-10.542
格式	-10.5421
乐队	-10.5421
传播	-10.5424
研究中心	-10.543
01	-10.543
驚	-10.5432
j	-10.5434
兩者	-10.5437
co	-10.5437
知識	-10.5438
束	-10.5441
一隻	-10.5444
考虑	-10.5446
針	-10.5449
研發	-10.5456
咖啡	-10.546
针对	-10.5461
哥哥	-10.5462
镜	-10.5462
謙	-10.5463
推廣	-10.5466
腿	-10.5468
公式	-10.5468
▁另外	-10.5471
順利	-10.5474
资	-10.5479
擬	-10.5483
珊	-10.5485
社会主义	-10.5485
顏	-10.5486
牆	-10.5488
爭取	-10.5492
围	-10.5493
原先	-10.5497
▁11	-10.5497
分支	-10.5497
什么	-10.5497
沿海	-10.55
方程	-10.5501
几个	-10.5503
正是	-10.5504
ch	-10.5505
▁J	-10.5505
俠	-10.5508
聘	-10.5509
示	-10.551
1961	-10.5514
权力	-10.5515
彼此	-10.5516
评论	-10.5517
格拉	-10.552
加工	-10.552
質疑	-10.552
组建	-10.5524
幸福	-10.5524
所屬	-10.5528
科學家	-10.5529
光緒	-10.5531
规则	-10.5533
▁1949	-10.5534
幹	-10.5535
回歸	-10.5536
课程	-10.5539
尼斯	-10.554
形成了	-10.5542
ISTAT	-10.555
婚姻	-10.5554
▁I	-10.557
請求	-10.557
並無	-10.5572
通知	-10.5573
殘	-10.5574
am	-10.5575
原有	-10.5578
卜	-10.558
如同	-10.5584
袋	-10.5588
冲突	-10.5593
姑	-10.5595
宣告	-10.5599
战略	-10.5603
失败	-10.5606
入口	-10.5606
準	-10.5608
暫時	-10.5609
1944	-10.5621
外國	-10.5622
坤	-10.5624
学会	-10.5626
理想	-10.5627
親王	-10.563
1962	-10.563
ン	-10.5631
世界上	-10.5632
候	-10.5639
贵州	-10.5642
的一座	-10.5643
联系	-10.5643
la	-10.5648
。2018	-10.5649
劇場	-10.5653
專家	-10.5654
發布	-10.5655
东方	-10.5655
钦	-10.5657
农民	-10.5658
来到	-10.5658
髮	-10.566
病逝	-10.566
一生	-10.566
允許	-10.5661
祠	-10.5662
高達	-10.5663
在台灣	-10.5668
最近	-10.5668
帶來	-10.567
徑	-10.5674
好友	-10.5675
一旦	-10.5679
装置	-10.5682
首相	-10.5684
联合国	-10.5688
幾個	-10.5691
管制	-10.5692
垂直	-10.5694
键	-10.5697
在上海	-10.5697
明代	-10.5699
1957	-10.57
大同	-10.57
销售	-10.5701
同步	-10.5704
的意思	-10.5705
尋	-10.5706
從此	-10.5707
裡的	-10.571
劇本	-10.5711
候選人	-10.5714
碎	-10.5715
扇	-10.5716
主流	-10.572
鸡	-10.5726
id	-10.5727
以便	-10.5729
河南省	-10.5734
▁雖然	-10.5739
奔	-10.5743
锦	-10.5744
阿里	-10.5745
主张	-10.575
棘	-10.575
un	-10.575
上面	-10.5753
過程中	-10.5757
同志	-10.576
有一个	-10.5761
肩	-10.5779
▁1992	-10.5781
餐廳	-10.5782
航班	-10.5782
DNA	-10.5783
幻	-10.5783
拱	-10.5784
抗議	-10.5785
仪式	-10.5786
办公室	-10.5786
一方	-10.5791
1946	-10.5792
就有	-10.5794
連結	-10.5795
顾	-10.5796
现象	-10.5797
福建省	-10.5803
信號	-10.5806
纸	-10.5806
创建	-10.5809
矣	-10.5811
袭击	-10.5811
因其	-10.5816
女主角	-10.5817
装备	-10.5819
眼睛	-10.5824
逢	-10.5826
天空	-10.5828
技巧	-10.583
的情况下	-10.5837
泛	-10.5837
之上	-10.5837
喝	-10.5839
校长	-10.5841
勳	-10.5841
櫻	-10.5841
舌	-10.5843
观众	-10.5843
批判	-10.5844
維爾	-10.5846
引用	-10.5848
。2005	-10.5848
-3	-10.5853
周年	-10.5854
看見	-10.5854
誤	-10.5859
覆盖	-10.586
即可	-10.5863
形容	-10.5865
大桥	-10.5871
通行	-10.5874
宣言	-10.5881
α	-10.5881
2.5	-10.5886
重視	-10.5888
歲的	-10.589
隐	-10.5893
柄	-10.5895
胜利	-10.5897
PS	-10.59
後者	-10.59
水域	-10.59
直播	-10.5902
这样的	-10.5902
貢	-10.5905
早年	-10.5907
各國	-10.5909
根本	-10.5912
时任	-10.5916
羅斯	-10.592
汉族	-10.5921
漢字	-10.5921
术	-10.5922
布拉	-10.5924
斌	-10.5924
寇	-10.5928
壯	-10.5929
元朝	-10.5929
相当	-10.5929
同學	-10.593
尽	-10.5931
適合	-10.5931
入選	-10.5933
全世界	-10.5933
抗日	-10.5936
北宋	-10.5939
06	-10.5939
沿岸	-10.5947
參賽	-10.5948
學名	-10.5952
訂	-10.5952
湖北省	-10.5953
地域	-10.5953
IC	-10.5954
市長	-10.5954
透	-10.5956
解除	-10.5957
證實	-10.5958
臺中	-10.5959
日下午	-10.596
檢	-10.5965
91	-10.5967
肯定	-10.5968
拖	-10.597
250	-10.5972
國民政府	-10.5977
抱	-10.5978
指控	-10.5983
贝尔	-10.5984
稱呼	-10.5985
欽	-10.5985
損失	-10.5988
十七	-10.5991
拿下	-10.5993
预	-10.5999
五十	-10.6003
征服	-10.6004
-5	-10.6005
月初	-10.6005
出自	-10.6007
防守	-10.6007
三次	-10.6014
遜	-10.6016
130	-10.6018
財政	-10.6019
完工	-10.6027
劫	-10.6028
王室	-10.6038
蓬	-10.6038
错	-10.604
人数	-10.6041
象徵	-10.6043
的成員	-10.6043
的作用	-10.6049
即位	-10.6049
誰	-10.6049
係	-10.6054
1956	-10.6057
um	-10.6057
電台	-10.6057
市的	-10.6062
都被	-10.6063
淮	-10.6065
鄰近	-10.6065
市政府	-10.6067
塞尔	-10.607
齡	-10.607
聚集	-10.607
專用	-10.6073
覺得	-10.6074
打破	-10.6079
ta	-10.608
了一个	-10.6081
是因為	-10.6081
该物种的模式产地在	-10.6084
传说	-10.6084
差異	-10.6086
山區	-10.6087
有許多	-10.609
近年	-10.609
這樣的	-10.6091
分別為	-10.6092
一天	-10.6093
劳动	-10.6093
奧運	-10.6094
用以	-10.6097
熟	-10.6097
未来	-10.6098
▁西	-10.6101
測	-10.6101
愛情	-10.6101
成熟	-10.6104
居住在	-10.6104
保險	-10.6105
筑	-10.6105
僅有	-10.6108
改編	-10.6111
ine	-10.6112
芝加哥	-10.6113
戰略	-10.6115
偷	-10.6116
分成	-10.6116
脫離	-10.6117
的兒子	-10.6118
高原	-10.6121
克拉	-10.6122
惡魔	-10.6123
奪	-10.6123
就可以	-10.6127
多数	-10.6128
緊急	-10.6128
攝影	-10.6129
之地	-10.6129
仓	-10.6132
」；	-10.6133
醇	-10.6136
電話	-10.614
造型	-10.6144
训	-10.6149
至於	-10.615
兔	-10.615
110	-10.6151
的母親	-10.6151
生長	-10.6155
虞	-10.6158
南昌	-10.6158
重返	-10.6162
姐	-10.6163
采取	-10.6165
丹麥	-10.6167
官方网站	-10.6168
祿	-10.617
氣候	-10.6172
時段	-10.6173
綫	-10.6173
娃	-10.6174
脑	-10.6176
是意大利	-10.6178
同名	-10.6188
ie	-10.619
亞歷山大	-10.6192
首任	-10.6196
140	-10.6201
专门	-10.6202
猪笼草	-10.6202
俄国	-10.6202
医	-10.6206
阻	-10.6209
利亚	-10.6211
以西	-10.6214
與其	-10.622
鼓勵	-10.6223
循環	-10.6224
台中	-10.6226
气候	-10.6227
高山	-10.6228
領土	-10.6228
對此	-10.6229
技能	-10.6229
億美元	-10.6231
也可	-10.6233
反抗	-10.6234
太原	-10.6235
研究院	-10.6236
反映	-10.6236
及其他	-10.6237
壞	-10.624
对象	-10.6241
课	-10.6243
等級	-10.6245
已於	-10.6247
备	-10.6257
纽约	-10.6259
告訴	-10.6264
以上的	-10.6265
终	-10.6268
领袖	-10.6268
州市	-10.6268
之名	-10.6274
探索	-10.6274
勝出	-10.628
斯克	-10.6284
贈	-10.6293
分離	-10.63
献	-10.6302
霧	-10.6308
考察	-10.6308
ー	-10.631
▁1991	-10.6312
辉	-10.6315
帽	-10.6315
漫画	-10.6321
万元	-10.6324
新增	-10.6324
用戶	-10.6326
主题	-10.6327
校舍	-10.6331
俱樂部	-10.6332
基督	-10.6334
财政	-10.6334
定期	-10.6334
帶有	-10.6334
一郎	-10.6339
效	-10.6342
另一个	-10.6343
召開	-10.6347
哀	-10.6349
▁N	-10.6351
法令	-10.6352
每次	-10.6353
1943	-10.6353
邀请	-10.6355
to	-10.6357
身為	-10.6358
分类	-10.6359
身体	-10.6359
介绍	-10.636
莲	-10.6367
当时的	-10.6368
仇	-10.637
蒋	-10.6372
西亞	-10.6373
知识	-10.6373
▁白	-10.6373
▁1980	-10.6376
島嶼	-10.6377
的歷史	-10.6379
結束後	-10.6381
插	-10.6381
国立	-10.6383
兩次	-10.6383
實力	-10.6384
干部	-10.6386
釋放	-10.6387
重点	-10.6389
犹太人	-10.639
幽	-10.639
臂	-10.6396
斬	-10.6397
懷疑	-10.64
千米	-10.64
公社	-10.6405
总督	-10.6409
的历史	-10.6413
蜜	-10.6427
絕對	-10.6433
涼	-10.6437
檢查	-10.6437
呢	-10.6437
换	-10.6438
穗	-10.6438
臉	-10.6443
清朝政治人物	-10.6443
方面的	-10.6444
翻译	-10.6445
良好	-10.6445
完成了	-10.6446
希特勒	-10.6448
地址	-10.645
外国	-10.645
5000	-10.6451
詹	-10.6455
樂隊	-10.6465
1942	-10.6469
面前	-10.6472
1953	-10.6477
選出	-10.6477
04	-10.6477
成人	-10.6477
仍有	-10.6477
禄	-10.6479
布朗	-10.648
迫使	-10.6488
爭	-10.6488
站台	-10.6489
型態	-10.649
登記	-10.649
女人	-10.6492
札	-10.6494
齋	-10.6495
新城	-10.6496
預計	-10.65
样	-10.6501
大量的	-10.6502
加州	-10.6506
眾人	-10.6506
民众	-10.6507
物种	-10.6508
苏州	-10.651
稳定	-10.6512
響	-10.6512
长沙	-10.6512
竣工	-10.6514
下來	-10.6515
殖民	-10.6515
胎	-10.6515
吻	-10.6517
澳大利亞	-10.6518
分解	-10.6518
以外的	-10.652
安徽省	-10.652
资金	-10.6522
物品	-10.6523
南宋	-10.6524
开展	-10.6525
眉	-10.6527
除此之外	-10.6527
武装	-10.6529
北魏	-10.6529
事业	-10.653
瀨	-10.6532
區的	-10.6535
神經	-10.6541
具体	-10.6543
诚	-10.655
是美國	-10.6553
庵	-10.6555
黃色	-10.6557
唇	-10.6561
测量	-10.6562
的支持	-10.6563
五月	-10.6567
隶属于	-10.657
上方	-10.6571
回答	-10.6571
”）	-10.6572
之意	-10.6572
同日	-10.6574
間的	-10.6575
大楼	-10.6577
一詞	-10.658
鄂	-10.658
原來	-10.6585
次子	-10.6588
出戰	-10.6589
吸	-10.6591
南至	-10.6592
出入口	-10.6596
捷克	-10.6598
乌克兰	-10.66
ro	-10.6601
開辦	-10.6606
天津市	-10.6608
170	-10.6608
山区	-10.661
一架	-10.661
维持	-10.6611
爪	-10.6611
07	-10.6611
突出	-10.6612
阿拉	-10.6612
映	-10.6615
連載	-10.6618
做為	-10.662
请求	-10.662
的設計	-10.6622
1938	-10.6623
不但	-10.6625
足球俱乐部	-10.6626
戰鬥機	-10.6628
帶著	-10.663
出现了	-10.663
事情	-10.6631
一路	-10.6633
li	-10.6634
棟	-10.6636
年後	-10.6637
搭	-10.6638
尤其	-10.6639
壇	-10.6639
1948	-10.6641
新界	-10.6643
悟	-10.6645
缅甸	-10.6648
簽約	-10.6651
黑人	-10.6653
山東	-10.6654
祝	-10.6656
捷運	-10.6659
09	-10.6666
舟	-10.6666
繁殖	-10.6668
身高	-10.667
矛盾	-10.6672
聲音	-10.6672
逻辑	-10.6674
辞	-10.6675
定律	-10.6676
迦	-10.6678
▁周	-10.6678
企圖	-10.6679
抵达	-10.668
簽署	-10.6682
危	-10.6683
他还	-10.6684
長度	-10.6686
邵	-10.6687
會有	-10.6693
沙田	-10.6696
赞	-10.6697
區內	-10.6699
包圍	-10.67
lo	-10.6702
首個	-10.6702
違反	-10.6704
國家隊	-10.6706
▁前	-10.6707
大衛	-10.6708
挂	-10.671
便是	-10.6711
国民	-10.6711
並與	-10.6718
俱	-10.6719
▁1988	-10.6719
照顧	-10.6719
記憶	-10.6722
新北市	-10.6722
煤	-10.6724
軌	-10.6729
的歌曲	-10.6731
襄	-10.6732
單元	-10.6733
百姓	-10.6735
薪	-10.6738
指导	-10.6739
兩名	-10.6739
太后	-10.6742
展开	-10.6745
国际机场	-10.6748
拯救	-10.6749
向量	-10.6752
安裝	-10.6759
明显	-10.6762
发出	-10.6762
特別是	-10.6764
周邊	-10.6765
當天	-10.6766
小组	-10.6766
飛彈	-10.6768
ma	-10.6769
审	-10.677
▁1989	-10.6771
猴	-10.6774
两次	-10.6776
下列	-10.6777
羽毛球	-10.6777
的其中一種	-10.6777
特别是	-10.6777
INSEE	-10.6778
▁de	-10.678
股份	-10.6782
接触	-10.6782
任職	-10.6782
的基本	-10.6783
市镇编码为	-10.6785
整理	-10.679
ter	-10.679
豹	-10.6791
天體	-10.6797
大橋	-10.6799
交流道	-10.6799
勸	-10.68
前者	-10.6801
式的	-10.6804
者的	-10.6807
两种	-10.6808
1%	-10.6809
總站	-10.681
-10	-10.6816
顾问	-10.6817
美術	-10.6819
即是	-10.682
▁除了	-10.6824
1963	-10.6826
鞋	-10.6827
改良	-10.6828
出现在	-10.6829
议员	-10.683
于时的人口数量为人	-10.6831
缘	-10.6836
的邮政编码为	-10.6838
原則	-10.684
平行	-10.6842
的一些	-10.6844
搜索	-10.6847
傳奇	-10.6849
的國家	-10.6852
合唱	-10.6859
等待	-10.6859
谈	-10.6861
德意志	-10.6863
製作人	-10.6871
势力	-10.6872
填	-10.6875
遗	-10.6876
售	-10.6878
1937	-10.6878
猪	-10.6884
跟隨	-10.6885
軟	-10.6887
促進	-10.6891
長達	-10.6892
鋒	-10.6893
延長	-10.6894
本片	-10.6896
防禦	-10.6898
乎	-10.6902
扣	-10.6903
首播	-10.6904
内蒙古	-10.6905
加速	-10.6908
女孩	-10.691
当年	-10.691
屯門	-10.6911
广告	-10.6911
她們	-10.6913
生活在	-10.692
不受	-10.692
消滅	-10.6921
列出	-10.6923
押	-10.6924
日語	-10.6924
符号	-10.6927
不敢	-10.6928
铺	-10.6929
四世	-10.693
丹麦	-10.6932
吉林	-10.6932
傷害	-10.6933
開業	-10.6933
实际上	-10.6934
第三次	-10.694
02	-10.6946
人權	-10.6949
姊妹	-10.6952
宿舍	-10.6956
胶	-10.6957
符號	-10.6957
覆	-10.6957
1951	-10.6959
合法	-10.696
分布在	-10.696
十一年	-10.6964
兩位	-10.6965
祭祀	-10.6965
穿著	-10.697
每一	-10.697
ic	-10.6975
成分	-10.6977
评	-10.6979
堅持	-10.698
取得了	-10.6981
收費	-10.6983
大夫	-10.6995
臺中市	-10.6996
te	-10.6998
不知道	-10.6998
民间	-10.7
若干	-10.7002
膠	-10.7004
建有	-10.7005
委託	-10.7006
ar	-10.7008
大賽	-10.7011
吨	-10.7011
宁波	-10.7012
内的	-10.7014
有可能	-10.7015
司马	-10.7016
▁截至	-10.7017
覆蓋	-10.7017
下方	-10.7019
同時也	-10.702
慎	-10.7021
尼克	-10.7022
革	-10.7024
釋	-10.7025
球迷	-10.7025
积极	-10.7026
son	-10.7026
旭	-10.703
可以指	-10.703
先前	-10.7035
的儿子	-10.7038
的土地	-10.7039
实验室	-10.7043
的女兒	-10.7044
豫	-10.7049
文獻	-10.7052
一场	-10.7053
供應	-10.7059
簽訂	-10.706
山脉	-10.7062
埃尔	-10.7063
错误	-10.7065
所属的省级选区为	-10.7066
性質	-10.7067
手術	-10.7067
馬克	-10.7068
氢	-10.7069
▁1987	-10.707
争议	-10.7074
优秀	-10.7075
安娜	-10.7082
ra	-10.7085
曾被	-10.7085
輻射	-10.7086
的事情	-10.7087
其子	-10.7088
经验	-10.7097
残	-10.7098
鹤	-10.7099
兵力	-10.7099
怕	-10.71
冈	-10.7101
也能	-10.7101
东京	-10.7108
动力	-10.711
坚	-10.7114
佑	-10.7114
庶	-10.7117
沼	-10.7118
表达	-10.7118
至此	-10.7119
殼	-10.712
3%	-10.712
分別是	-10.7121
AT	-10.7122
兩年	-10.7123
大批	-10.7125
著有	-10.7125
了一個	-10.7126
深入	-10.7128
從而	-10.713
部署	-10.7133
宴	-10.7133
地中海	-10.7133
是美国	-10.7141
量子	-10.7142
併入	-10.7144
溝	-10.7149
观察	-10.7149
纹	-10.7151
婦女	-10.7153
。2004	-10.7158
发动机	-10.7159
客运	-10.7161
大師	-10.7162
前後	-10.7164
跡	-10.7166
永久	-10.7168
腰	-10.7171
開幕	-10.7171
诗人	-10.7172
蝶	-10.7173
走向	-10.7176
剪	-10.7177
灌	-10.7179
十月	-10.718
山东省	-10.7184
出来	-10.7185
棄	-10.7185
崇拜	-10.7186
ir	-10.7188
人文	-10.7189
聰	-10.7189
流域	-10.719
沈阳	-10.719
立法院	-10.7191
。2016	-10.7192
*	-10.7193
淵	-10.7193
1947	-10.7196
明确	-10.7196
功率	-10.7197
山坡	-10.7198
的人口	-10.7198
进士	-10.7204
新竹	-10.7205
均有	-10.7206
顆	-10.7209
大正	-10.7211
较为	-10.7211
1939	-10.7213
珀	-10.7214
偶	-10.7223
十二年	-10.7226
氯	-10.7228
其余	-10.723
学家	-10.7236
責任	-10.7238
草原	-10.7239
模仿	-10.7243
有时	-10.7244
接壤的市镇	-10.7247
继承	-10.7248
蟹	-10.725
栗	-10.7256
一面	-10.7257
出發	-10.7258
改称	-10.7259
注册	-10.726
de	-10.726
簡單	-10.7265
作詞	-10.7266
赐	-10.7266
发现了	-10.7267
參賽者	-10.7268
感情	-10.727
早在	-10.727
粒	-10.7273
球季	-10.7275
闻	-10.7277
省份	-10.7279
晨	-10.7279
裁	-10.728
路线	-10.7281
晚期	-10.7281
年任	-10.7282
▁刘	-10.7282
卫生	-10.7283
虚	-10.7284
充滿	-10.7285
儿子	-10.7285
原型	-10.7286
申请	-10.7288
繪	-10.7288
一片	-10.7289
鄰	-10.7289
無人	-10.7291
曾於	-10.7291
就任	-10.7294
身亡	-10.7295
不仅	-10.7296
也曾	-10.7298
園區	-10.7299
配音員	-10.7299
…	-10.73
權利	-10.7301
死后	-10.7301
英軍	-10.7303
強烈	-10.7303
禹	-10.7304
聲稱	-10.7308
▁Re	-10.7314
哭	-10.7315
考试	-10.7315
多名	-10.7324
十三年	-10.7326
垣	-10.7326
設於	-10.7327
平等	-10.7329
Windows	-10.7333
▁陈	-10.7334
改建	-10.734
暖	-10.7342
巫	-10.7343
夾	-10.7344
愈	-10.7345
死於	-10.7345
的妻子	-10.7349
享有	-10.735
崖	-10.7351
定位	-10.7352
梯	-10.7353
病人	-10.7354
1954	-10.7354
消防	-10.7355
ur	-10.7356
古巴	-10.7357
累	-10.7358
迈	-10.7362
地圖	-10.7362
反射	-10.7362
了一	-10.7363
帆	-10.7365
马克	-10.7365
ri	-10.7378
▁X	-10.7379
本作	-10.7384
亞軍	-10.7387
月份	-10.7389
▁當	-10.7392
途經	-10.7395
三位	-10.7401
泰国	-10.7402
关闭	-10.7405
保羅	-10.7408
觉	-10.741
副主任	-10.741
空氣	-10.741
题	-10.7412
旧址	-10.7415
海南	-10.7417
外部	-10.7418
甘肃	-10.7424
平定	-10.7425
爱尔兰	-10.7429
有很多	-10.7431
事後	-10.7434
整体	-10.7434
指的是	-10.7435
監製	-10.7436
可以用	-10.7437
日正式	-10.7438
生態	-10.7438
九州	-10.7441
最多的	-10.7442
成绩	-10.7442
授權	-10.7442
亿美元	-10.7443
巡	-10.7444
武士	-10.7444
创	-10.7444
耕	-10.7447
獲得了	-10.7448
国民党	-10.7448
炸彈	-10.7451
扩大	-10.7451
损失	-10.7451
当局	-10.746
-7	-10.7467
地上	-10.7467
讓他	-10.7468
事物	-10.7472
臺南市	-10.7473
年時	-10.7476
線的	-10.7476
敢	-10.7476
說法	-10.7481
沙漠	-10.7482
组成的	-10.7483
罕	-10.7483
拆	-10.7484
外表	-10.7485
一間	-10.7487
這項	-10.7489
名人	-10.749
库尔	-10.749
小孩	-10.749
说明	-10.7494
四月	-10.7496
的关系	-10.7503
機制	-10.7503
菲律宾	-10.7508
并未	-10.7509
启	-10.7513
中國國民黨	-10.7513
慈善	-10.7514
秉	-10.7514
书记	-10.7514
工作室	-10.7515
荃灣	-10.7516
秩序	-10.7518
》《	-10.7519
的消息	-10.7519
中期	-10.7522
Google	-10.7522
費用	-10.7523
種類	-10.7527
吐	-10.7529
入选	-10.753
其父	-10.753
仕	-10.7531
約為	-10.7533
农村	-10.7534
的要求	-10.7535
添	-10.7536
外界	-10.7536
900	-10.7537
轨	-10.7538
轉換	-10.754
軍官	-10.7541
的行為	-10.7542
。2003	-10.7548
常用	-10.7548
發揮	-10.7548
蜂	-10.7548
▁饰	-10.7548
总部	-10.7549
訪	-10.7552
ul	-10.7555
老人	-10.7556
事實上	-10.7558
扶	-10.7559
更改	-10.7561
踢	-10.7563
基督徒	-10.7565
涉	-10.7566
▁天	-10.7568
宣稱	-10.7575
一群	-10.7576
價格	-10.7577
多年	-10.7578
盆地	-10.7578
内阁	-10.7588
的世界	-10.7591
衛生	-10.7593
专区	-10.7596
艺	-10.7597
道教	-10.7598
辽宁	-10.7601
研究生	-10.7604
发起	-10.7607
伐	-10.7608
俗稱	-10.7608
架構	-10.7611
普及	-10.7613
包含了	-10.7615
ne	-10.7615
輔助	-10.7615
增長	-10.7617
丈	-10.7618
總是	-10.7619
▁中國	-10.7622
国民政府	-10.7622
女演員	-10.7625
▁此	-10.7626
仍在	-10.7626
中华人民共和国政治人物	-10.763
布里	-10.7631
對應	-10.7635
分布於	-10.7637
預	-10.7639
德尔	-10.7643
猫	-10.7644
08	-10.7647
恨	-10.7648
誕生	-10.7648
歡迎	-10.7649
證據	-10.7651
元音	-10.7651
發明	-10.7654
主權	-10.7656
割	-10.7656
品質	-10.7656
淨	-10.7657
日本人	-10.7658
角度	-10.766
曾是	-10.7662
戏剧	-10.7663
戰術	-10.7664
一所	-10.7664
-8	-10.7664
頭部	-10.7666
氮	-10.7667
練	-10.7669
IP	-10.7669
的问题	-10.7674
1900	-10.7674
编辑	-10.7675
葡萄牙语	-10.7675
最高法院	-10.7676
8%	-10.7676
但是在	-10.7677
材	-10.7678
發佈	-10.7679
福特	-10.7679
成立於	-10.768
貢獻	-10.7682
複	-10.7682
划归	-10.7683
闽	-10.7683
之父	-10.7683
出來的	-10.7687
巨人	-10.7687
註冊	-10.7692
披	-10.7692
中環	-10.7698
航線	-10.77
芙	-10.7701
桃園	-10.7701
施行	-10.7702
里斯	-10.7702
3.5	-10.7703
創辦	-10.7703
展覽	-10.7711
主場	-10.7711
什麼	-10.7712
裴	-10.7713
高地	-10.7714
保证	-10.7714
é	-10.7715
王后	-10.7715
匹	-10.7715
须	-10.7716
即將	-10.772
上游	-10.7722
河北省	-10.7723
投手	-10.7723
姓氏	-10.7729
昆明	-10.773
七月	-10.7732
國軍	-10.7733
关注	-10.7734
股票	-10.7736
娱乐	-10.7739
▁美國	-10.7739
多种	-10.7742
穆罕默德	-10.7742
可見	-10.7743
資金	-10.7745
夕	-10.7746
ent	-10.7746
算法	-10.7748
na	-10.7749
册	-10.775
）、《	-10.7751
公交	-10.7752
提前	-10.7752
賊	-10.7763
导弹	-10.7763
氣體	-10.7765
不可能	-10.7766
▁1986	-10.7768
禪	-10.7772
兩國	-10.7773
假設	-10.7775
交换	-10.7776
聖經	-10.7778
百萬	-10.778
全长	-10.7781
主動	-10.7785
原作	-10.7785
臺南	-10.7785
os	-10.7789
文献	-10.7789
名单	-10.7791
岩石	-10.7792
在中国大陆	-10.7793
並由	-10.7793
福利	-10.7798
騰	-10.7798
香港政府	-10.78
率领	-10.78
的功能	-10.7801
光绪	-10.7801
的學生	-10.7802
大连	-10.7804
十一月	-10.7807
認同	-10.7811
过去	-10.7813
完整的	-10.7814
使他	-10.7817
捕	-10.7819
染	-10.782
。2015	-10.7822
领土	-10.7822
1933	-10.7823
范围内	-10.7825
鎖	-10.7832
對外	-10.7832
董事	-10.7834
體系	-10.7834
卖	-10.7834
十九	-10.7837
八月	-10.7843
對戰	-10.7844
尊重	-10.7844
坛	-10.7847
串	-10.7847
單一	-10.7851
組成的	-10.7853
位于中国	-10.7854
科学家	-10.7854
烏克蘭	-10.7854
更為	-10.7854
迫	-10.7855
因此在	-10.7857
-21	-10.7859
泰勒	-10.786
的速度	-10.7861
談判	-10.7863
检查	-10.7866
多種	-10.7866
成立于	-10.7868
則在	-10.7868
聯繫	-10.7869
吏	-10.7875
的事	-10.7877
降落	-10.788
挺	-10.7881
拼	-10.7881
哉	-10.7883
不如	-10.7883
基隆	-10.7886
恐	-10.7887
認	-10.789
MS	-10.789
議題	-10.7892
第一屆	-10.7894
引发	-10.7896
劃	-10.7896
现有	-10.7902
坚持	-10.7902
左翼	-10.7903
委任	-10.7904
码	-10.7905
1.2	-10.7905
代码	-10.7905
03	-10.791
復興	-10.7912
洛杉磯	-10.7913
交往	-10.7915
花园	-10.7916
相當於	-10.7917
分离	-10.7919
ge	-10.7928
西路	-10.7931
带有	-10.7933
放送	-10.7933
附屬	-10.794
东风	-10.7942
辦理	-10.7944
乘坐	-10.7945
唐代	-10.795
失去了	-10.7951
se	-10.7952
供奉	-10.7952
女儿	-10.7953
日上午	-10.7954
滨	-10.7956
鍵	-10.7957
已知	-10.7959
浅	-10.796
屍	-10.7964
穿越	-10.7964
藻	-10.7971
六十	-10.7972
物體	-10.7974
中被	-10.7974
土壤	-10.7975
一百	-10.7977
SP	-10.798
訊號	-10.7982
歐盟	-10.7983
外觀	-10.7983
齿	-10.7985
岁的	-10.7986
適	-10.7986
末期	-10.7986
慕容	-10.799
喜欢	-10.799
故障	-10.7991
啟動	-10.7992
學家	-10.7992
早上	-10.7993
评价	-10.7993
培养	-10.7996
笛	-10.7999
隶属	-10.8
1,000	-10.8001
往返	-10.8003
騎兵	-10.8005
得主	-10.8006
詳細	-10.8008
以為	-10.8009
仰	-10.8009
年后	-10.8018
聲明	-10.802
神父	-10.8022
鑑	-10.8023
接管	-10.8023
織	-10.8026
發動機	-10.803
守護	-10.8031
示威	-10.8032
容量	-10.8032
首批	-10.8036
當日	-10.8038
阳县	-10.8041
翅	-10.8042
TVB	-10.8043
自稱	-10.8047
尺寸	-10.8049
医疗	-10.8049
2,	-10.8052
经典	-10.8056
。2002	-10.8056
封面	-10.8056
-4	-10.8056
面向	-10.806
都可以	-10.8061
長子	-10.8064
則有	-10.8064
優勢	-10.8064
查理	-10.8064
初年	-10.8065
思考	-10.8068
職位	-10.807
礦	-10.8074
...	-10.8074
软	-10.8075
典型的	-10.8078
他被	-10.8078
在位	-10.8081
立刻	-10.8085
試驗	-10.8087
妇女	-10.8087
图像	-10.809
立法會	-10.8091
黄金	-10.8091
不需要	-10.8092
河口	-10.8095
戀愛	-10.8096
任天堂	-10.8099
支流	-10.8099
激	-10.8101
田中	-10.8108
改稱	-10.8109
頻率	-10.811
詩人	-10.8111
7%	-10.8112
肇	-10.8113
地图	-10.8113
是一部	-10.8117
戎	-10.8119
村民	-10.8119
氫	-10.8121
但其	-10.8122
货运	-10.8122
均为	-10.8123
該校	-10.8124
哈利	-10.8129
。2014	-10.8129
第一名	-10.813
復活	-10.8131
县城	-10.8132
外交部	-10.8137
滿足	-10.814
伴	-10.8141
赢得	-10.8142
公告	-10.8144
又有	-10.8146
协助	-10.8146
涉嫌	-10.8149
強化	-10.8151
▁朱	-10.8154
▁1985	-10.8155
▁吳	-10.8156
執政	-10.8158
的不同	-10.8158
隸屬	-10.8161
半岛	-10.8162
滩	-10.8167
基本上	-10.8168
升級	-10.817
提交	-10.8171
扁	-10.8171
穴	-10.8172
盒	-10.8175
意義	-10.8178
之際	-10.8186
抓	-10.8187
妖怪	-10.8188
台南	-10.8191
地点	-10.8193
世代	-10.8194
，2009	-10.8196
新型	-10.8199
PC	-10.8206
叉	-10.8207
宋朝	-10.8207
配備	-10.8209
声称	-10.8209
葵	-10.8209
友好	-10.821
货	-10.821
周边	-10.8211
魁	-10.8213
罗斯	-10.8213
播映	-10.8214
芬蘭	-10.8214
买	-10.8215
出場	-10.8218
▁1984	-10.8219
場地	-10.8225
衍	-10.8226
护	-10.8229
郁	-10.8231
規	-10.8234
維護	-10.8236
赛事	-10.8239
予以	-10.8239
本部	-10.824
烧	-10.8242
斗争	-10.8244
的最高	-10.8244
困难	-10.8246
遼	-10.8249
人氣	-10.8249
陀	-10.825
自主	-10.8255
参谋长	-10.8258
雅典	-10.8262
购买	-10.8263
天氣	-10.8265
酷	-10.8267
拓	-10.8268
原料	-10.827
聯絡	-10.8273
呼吸	-10.8274
縣人	-10.8274
理念	-10.8275
消除	-10.8275
撰寫	-10.8278
格雷	-10.8279
谋	-10.8281
東亞	-10.8282
解放军	-10.8282
彼	-10.8285
在中國	-10.8288
朔	-10.829
娶	-10.8293
判決	-10.8295
创办	-10.8295
并非	-10.8296
▁1950	-10.8296
苯	-10.8296
天地	-10.8297
年輕	-10.8301
歇	-10.8301
都督	-10.8302
紧	-10.8305
抑制	-10.8307
樂器	-10.8309
週期	-10.8311
▁1945	-10.8311
周围	-10.8313
戰場	-10.8313
輸出	-10.8313
俞	-10.8316
。2017	-10.8317
经历	-10.8317
南斯拉夫	-10.8321
幣	-10.8323
室內	-10.8323
畫面	-10.8328
不满	-10.8329
第一代	-10.833
教区	-10.8331
移居	-10.8334
光明	-10.8342
糧	-10.8344
ard	-10.8345
圭	-10.8345
無限	-10.8348
砖	-10.8349
第一部	-10.835
mo	-10.8351
江西省	-10.8351
腺	-10.8353
在第	-10.8353
在這	-10.8355
年代初	-10.8356
苏格兰	-10.8357
加强	-10.8357
堀	-10.8361
後方	-10.8363
阶	-10.8365
性別	-10.8368
電視節目	-10.8371
鸿	-10.8377
審查	-10.8379
，2011	-10.838
但仍	-10.8381
評估	-10.8384
會長	-10.8384
秘书	-10.8384
搭配	-10.8385
绿色	-10.8386
以其	-10.8387
利斯	-10.8389
2%	-10.8389
药物	-10.8389
鮮	-10.839
搶	-10.839
充分	-10.8392
識	-10.8396
女歌手	-10.8397
上校	-10.8401
杆	-10.8402
对此	-10.8403
領隊	-10.8405
超级	-10.8406
两侧	-10.8412
侵略	-10.8412
島上	-10.8417
蒼	-10.8418
淘汰	-10.8418
相關的	-10.8418
南路	-10.8419
南下	-10.8419
控股	-10.8422
离子	-10.8422
邁	-10.8424
主導	-10.8426
骑	-10.8428
休息	-10.843
等级	-10.8433
男孩	-10.8433
此前	-10.8435
边界	-10.8435
一半	-10.8436
增強	-10.8439
黛	-10.8439
就像	-10.844
合同	-10.8443
轉乘	-10.8444
噸	-10.8446
创造	-10.8446
威胁	-10.8447
彰	-10.8449
任教	-10.845
明確	-10.8451
消耗	-10.846
模特兒	-10.8461
雕	-10.8464
频率	-10.8464
擔心	-10.8465
紐	-10.8468
種子	-10.8471
偽	-10.8472
西亚	-10.8472
楠	-10.8475
競賽	-10.8476
永遠	-10.8478
電力	-10.8478
手下	-10.8479
兩岸	-10.8479
時期的	-10.848
各个	-10.8482
塚	-10.8483
行业	-10.8484
大戰	-10.8486
捐	-10.8488
估计	-10.8488
打敗	-10.8489
胺	-10.8489
機器人	-10.849
英里	-10.8493
一項	-10.8494
不僅	-10.8498
彗星	-10.85
山西省	-10.8501
1936	-10.8504
的时间	-10.8506
而死	-10.8508
鯨	-10.8509
强调	-10.8511
超人	-10.8511
局部	-10.8512
前任	-10.8514
幻想	-10.8514
互联网	-10.8515
決議	-10.8515
金剛	-10.8516
ell	-10.8519
爐	-10.8521
離子	-10.8522
最為	-10.8525
汇	-10.8525
▁民國	-10.8525
智利	-10.8528
虹	-10.8528
海峽	-10.8529
泳	-10.8531
丘陵	-10.8531
縱	-10.8534
翰	-10.8535
东西	-10.8535
會被	-10.8539
推翻	-10.854
ation	-10.854
4%	-10.8542
列為	-10.8545
荣誉	-10.8546
預算	-10.8547
的情况	-10.8548
孔子	-10.8549
周恩来	-10.8551
往來	-10.8552
拉姆	-10.8553
推薦	-10.8553
緬甸	-10.8553
公安	-10.8554
深度	-10.8555
6%	-10.8556
創辦人	-10.8566
狐	-10.8569
简单	-10.8574
贊	-10.8574
年成立	-10.8574
頒發	-10.8575
AKB	-10.8576
片段	-10.8581
视频	-10.8581
三角形	-10.8582
監獄	-10.8583
周期	-10.8584
男人	-10.8585
軒	-10.8585
一張	-10.8588
测	-10.8589
签署	-10.8589
艙	-10.8591
福德	-10.8592
运用	-10.8597
餅	-10.86
死去	-10.8601
生前	-10.8602
--	-10.8603
史密斯	-10.8604
牠	-10.8605
鏈	-10.8605
漸	-10.8606
雁	-10.8607
種族	-10.8607
高峰	-10.8609
料理	-10.861
各個	-10.861
兵器	-10.8611
包括了	-10.8611
万美元	-10.8617
萬美元	-10.8618
的說法	-10.862
潜	-10.8622
注入	-10.8623
函	-10.8625
銀河	-10.8625
神经	-10.8627
青春	-10.8627
谈判	-10.8628
旋轉	-10.8629
故此	-10.8631
厝	-10.8632
▁北	-10.8633
▁从	-10.8633
回家	-10.8634
亦可	-10.8637
了一些	-10.8645
依靠	-10.8645
喜愛	-10.8646
玫瑰	-10.8647
兽	-10.8649
监督	-10.865
180	-10.865
舱	-10.8651
决	-10.8652
ly	-10.8653
遊行	-10.8655
觸	-10.8655
最後一	-10.8656
大埔	-10.8656
認定	-10.8657
存在的	-10.8658
只在	-10.8658
垃圾	-10.8659
1904	-10.8659
寫作	-10.866
-6	-10.8661
芽	-10.8663
并将	-10.867
凉	-10.867
障礙	-10.8671
佐藤	-10.8673
潤	-10.8674
聲優	-10.8675
分别为	-10.8675
王位	-10.8676
亲王	-10.8678
激烈	-10.8678
太守	-10.8681
1934	-10.8682
粵	-10.8682
酮	-10.8683
六月	-10.8683
大规模	-10.8684
肌肉	-10.8684
效應	-10.8686
建制	-10.8688
辅	-10.8688
上午	-10.8691
搭乘	-10.8691
脈	-10.8693
引進	-10.8694
任內	-10.8696
悲	-10.8696
岁时	-10.8698
在内的	-10.8699
湖泊	-10.87
灰色	-10.87
ang	-10.87
▁马	-10.8701
富士電視台	-10.8703
叙利亚	-10.8707
ay	-10.8707
放弃	-10.8708
盈	-10.8708
▁拉	-10.8711
排行榜	-10.8714
穎	-10.8714
銷	-10.8717
布雷	-10.8718
及後	-10.8721
以往	-10.8721
頌	-10.8722
DS	-10.8723
$	-10.8723
決	-10.8726
法语	-10.8727
年末	-10.873
擴張	-10.8731
汉语	-10.8731
少数	-10.8732
為其	-10.8734
1935	-10.8734
規範	-10.8736
發音	-10.8737
迪士尼	-10.8738
襲	-10.8738
甜	-10.8739
新生	-10.8741
更換	-10.8741
▁and	-10.8746
。1949	-10.8746
約有	-10.875
階級	-10.8751
轄	-10.8753
福音	-10.8754
得分	-10.8756
恋	-10.8757
數目	-10.8759
他曾	-10.8763
冒	-10.8765
促使	-10.8765
101	-10.8767
公寓	-10.8767
火力	-10.8768
姐姐	-10.8768
纵	-10.8771
例子	-10.8772
ut	-10.8772
NHK	-10.8773
原為	-10.8774
將領	-10.8778
监狱	-10.8778
頻	-10.8779
匯	-10.878
進行了	-10.878
防衛	-10.8781
那麼	-10.8782
旨	-10.8788
必要	-10.8789
频	-10.879
的機會	-10.8791
教室	-10.8792
一批	-10.8793
型机车	-10.8793
鸣	-10.8794
模擬	-10.8795
文物保护单位	-10.8796
州府	-10.8797
男主角	-10.8798
给予	-10.8801
真實	-10.8803
仿	-10.8807
五個	-10.881
燃	-10.8811
罷	-10.8812
医生	-10.8814
阵	-10.8817
奥尔	-10.8817
勾	-10.8818
開通	-10.8818
足以	-10.8822
傑出	-10.8823
北伐	-10.8824
麵	-10.8824
提出的	-10.8825
做了	-10.8827
最好的	-10.883
涂	-10.8831
汀	-10.8834
▁伊	-10.8835
市长	-10.8835
维护	-10.8836
空气	-10.8836
家的	-10.8841
的朋友	-10.8842
页	-10.8844
初步	-10.8844
逃亡	-10.8846
複雜	-10.8846
释放	-10.8853
不良	-10.8854
發現了	-10.8854
▁楊	-10.8856
修復	-10.8857
九月	-10.8857
硫	-10.8857
貨幣	-10.8862
漏	-10.8863
鴨	-10.8865
比利时	-10.8869
电脑	-10.8874
理由	-10.8876
首領	-10.8877
同治	-10.8877
布尔	-10.8882
帖	-10.8882
原創	-10.8883
巴斯	-10.8883
褐色	-10.8888
桿	-10.8889
洪武	-10.889
瓦尔	-10.8892
月刊	-10.8893
立陶宛	-10.8894
資產	-10.8895
中視	-10.8897
当选为	-10.8897
題材	-10.8902
柬埔寨	-10.8906
維修	-10.8906
前方	-10.8909
溶	-10.8915
儲存	-10.892
漸漸	-10.892
饰演	-10.8923
道歉	-10.8927
一職	-10.8929
在他的	-10.8929
可用	-10.8929
出场	-10.893
盜	-10.8936
輸	-10.8942
的女性	-10.8943
▁徐	-10.8945
da	-10.8947
死刑	-10.8947
1908	-10.8949
改名为	-10.8953
一代	-10.8958
格林	-10.8959
棚	-10.8962
长春	-10.8966
再加上	-10.8966
协	-10.8972
第二季	-10.8972
启动	-10.8972
装饰	-10.8974
主播	-10.898
而得名	-10.8984
1500	-10.8987
▁1982	-10.8988
槽	-10.899
后期	-10.899
青海	-10.8991
原址	-10.8991
com	-10.8995
大地	-10.8996
现场	-10.8996
创新	-10.8997
社群	-10.9001
裡面	-10.9008
▁何	-10.9011
改进	-10.9011
雍	-10.9014
前后	-10.9016
威尼斯	-10.9017
刃	-10.9018
冒險	-10.9019
形成的	-10.9019
脊	-10.9021
輸入	-10.9022
壳	-10.9023
死者	-10.9026
嘉義	-10.9031
貼	-10.9032
說話	-10.9034
即時	-10.9035
旨在	-10.9035
但卻	-10.9035
而來	-10.9037
暫	-10.9041
牵引	-10.9041
其后	-10.9043
的核心	-10.9043
稻	-10.9046
的城鎮	-10.9046
國小	-10.9046
壘	-10.9049
来源	-10.9049
認證	-10.9054
溫泉	-10.9054
期刊	-10.9054
生日	-10.9054
现任	-10.9059
幕府	-10.906
為此	-10.906
辭職	-10.9066
攻入	-10.9067
▁1983	-10.9068
平安	-10.9069
一项	-10.9071
東區	-10.9071
▁该	-10.9072
職員	-10.9072
公車	-10.9073
含量	-10.9074
境内共有	-10.9074
虽	-10.9075
突厥	-10.9075
锦标赛	-10.9077
喪	-10.9079
旦	-10.9083
北面	-10.9083
一本	-10.9085
1931	-10.9085
挖	-10.9086
华人	-10.9088
衍生	-10.9088
沿用	-10.9095
國民小學	-10.9096
漁	-10.9101
玩具	-10.9104
不用	-10.9104
皇室	-10.9113
1910	-10.9115
電車	-10.9116
十四年	-10.9117
发现了此天体	-10.9119
CO	-10.9119
日文	-10.9121
济南	-10.9123
建國	-10.9124
時常	-10.9125
冀	-10.9125
城县	-10.9126
日本的	-10.9128
院士	-10.913
共和	-10.9139
政党	-10.9139
对外	-10.914
二月	-10.9146
回來	-10.9148
促进	-10.915
公子	-10.915
逐	-10.9152
萍	-10.9155
財產	-10.9155
国防	-10.9157
葡萄	-10.916
區間	-10.9164
器官	-10.9168
的大型	-10.9168
干涉	-10.9171
选手	-10.9173
築	-10.9175
改由	-10.9177
军官	-10.9179
血液	-10.918
潮州	-10.9184
黄河	-10.9184
溝通	-10.9185
签订	-10.9186
骑兵	-10.9186
道具	-10.9188
防御	-10.9188
勞工	-10.919
匈奴	-10.9191
▁如果	-10.9195
输入	-10.9197
安装	-10.9197
巴拉	-10.9198
奸	-10.9203
皮膚	-10.9203
有一些	-10.9207
誌	-10.9208
全身	-10.9209
交界	-10.921
神秘	-10.921
。2001	-10.921
格里	-10.921
换乘	-10.9211
戰機	-10.9211
0.5	-10.9211
英超	-10.9213
密切	-10.9216
边境	-10.9216
見到	-10.9218
彬	-10.9218
評價	-10.9223
遊客	-10.9224
北美洲	-10.9225
十五年	-10.9228
日常	-10.9229
資助	-10.9231
的名稱	-10.9233
贡献	-10.9234
本科	-10.9236
屬下的一个种	-10.9237
一级	-10.9238
霖	-10.9239
声明	-10.924
名義	-10.9243
阿斯	-10.9245
稱之為	-10.9245
斋	-10.9246
迫害	-10.9246
奶	-10.9246
去了	-10.9247
習	-10.9247
一顆	-10.9247
书院	-10.9251
1929	-10.9251
叙	-10.9252
晉級	-10.9252
極為	-10.9253
服裝	-10.9255
交給	-10.9256
-15	-10.9261
动作	-10.9261
執	-10.9262
懿	-10.9262
也沒有	-10.9265
威爾	-10.927
事宜	-10.9271
面臨	-10.9272
元朗	-10.9273
礁	-10.9274
大規模	-10.9275
一角	-10.9277
指揮官	-10.9278
邊緣	-10.928
国军	-10.928
株	-10.928
封印	-10.9281
修道院	-10.9283
情报	-10.9283
日报	-10.9284
不幸	-10.9285
慶祝	-10.9285
驅	-10.9286
魚類	-10.9289
抄	-10.929
推進	-10.9291
要塞	-10.9292
機器	-10.9293
鱷	-10.9296
胃	-10.9301
原因是	-10.9302
遍	-10.9303
執導	-10.9303
延安	-10.9303
权利	-10.9309
藤原	-10.9309
货币	-10.9309
習慣	-10.9312
SA	-10.9312
客家	-10.9312
分享	-10.9316
伊斯蘭	-10.9316
▁O	-10.9317
轉為	-10.9318
鹰	-10.932
手槍	-10.932
▁中华人民共和国	-10.9321
ion	-10.9322
苏丹	-10.9322
〜	-10.9322
曾有	-10.9322
MV	-10.9325
或其他	-10.9326
趁	-10.9326
草案	-10.9326
拟	-10.9327
大公	-10.9328
水利	-10.9328
宰相	-10.9332
年龄	-10.9332
的主	-10.9337
政委	-10.9337
現為	-10.9339
裁判	-10.9339
姐妹	-10.9341
婉	-10.9341
腾	-10.9342
撥	-10.9344
但由于	-10.9344
書籍	-10.9354
央	-10.9355
步槍	-10.9357
1918	-10.9358
貨物	-10.9359
一篇	-10.9361
之战	-10.9362
比利時	-10.9362
埋	-10.9363
火车站	-10.9363
”，“	-10.9363
居委会	-10.9364
om	-10.9367
盟軍	-10.9368
更名	-10.9369
輯	-10.9369
政治委员	-10.937
航行	-10.9371
窄	-10.9372
詠	-10.9372
標本	-10.9379
▁然而	-10.9379
新台幣	-10.9382
線上	-10.9383
勞動	-10.9384
事務所	-10.9384
责任	-10.9386
粮	-10.9386
（2005	-10.9386
流亡	-10.9387
第二代	-10.9389
资格	-10.9392
一點	-10.9393
辐射	-10.9394
帳	-10.9396
清楚	-10.9398
三百	-10.9399
常見的	-10.9399
營業	-10.94
群众	-10.94
确认	-10.9404
时期的	-10.9408
滇	-10.941
状况	-10.941
實驗室	-10.9413
从此	-10.9416
纲	-10.9417
百年	-10.9417
全數	-10.9417
文化大革命	-10.9417
原则	-10.9419
創下	-10.942
校區	-10.9421
閃	-10.9421
四人	-10.9423
哈尔滨	-10.9423
愛德華	-10.9428
勋章	-10.9429
都会	-10.9429
分割	-10.9429
肌	-10.9433
就能	-10.9434
活性	-10.9434
所在	-10.9437
的表現	-10.9437
只好	-10.9438
此一	-10.944
扩展	-10.9442
國道	-10.9442
座位	-10.9442
歌唱	-10.9444
恰	-10.9444
三名	-10.9445
畢業後	-10.9447
寻找	-10.9449
疫情	-10.9454
萨尔	-10.9457
標誌	-10.9458
▁"	-10.9458
棉	-10.9462
國中	-10.9464
▁Co	-10.9464
前身	-10.9465
情緒	-10.9467
不佳	-10.9468
雍正	-10.9469
争	-10.9473
財務	-10.9477
徐州	-10.9478
出兵	-10.9485
梓	-10.9487
”；	-10.9489
改用	-10.9493
史料	-10.9497
皆為	-10.9498
▁若	-10.95
的其他	-10.9506
ton	-10.9509
範	-10.9512
總監	-10.9513
暫停	-10.9514
該國	-10.9514
斯大林	-10.9516
恶	-10.9516
芬兰	-10.9518
泊	-10.9518
巴尔	-10.9519
故意	-10.952
悉	-10.952
區分	-10.952
团队	-10.9522
肝	-10.9527
打击	-10.953
以及中国大陆的	-10.953
告知	-10.9533
滴	-10.9535
托勒密	-10.9535
農民	-10.9535
塵	-10.9536
這裡	-10.9539
雌	-10.9539
是位於	-10.9539
網頁	-10.9539
別人	-10.9543
周圍	-10.9543
罗伯特	-10.9546
了他	-10.9548
體型	-10.9548
因子	-10.9557
▁1981	-10.9558
肺	-10.9561
宪	-10.9562
复杂	-10.9562
安妮	-10.9562
入球	-10.9564
出的	-10.9564
い	-10.9565
吉他	-10.9566
被發現	-10.957
纵队	-10.9572
财	-10.9573
手機	-10.9573
▁=	-10.9573
地质	-10.9574
指數	-10.9577
獲勝	-10.9577
猶太人	-10.958
電視動畫	-10.9582
的弟弟	-10.9583
真的	-10.9585
晚年	-10.9586
公益	-10.9586
優秀	-10.9587
岐	-10.9588
广州市	-10.9593
ol	-10.9594
结束后	-10.9595
最小	-10.9596
长安	-10.9597
贞	-10.9598
法定	-10.9599
岛屿	-10.96
华北	-10.9603
崗	-10.9603
1919	-10.9605
疾	-10.9605
業者	-10.9606
榮獲	-10.9606
右翼	-10.9607
公众	-10.9608
秘書	-10.9609
两国	-10.9609
次郎	-10.9613
邻	-10.9614
文革	-10.9615
享	-10.9621
发明	-10.9621
互動	-10.9622
。2020	-10.9625
鈴木	-10.9626
兴建	-10.9626
不利	-10.9627
一日	-10.9627
鳥類	-10.9629
部部长	-10.9629
名古屋	-10.963
也会	-10.9631
优	-10.9632
胡同	-10.9633
区别	-10.9634
重修	-10.9634
腸	-10.9636
城墙	-10.9638
鵬	-10.9638
#	-10.9638
直属	-10.9639
治理	-10.9639
MA	-10.9639
公里的	-10.964
鋼琴	-10.9642
报纸	-10.9643
研制	-10.9649
忙	-10.9651
▁馬	-10.9652
機車	-10.9652
成果	-10.9653
歌詞	-10.9655
夏威夷	-10.9656
桂林	-10.9658
富士	-10.9665
一艘	-10.9665
人事	-10.9669
早已	-10.9671
奕	-10.9673
方程式	-10.9675
审查	-10.9676
麦克	-10.9679
交通部	-10.968
最著名的	-10.9681
洪水	-10.9682
附属	-10.9684
辞职	-10.9684
缓	-10.9685
鮑	-10.9687
之處	-10.9687
防空	-10.9689
前面	-10.9691
me	-10.9693
四十	-10.9695
作業	-10.9695
修訂	-10.9696
隊員	-10.9696
傾	-10.9696
可以通过	-10.9699
地獄	-10.97
數碼	-10.9702
毀	-10.9703
划	-10.9704
日於	-10.9705
毕	-10.9706
敌人	-10.9706
該公司	-10.9707
桶	-10.9707
全市	-10.9715
一共	-10.9716
介入	-10.9716
潛	-10.972
近似	-10.9721
賭	-10.9723
內地	-10.9724
險	-10.9726
當地的	-10.9726
講述	-10.9726
框架	-10.9728
三月	-10.9729
物体	-10.973
的結果	-10.9731
▁[	-10.9733
站房	-10.9734
日益	-10.9735
贴	-10.9737
夫婦	-10.9737
！”	-10.9739
颜色	-10.974
输出	-10.9743
主人	-10.9743
始建于	-10.9743
行者	-10.9743
山口	-10.9746
購	-10.9747
决赛	-10.9748
大聯盟	-10.9749
族人	-10.9751
亦為	-10.9751
ce	-10.9754
市政	-10.9756
波音	-10.9758
竞争	-10.9758
日治時期	-10.9759
同時也是	-10.9761
车队	-10.9761
培養	-10.9764
生长	-10.9765
考古	-10.9765
1901	-10.9765
停車場	-10.9766
效应	-10.9766
受到了	-10.9769
种植	-10.977
形態	-10.977
新人	-10.977
未知	-10.9772
行政区	-10.9772
三種	-10.9774
勃	-10.9775
咬	-10.9776
個體	-10.9776
模拟	-10.9778
南美洲	-10.978
東海	-10.9781
的政策	-10.9781
赠	-10.9783
销	-10.9784
埠	-10.9784
电力	-10.9786
可在	-10.9788
的法律	-10.979
了他的	-10.9792
具備	-10.9799
亲自	-10.9799
協定	-10.9802
，2006	-10.9802
在那里	-10.9803
威力	-10.9804
席位	-10.9806
悅	-10.9808
前進	-10.9808
。[	-10.9809
風暴	-10.981
子彈	-10.9813
閩	-10.9818
山谷	-10.9818
教练	-10.9818
醒	-10.9821
105	-10.9821
律师	-10.9822
南面	-10.9822
登陆	-10.9825
強度	-10.9827
但因為	-10.9829
為一	-10.9829
徹	-10.9829
打造	-10.9829
的中心	-10.983
cm	-10.9831
最初的	-10.9831
醫師	-10.9831
的想法	-10.9832
▁—	-10.9833
1902	-10.9835
栋	-10.9836
棋子	-10.9837
五世	-10.9838
盗	-10.984
木星	-10.9841
搞	-10.9841
意為	-10.9844
▁1978	-10.9844
参数	-10.9844
各国	-10.9845
杀死	-10.9847
少将	-10.9847
4.5	-10.9848
怨	-10.9849
SS	-10.985
1905	-10.9852
北京大学	-10.9855
宗室	-10.9857
的聲音	-10.9858
搬	-10.9859
。2021	-10.986
灣仔	-10.986
菩薩	-10.9862
害怕	-10.9862
现存	-10.9863
观点	-10.9863
琦	-10.9866
文本	-10.9867
其他人	-10.9867
隸屬於	-10.9867
添加	-10.9869
压力	-10.9869
▁1979	-10.9869
沛	-10.9872
sh	-10.9877
高架	-10.9877
般的	-10.9879
朵	-10.9879
議席	-10.988
的成績	-10.9881
其他的	-10.9882
足球運動員	-10.9883
北路	-10.9883
提倡	-10.9884
學士	-10.9884
卡斯	-10.9886
姓名	-10.9888
▁黄	-10.9889
价格	-10.989
籃球	-10.989
媽媽	-10.9893
分佈	-10.9893
习	-10.9895
並不是	-10.9897
周刊	-10.9897
確保	-10.9898
常委	-10.9898
向北	-10.9898
杏	-10.9899
第一批	-10.99
审判	-10.99
扩建	-10.99
黄色	-10.9901
▁1970	-10.9901
格尔	-10.9901
俄國	-10.9902
是一座	-10.9903
特殊的	-10.9903
物語	-10.9903
年人口普查	-10.9906
亚历山大	-10.9906
日報	-10.9909
交付	-10.9909
月任	-10.9909
流通	-10.991
謂	-10.9911
殺人	-10.9912
連任	-10.9914
废除	-10.9915
终于	-10.9919
工商	-10.992
有了	-10.992
契約	-10.9921
是中华人民共和国	-10.9922
玛丽	-10.9922
構	-10.9923
船隻	-10.9923
煮	-10.9924
累積	-10.9925
當作	-10.9927
台視	-10.9929
閱讀	-10.9931
部位	-10.9931
趕	-10.9933
一開始	-10.9934
劇團	-10.9935
ot	-10.9936
漢語	-10.9938
瑜	-10.9941
慕尼黑	-10.9942
忍者	-10.9942
創新	-10.9943
零售	-10.9943
對話	-10.9944
預測	-10.9944
練習	-10.9945
特里	-10.9946
基金会	-10.9951
本來	-10.9952
英尺	-10.9954
差异	-10.9955
流傳	-10.9955
循环	-10.9957
排除	-10.9959
单独	-10.996
意见	-10.9961
1925	-10.9964
所謂	-10.9964
ha	-10.9966
引起了	-10.9967
進步	-10.9967
困	-10.9967
写作	-10.9968
使者	-10.997
难以	-10.9972
形狀	-10.9973
脉	-10.9973
紐西蘭	-10.9974
接受了	-10.9974
纪录	-10.9975
教徒	-10.9975
杭	-10.9978
瀑布	-10.9978
忽	-10.9981
共產黨	-10.9982
之前的	-10.9983
發行的	-10.9986
蝦	-10.9988
政府的	-10.9988
各省	-10.9991
排名第	-10.9992
客串	-10.9992
天才	-10.9994
情形	-10.9995
卡特	-10.9997
怪物	-11.0001
歡	-11.0003
魔王	-11.0003
劇中	-11.0005
一首	-11.0006
性质	-11.0008
體內	-11.0008
▁從	-11.0009
东临	-11.0011
河流域	-11.0013
十二月	-11.0014
造成的	-11.0015
的電影	-11.0016
前來	-11.0017
對他	-11.0018
工作者	-11.0019
延續	-11.0025
，2005	-11.0025
具體	-11.0027
支持者	-11.0027
二百	-11.0033
粤	-11.0034
東南亞	-11.0035
老闆	-11.0036
醉	-11.004
重力	-11.0042
屠	-11.0048
彻底	-11.005
民主党	-11.005
癌	-11.0051
耗	-11.0051
所在的	-11.0053
二十年	-11.0054
同期	-11.0055
扩张	-11.0055
聽到	-11.0056
三國	-11.0057
利物浦	-11.0059
Al	-11.006
領地	-11.0061
庸	-11.0063
ate	-11.0063
？”	-11.0065
良好的	-11.007
海水	-11.0072
讀者	-11.0075
武昌	-11.0076
高層	-11.0077
身邊	-11.0081
标志	-11.0081
總會	-11.0081
ス	-11.0082
美军	-11.0083
世界的	-11.0083
撰	-11.0085
5%	-11.0091
壮	-11.0091
活躍	-11.0094
地帶	-11.0096
360	-11.0098
常見	-11.01
區議會	-11.01
日凌晨	-11.01
亩	-11.0106
-9	-11.0107
後被	-11.0109
1.3	-11.011
廣東省	-11.0121
耶穌	-11.0121
雷斯	-11.0122
軍人	-11.0122
1.6	-11.0123
白人	-11.0126
350	-11.0128
科研	-11.0128
夜間	-11.0129
伯特	-11.0129
漫	-11.0129
▁安	-11.013
DC	-11.013
審判	-11.013
0.0	-11.0131
巴勒斯坦	-11.0132
寺院	-11.0138
免费	-11.0139
製作的	-11.0139
共享	-11.014
強大	-11.014
跨越	-11.0142
1915	-11.0143
嘉慶	-11.0143
洛克	-11.0147
La	-11.0148
袭	-11.0149
痛苦	-11.0149
這時	-11.0149
人群	-11.0152
华盛顿	-11.0153
豐富	-11.0158
矩阵	-11.0159
最少	-11.0162
美食	-11.0162
得出	-11.0164
手法	-11.0165
唱片公司	-11.0165
清廷	-11.0167
單獨	-11.0167
爽	-11.0167
駿	-11.0167
危机	-11.017
網上	-11.0171
将会	-11.0172
領導人	-11.0173
联合会	-11.0177
人格	-11.0178
遵守	-11.0178
螺旋	-11.0179
松山	-11.0179
觀音	-11.0179
嘉賓	-11.0181
的形象	-11.0182
車廂	-11.0182
更有	-11.0184
獎金	-11.0184
前期	-11.0185
入圍	-11.0185
伍德	-11.0186
工程师	-11.0186
▁黑	-11.0187
立法委員	-11.019
之內	-11.0191
全線	-11.0192
從未	-11.0192
於同年	-11.0194
漆	-11.0194
第十一	-11.0196
仅有	-11.0196
续	-11.0196
普拉	-11.0197
但也	-11.0198
东北部	-11.0199
萌	-11.02
後續	-11.02
镇压	-11.0202
理性	-11.0203
1932	-11.0203
嗎	-11.0204
ai	-11.0205
不敵	-11.0205
分行	-11.0206
撫	-11.0206
股權	-11.0206
伪	-11.0208
相连	-11.0212
正義	-11.0214
John	-11.0214
▁天主教	-11.0215
毕业于	-11.0215
擺	-11.0217
红军	-11.0218
觀點	-11.022
作品中	-11.0222
1.8	-11.0222
拉克	-11.0223
地处	-11.0225
<	-11.0227
女生	-11.0229
改裝	-11.0232
場比賽	-11.0232
的国家	-11.0234
龄	-11.0235
岑	-11.0236
。2000	-11.0236
展出	-11.0237
咒	-11.0238
治安	-11.0238
1922	-11.024
分散	-11.0246
9%	-11.0248
对抗	-11.0252
命名为	-11.0254
推进	-11.0255
敏感	-11.0255
靈魂	-11.0255
的例子	-11.0257
自杀	-11.0258
伊斯兰	-11.0263
百合	-11.0263
的行为	-11.0266
一事	-11.0266
各大	-11.0266
版本的	-11.0266
協調	-11.0268
大帝	-11.0269
行使	-11.0271
陪	-11.0273
ル	-11.0274
该市	-11.0274
可能会	-11.0275
喀	-11.0276
润	-11.0278
癌症	-11.0279
原有的	-11.0279
行人	-11.028
認可	-11.0282
艺术家	-11.0283
他於	-11.0284
个月	-11.0284
的資料	-11.0286
劇場版	-11.0287
郑州	-11.0287
收回	-11.0288
碩	-11.029
合併為	-11.0291
生活習性不明	-11.0293
雷達	-11.0293
華語	-11.0294
中國共產黨	-11.0296
蘇丹	-11.0298
隔年	-11.0301
媽	-11.0303
其中有	-11.0306
。1998	-11.0306
攝	-11.0314
起義	-11.0315
蒙特	-11.0319
澎湖	-11.032
尿	-11.0321
構造	-11.0322
驗	-11.0322
岱	-11.0323
▁美国	-11.0323
她是	-11.0324
盆	-11.0324
勳章	-11.033
磅	-11.0334
1907	-11.0334
當代	-11.0336
之事	-11.0339
場所	-11.034
酯	-11.0343
傑克	-11.0344
寶玉	-11.0344
態度	-11.0345
禾	-11.0346
強大的	-11.0347
有意	-11.0348
承担	-11.0353
那里	-11.0357
標示	-11.0358
期望	-11.0358
MP	-11.036
修复	-11.036
這類	-11.0363
盲	-11.0365
西元	-11.0366
名叫	-11.0366
邊界	-11.0367
尋求	-11.0369
优势	-11.0369
較少	-11.0374
愿	-11.0375
对手	-11.0376
一對	-11.038
云南省	-11.0381
都能	-11.0382
汁	-11.0383
更大的	-11.0383
保守	-11.0387
山田	-11.0389
金山	-11.0389
下游	-11.0391
一時	-11.0391
巴赫	-11.0391
的第二	-11.0394
爱德华	-11.0395
青山	-11.0396
轟炸機	-11.0396
中華民國政府	-11.0396
的最大	-11.0397
邊境	-11.04
对应	-11.0402
と	-11.0404
享受	-11.0405
财产	-11.0405
会员	-11.0406
下辖以下地区	-11.0407
衰	-11.0409
be	-11.041
▁〈	-11.041
刊登	-11.0412
回收	-11.0412
九巴	-11.0413
AR	-11.0413
凶	-11.0413
级别	-11.0414
▁梁	-11.0415
军团	-11.0416
学堂	-11.0417
年球季	-11.0417
当地的	-11.0418
瓊	-11.0421
症狀	-11.0421
水上	-11.0423
分别是	-11.0423
尝试	-11.0423
藉	-11.0423
不及	-11.0427
馬其頓	-11.0428
衝擊	-11.0428
」（）	-11.0429
縮	-11.0431
他与	-11.0431
創建	-11.0435
日記	-11.0437
西洋	-11.0438
兩側	-11.0441
裝飾	-11.0443
而已	-11.0444
伊斯	-11.0446
办事处	-11.0447
僅次於	-11.0447
火焰	-11.0448
秘书长	-11.0448
社團	-11.0448
提案	-11.0448
稱作	-11.0449
资产	-11.0452
电话	-11.0453
午	-11.0455
叛	-11.0461
進而	-11.0465
北起	-11.0467
願意	-11.0468
参考	-11.0468
畢業於	-11.0469
意义	-11.047
变量	-11.0475
推动	-11.0476
脂	-11.0478
行政長官	-11.048
碱	-11.048
欠	-11.0482
韵	-11.0484
现实	-11.0484
影響力	-11.0485
公頃	-11.0485
滋	-11.0491
纽	-11.0491
积分	-11.0493
鱗	-11.0497
終止	-11.0497
构造	-11.0498
下来	-11.0501
精英	-11.0503
一等	-11.0504
出局	-11.0508
前夕	-11.0509
-12	-11.0511
消費	-11.0511
來的	-11.0515
機體	-11.0518
山县	-11.0519
登山	-11.0521
華盛頓	-11.0522
站間	-11.0524
2,000	-11.0529
碟	-11.0531
初中	-11.0531
途	-11.0539
上訴	-11.0541
约为	-11.0543
▁『	-11.0545
里昂	-11.0548
錄音	-11.0549
討伐	-11.0551
棲息在	-11.0552
帮	-11.0554
現實	-11.0555
快樂	-11.0556
下面	-11.0558
长度	-11.0562
1917	-11.0564
徹底	-11.0565
率先	-11.0565
洛斯	-11.0566
惊	-11.0572
发生了	-11.0576
耿	-11.0576
書寫	-11.0576
大队	-11.0576
误	-11.0579
麥克	-11.0579
出去	-11.0583
路站	-11.0583
编码	-11.0585
支線	-11.0586
橫濱	-11.0587
舜	-11.0588
時會	-11.0589
任中共	-11.0592
向南	-11.0592
吸血鬼	-11.0594
▁其中	-11.0597
彩虹	-11.0597
透明	-11.0598
粮食	-11.06
谭	-11.0601
规范	-11.0601
工作的	-11.0605
駕	-11.0606
雕塑	-11.0607
即為	-11.0608
的人物	-11.0608
電池	-11.0608
用地	-11.061
災	-11.061
訊息	-11.061
」）	-11.0611
世纪初	-11.0611
的妹妹	-11.0613
浙	-11.0615
國家公園	-11.0619
出发	-11.062
就会	-11.062
對其	-11.0622
判斷	-11.0624
隋	-11.0624
畫家	-11.0625
鬧	-11.0626
清华大学	-11.0626
陕西省	-11.0632
生意	-11.0635
祀	-11.0636
完美	-11.0636
風險	-11.0636
流量	-11.0638
中最	-11.0639
經費	-11.0641
向西	-11.0642
No	-11.0642
射入	-11.0643
口岸	-11.0646
大大	-11.0648
常被	-11.0648
旗下的	-11.0648
净	-11.065
步行	-11.0652
適應	-11.0652
總裁	-11.0652
奪取	-11.0654
西侧	-11.0654
公演	-11.0656
曼聯	-11.0656
神話	-11.0657
。1990	-11.0657
蛋白质	-11.0657
轉向	-11.0659
斐	-11.0663
涛	-11.0664
夺得	-11.0666
op	-11.0666
免疫	-11.0667
環保	-11.0668
多少	-11.0669
经济学	-11.0669
洛阳	-11.067
有不少	-11.0676
支部	-11.0678
租界	-11.0678
。1945	-11.0679
驾驶	-11.0679
▁鄭	-11.0679
夫妻	-11.068
系統的	-11.0681
涵	-11.0681
討	-11.0684
紗	-11.0684
報紙	-11.0684
编号	-11.0686
化工	-11.0687
io	-11.0688
β	-11.069
蕨	-11.0691
体育场	-11.0694
的代表	-11.0695
启用	-11.0697
▁→	-11.0702
▁唐	-11.0703
離婚	-11.0704
胞	-11.0705
集团军	-11.0707
服务器	-11.0711
以致	-11.0712
里亚	-11.0717
普鲁士	-11.0718
描寫	-11.0721
挑	-11.0722
琼	-11.0723
分區	-11.0723
创立	-11.0723
硅	-11.0724
一輛	-11.0727
附加	-11.0727
傾向	-11.0727
十八年	-11.0729
最新	-11.0729
克雷	-11.0729
ment	-11.073
但被	-11.0731
廠商	-11.0731
失蹤	-11.0733
誓	-11.0733
標題	-11.0734
科夫	-11.0735
衛斯理	-11.0738
天文學家	-11.074
仍是	-11.0741
犧牲	-11.0742
種植	-11.0743
起點	-11.0744
他與	-11.0745
机器	-11.0745
任职	-11.0751
的版本	-11.0751
1924	-11.0752
特定的	-11.0753
瑪麗	-11.0755
领地	-11.0755
叛亂	-11.0756
▁東	-11.0756
的能量	-11.0759
不存在	-11.076
1927	-11.0762
院校	-11.0763
預定	-11.0766
香港電台	-11.0767
廢止	-11.0768
per	-11.0768
社長	-11.0768
頗	-11.0769
大名	-11.0772
轨道交通	-11.0772
承諾	-11.0773
Cl	-11.0775
危险	-11.0777
獄	-11.078
時代的	-11.078
?	-11.0781
延伸至	-11.0781
机制	-11.0783
不好	-11.0783
保罗	-11.0783
黑龙江	-11.0784
。1999	-11.0787
混亂	-11.0787
毀滅	-11.0787
▁1960	-11.0792
米尔	-11.0792
高等教育	-11.0795
喜劇	-11.0797
贏	-11.0797
4000	-11.0801
型的	-11.0801
产生了	-11.0802
圣经	-11.0804
杖	-11.0805
达尔	-11.0805
中国科学院	-11.0805
依据	-11.0806
可惜	-11.0807
車隊	-11.0808
操控	-11.081
几何	-11.0811
十六年	-11.0814
飲食	-11.0814
過度	-11.0814
武力	-11.0815
主辦	-11.0815
季後賽	-11.0816
三郎	-11.0819
補充	-11.082
弥	-11.0822
克莱	-11.0822
最近的	-11.0824
貧	-11.0825
據說	-11.0832
Br	-11.0833
剧本	-11.0836
1921	-11.0841
勁	-11.0842
聯軍	-11.0844
山本	-11.0845
原为	-11.0845
之時	-11.0845
重點	-11.0847
辦事處	-11.0849
噶	-11.0849
舉辦的	-11.0851
遲	-11.0852
ex	-11.0852
1928	-11.0853
被任命为	-11.0854
▁胡	-11.0856
面对	-11.0858
雕像	-11.0858
夹	-11.0859
被殺	-11.0859
民生	-11.0861
閉	-11.0861
迹	-11.0865
罰	-11.0866
郡王	-11.0866
与其他	-11.0867
正月	-11.0867
▁臺灣	-11.0869
一词	-11.087
報道	-11.0871
改成	-11.0872
遵	-11.0873
画家	-11.0874
數個	-11.0877
犹太	-11.088
詔	-11.0881
流動	-11.0882
。1997	-11.0885
忘	-11.0889
队伍	-11.0891
所使用的	-11.0897
入境	-11.0897
寅	-11.0899
死于	-11.0902
方向的	-11.0904
型號	-11.0905
的居民	-11.0905
流浪	-11.0906
幢	-11.0907
城鎮	-11.0907
炸	-11.0908
他又	-11.091
則由	-11.0911
直通	-11.0912
可以使用	-11.0913
無論	-11.0913
推荐	-11.0913
是為了	-11.0914
雄性	-11.0914
▁最佳	-11.0915
产生的	-11.0915
星座	-11.0915
文藝	-11.0918
1897	-11.0921
河谷	-11.0922
IS	-11.0923
工程師	-11.0924
張單曲	-11.0925
啤酒	-11.0927
安定	-11.0927
望遠鏡	-11.0928
no	-11.093
搖滾	-11.0932
網球	-11.0933
庄村	-11.0934
趣	-11.0934
ant	-11.0936
當初	-11.0936
亞洲電視	-11.0936
ti	-11.0937
铁路局	-11.0937
培育	-11.094
朋	-11.0941
0.1	-11.0943
交叉	-11.0943
的高	-11.0944
尼古拉	-11.0944
全體	-11.0947
設計師	-11.0947
燃燒	-11.0949
暗示	-11.0949
飛行員	-11.0952
▁1958	-11.0953
线性	-11.0954
ian	-11.0957
凸	-11.0958
遙	-11.0958
气体	-11.0958
108	-11.096
下去	-11.0961
篤	-11.0963
奥运会	-11.0963
保险	-11.0963
大堂	-11.0966
一直到	-11.0966
不太	-11.0966
▁杨	-11.0968
情感	-11.0968
倪	-11.0969
翌日	-11.0969
變身	-11.0975
0.3	-11.0975
米爾	-11.0977
取自	-11.0978
國防部	-11.098
丞	-11.0981
魔女	-11.0981
共计	-11.0982
do	-11.0982
〔	-11.0983
宋代	-11.0986
較高	-11.0986
大軍	-11.0987
滅絕	-11.0987
〕	-11.0988
遺址	-11.0993
变得	-11.0998
前作	-11.1001
全新	-11.1002
獵	-11.1005
悉尼	-11.1007
直徑	-11.1007
。1993	-11.1008
适应	-11.1008
藝術家	-11.101
ry	-11.1013
異常	-11.1013
都要	-11.1014
变成	-11.1014
最具	-11.1014
成年	-11.1015
的需求	-11.1016
愚	-11.1016
1.1	-11.1016
der	-11.1017
挑战	-11.102
被告	-11.102
升格為	-11.1021
納入	-11.1021
的话	-11.1021
正確	-11.1022
二次	-11.1023
的內容	-11.1024
設計的	-11.1024
°	-11.1025
智能	-11.1025
人間	-11.1027
辅助	-11.1028
圖書	-11.103
生母	-11.103
汽	-11.1037
更高	-11.1038
种类	-11.1039
你們	-11.1039
一台	-11.104
猎	-11.104
伯格	-11.1041
相当于	-11.1041
深受	-11.1048
高級中學	-11.1051
重慶	-11.1051
大力	-11.1051
的可能性	-11.1052
路易斯	-11.1053
为此	-11.1053
屬肉食性	-11.1054
的道路	-11.1055
港澳	-11.1061
蛙	-11.1061
交由	-11.1061
Re	-11.1063
3,000	-11.1063
一族	-11.1064
碎片	-11.1064
出土	-11.1064
昔日	-11.1065
大卫	-11.1067
ig	-11.1068
都不	-11.107
圓形	-11.107
市立	-11.1072
鳳凰	-11.1078
▁||	-11.1078
高橋	-11.1083
上了	-11.1083
行省	-11.1084
粘	-11.1084
最为	-11.1085
他和	-11.1087
十七年	-11.1087
猿	-11.1087
喉	-11.1088
祖先	-11.1088
尖沙咀	-11.1088
印度尼西亚	-11.1088
宜蘭	-11.1089
科幻	-11.1089
提議	-11.1089
罪行	-11.1089
真理	-11.109
父子	-11.1091
带领	-11.1092
2.0	-11.1092
真相	-11.1094
雯	-11.1097
北部的	-11.1098
包围	-11.1099
观测	-11.11
購入	-11.1101
摘	-11.1103
HK	-11.1104
▁以下	-11.1105
呼籲	-11.1108
一級	-11.1112
的孩子	-11.1113
东南部	-11.1115
炮兵	-11.1115
嚴格	-11.1116
铭	-11.1119
ive	-11.1122
区间	-11.1123
捲	-11.1124
桃園市	-11.1125
彩色	-11.1126
的前身	-11.1128
才是	-11.1129
勋	-11.113
巴士總站	-11.1131
戰死	-11.1131
亦會	-11.1133
就被	-11.1133
西斯	-11.1134
世界盃	-11.1136
新設	-11.1137
爺	-11.1138
是從	-11.1139
▁St	-11.114
美麗	-11.1141
在當時	-11.1142
辨	-11.1143
寻	-11.115
匠	-11.1151
公會	-11.1152
推出了	-11.1154
還要	-11.1155
攻占	-11.1156
茜	-11.1158
推广	-11.1159
電流	-11.1159
棍	-11.1162
陷	-11.1163
im	-11.1163
地带	-11.1169
下一	-11.1172
世界杯	-11.1172
它在	-11.1173
兵团	-11.1173
召集	-11.1175
內戰	-11.1175
的女儿	-11.1177
和他的	-11.1177
東日本	-11.118
崩	-11.118
河道	-11.118
受害者	-11.1181
天后	-11.1181
交戰	-11.1183
内战	-11.1187
sa	-11.1188
獅子	-11.1189
運動會	-11.1189
論壇	-11.1189
截止	-11.119
来源于	-11.1191
科尔	-11.1197
人體	-11.1199
連同	-11.1199
通勤	-11.1199
責	-11.12
某一	-11.1201
拉丁	-11.1204
欄	-11.1206
。1996	-11.1207
全民	-11.1208
典禮	-11.121
主要由	-11.121
的目的	-11.121
院长	-11.1213
出現了	-11.1213
。1950	-11.1215
耶路撒冷	-11.1219
敘述	-11.1219
經濟學	-11.1219
恒星	-11.122
106	-11.122
攻陷	-11.1221
哈特	-11.1222
説	-11.1222
尉	-11.1224
巴士路線	-11.1225
▁郭	-11.1228
氯化	-11.123
日開始	-11.1232
职位	-11.1233
霜	-11.1234
go	-11.1239
的精神	-11.1243
強制	-11.1243
一千	-11.1243
成立的	-11.1244
威尔	-11.1244
绝对	-11.1246
兩條	-11.1249
紛紛	-11.1249
。1980	-11.125
藉此	-11.125
則以	-11.1252
田村	-11.1252
抗议	-11.1252
的命令	-11.1253
事实上	-11.1253
砍	-11.1253
仗	-11.1256
省道	-11.1256
立委	-11.1257
客機	-11.1258
一方面	-11.126
差距	-11.1262
旱	-11.1262
掃	-11.1262
罵	-11.1264
踏	-11.1264
德斯	-11.1265
场所	-11.1267
au	-11.1272
罐	-11.1272
战后	-11.1273
的文章	-11.1278
八十	-11.1278
集体	-11.1279
代数	-11.1279
锋	-11.1281
陆续	-11.1281
大王	-11.1283
高等學校	-11.1284
上任	-11.1289
针	-11.129
ST	-11.1292
例外	-11.1292
逊	-11.1294
里亞	-11.1294
最受歡迎	-11.1295
系统的	-11.1296
地方政府	-11.1298
IT	-11.1298
否則	-11.1299
縮寫	-11.1299
国家级	-11.1301
不想	-11.1301
对方	-11.1302
正式成立	-11.1303
採訪	-11.1303
在今	-11.1304
觀看	-11.1305
禍	-11.1306
汶	-11.1311
巡撫	-11.1311
第十二	-11.1311
0.2	-11.1311
被認為	-11.1312
順序	-11.1314
检	-11.1314
卸任	-11.1315
1.4	-11.1316
分歧	-11.1317
村落	-11.1317
冥	-11.1319
送到	-11.1319
克里斯	-11.1322
拒	-11.1322
MO	-11.1324
国家队	-11.1329
樂園	-11.1329
過於	-11.133
製成	-11.1333
之用	-11.1336
萬張	-11.1337
推測	-11.1338
否定	-11.1338
大区	-11.1341
自称	-11.1341
丞相	-11.1341
招生	-11.1342
真实	-11.1345
戰隊	-11.1345
斯卡	-11.1347
慢慢	-11.1347
歷任	-11.1349
頭髮	-11.1351
当中	-11.1351
ci	-11.1353
六世	-11.1355
或稱	-11.1356
傳統的	-11.1357
规	-11.1361
1903	-11.1362
院長	-11.1362
生下	-11.1364
辯	-11.1365
省負責管轄	-11.1366
ER	-11.1367
拉德	-11.1367
山上	-11.137
發生在	-11.1371
嵩	-11.1371
省级	-11.1372
授权	-11.1375
物件	-11.1376
▁卡	-11.1376
改编	-11.1377
新村	-11.1377
海底	-11.1378
地產	-11.1379
昆蟲	-11.1379
之旅	-11.1381
更为	-11.1382
清真寺	-11.1383
幼年	-11.1383
西接	-11.1384
週年	-11.1385
第一季	-11.1385
興趣	-11.1387
劉備	-11.1387
環球	-11.1388
主权	-11.1388
age	-11.1389
工會	-11.1389
丰富	-11.139
草地	-11.139
协调	-11.1391
主体	-11.1392
均為	-11.1394
女友	-11.1396
婦	-11.1396
站至	-11.1397
過世	-11.1397
攻勢	-11.1397
的紀錄	-11.1397
弧	-11.14
金色	-11.14
羌	-11.1401
▁其他	-11.1402
FC	-11.1403
膽	-11.1404
亦曾	-11.1405
金額	-11.1405
妾	-11.1406
雌性	-11.1407
当天	-11.1411
曲目	-11.1412
主教座堂	-11.1415
出現的	-11.1418
太多	-11.1419
放置	-11.1422
皆有	-11.1422
產生的	-11.1426
波特	-11.1433
医学院	-11.1433
SD	-11.1433
蒋介石	-11.1433
車身	-11.1434
告诉	-11.1434
違	-11.1438
據點	-11.1439
的效果	-11.144
衣服	-11.1441
次數	-11.1442
币	-11.1443
1912	-11.1443
迷你	-11.1445
克里	-11.1446
殺手	-11.1446
南部的	-11.1446
维奇	-11.1448
將軍澳	-11.1452
原定	-11.1454
其中一個	-11.1456
國籍	-11.1456
幼稚園	-11.1456
鲍	-11.1457
也称	-11.1457
哪	-11.1458
索尼	-11.1463
緒	-11.1464
首个	-11.1464
背叛	-11.1466
速率	-11.147
贊助	-11.147
用品	-11.147
人稱	-11.1471
鲜	-11.1472
女士	-11.1472
一道	-11.1473
校园	-11.1475
鹏	-11.1475
挖掘	-11.1476
7.5	-11.1478
夫斯基	-11.1479
109	-11.148
III	-11.148
註	-11.1482
泉州	-11.1483
第二大	-11.1484
用的	-11.1484
毓	-11.1486
尾巴	-11.1491
手机	-11.1492
意识	-11.1493
生态	-11.1494
HD	-11.1496
边缘	-11.1499
黎明	-11.15
肠	-11.1503
浪漫	-11.1506
繪畫	-11.1508
梵	-11.1508
全美	-11.1509
修行	-11.1514
片尾曲	-11.1514
桥梁	-11.1516
欧盟	-11.1519
，2010	-11.1519
起了	-11.1523
1923	-11.1524
耶律	-11.1526
，2007	-11.1527
可汗	-11.1527
第二次世界大战	-11.1528
骨骼	-11.1529
諮詢	-11.153
AS	-11.153
創意	-11.153
區別	-11.1532
在英國	-11.1533
节点	-11.1534
合肥	-11.1535
娅	-11.1539
事实	-11.1539
传输	-11.1541
国旗	-11.1541
年才	-11.1541
乃至	-11.1542
水泥	-11.1544
长达	-11.1546
中世纪	-11.1547
情況下	-11.1548
渔	-11.1548
ak	-11.1548
强烈	-11.1549
五个	-11.155
检测	-11.155
闊	-11.1552
相继	-11.1552
旺角	-11.1555
岛上	-11.1558
遇上	-11.1558
珊瑚	-11.156
體制	-11.1563
同时也	-11.1564
大火	-11.1565
小林	-11.1568
評審	-11.1568
轄區	-11.1569
意思	-11.157
機槍	-11.157
熱帶	-11.1571
彰化	-11.1571
鞭	-11.1572
杀害	-11.1575
口徑	-11.1576
而成的	-11.1577
装甲	-11.1577
郊	-11.158
際	-11.1581
说法	-11.1583
牢	-11.1584
北侧	-11.1585
集體	-11.1586
ab	-11.1587
等职	-11.1587
洁	-11.1589
年美国人口普查	-11.1592
雲南	-11.1594
东侧	-11.1598
通讯	-11.1599
相关的	-11.16
崛起	-11.1602
イ	-11.1603
较大	-11.1603
蝴蝶	-11.1608
收购	-11.1611
该校	-11.1612
跌	-11.1615
事實	-11.1616
木材	-11.1617
實體	-11.1619
执	-11.162
代號	-11.1622
侵犯	-11.1624
二级	-11.1624
盛行	-11.1626
所得	-11.1626
姿	-11.1627
管道	-11.1628
Co	-11.1628
建於	-11.1634
領先	-11.1634
相繼	-11.1636
肢	-11.1637
改制為	-11.1638
的音樂	-11.1639
證券	-11.164
色情	-11.164
生效	-11.1642
的元素	-11.1642
这时	-11.1642
除外	-11.1643
首爾	-11.1644
散文	-11.1645
社交	-11.1646
戰艦	-11.1648
華視	-11.1648
為期	-11.1648
闸	-11.1651
打入	-11.1652
鋪	-11.1653
是中國	-11.1653
彰化縣	-11.1653
乞	-11.1654
迁至	-11.1657
培訓	-11.1657
工艺	-11.1658
缺陷	-11.1661
辦法	-11.1661
圖案	-11.1661
幹部	-11.1662
造成了	-11.1665
長大	-11.1667
涌	-11.1668
毫無	-11.167
蓝色	-11.1672
童年	-11.1674
全线	-11.1675
刊物	-11.1676
Th	-11.1678
释	-11.1679
錄製	-11.168
富有	-11.1681
能在	-11.1682
西德	-11.1683
菲利普	-11.1684
元件	-11.1686
祁	-11.1686
瓦爾	-11.1691
貫	-11.1693
培训	-11.1693
ee	-11.1694
通稱	-11.1694
不在	-11.1696
北上	-11.1697
“”	-11.1701
悠	-11.1702
是一颗绕太阳运转的	-11.1703
攜帶	-11.1704
意圖	-11.1705
尚書	-11.1707
瑛	-11.1709
暗殺	-11.1712
5,000	-11.1712
中央政府	-11.1713
达成	-11.1713
少数民族	-11.1715
北區	-11.1715
走廊	-11.1716
自從	-11.1719
该小行星于	-11.1719
增至	-11.1721
：〈	-11.1725
劝	-11.1725
年代末	-11.1725
少將	-11.1726
一般的	-11.1728
的思想	-11.1732
建立的	-11.1733
為由	-11.1733
墩	-11.1734
运河	-11.1734
直升機	-11.1735
獵人	-11.1736
蓄	-11.1736
饶	-11.1739
頒獎典禮	-11.1739
日舉行	-11.174
楓	-11.1741
泰山	-11.1741
擴建	-11.1742
映射	-11.1745
单曲	-11.1745
重複	-11.1746
儲	-11.1747
以東	-11.1747
240	-11.1747
磷	-11.1751
毕业后	-11.1752
碰撞	-11.1752
德爾	-11.1752
Le	-11.1753
總教區	-11.1753
學科	-11.1754
時候	-11.1755
操縱	-11.1757
洛夫	-11.1757
那個	-11.1758
哥倫比亞	-11.1758
多位	-11.176
現存	-11.1761
物業	-11.1762
第二個	-11.1762
綿	-11.1763
1890	-11.1764
复兴	-11.1764
浴	-11.1764
中途	-11.1767
织	-11.1768
參觀	-11.1769
访	-11.1772
借用	-11.1773
进步	-11.1773
all	-11.1773
騙	-11.1775
塞爾維亞	-11.1778
召喚	-11.1779
縣治	-11.1782
是為	-11.1783
怎麼	-11.1783
理事	-11.1784
系列的	-11.1786
）　	-11.1787
哈德	-11.1789
奖项	-11.1789
175	-11.1793
通车	-11.1794
论文	-11.1794
音樂會	-11.18
鎮壓	-11.1801
显著	-11.1801
长子	-11.1802
敷	-11.1802
1.7	-11.1804
路上	-11.1808
公投	-11.1811
行李	-11.1811
把他	-11.1811
米的	-11.1813
心中	-11.1814
NA	-11.1816
目的是	-11.1817
一枚	-11.1818
故居	-11.1819
年左右	-11.182
背後	-11.182
支配	-11.182
教導	-11.1821
後因	-11.1821
之星	-11.1822
南端	-11.1822
始終	-11.1822
制服	-11.1824
分泌	-11.1825
编剧	-11.1825
意思是	-11.1826
美术	-11.1826
镜头	-11.1826
的東西	-11.1827
遮	-11.1827
沒有任何	-11.1828
▁中華民國	-11.1828
長安	-11.1829
主小行星带小行星	-11.1832
撤銷	-11.1832
开设	-11.1836
人权	-11.1837
三星	-11.1837
一件	-11.1841
的结果	-11.1842
象征	-11.1842
南洋	-11.1843
體重	-11.1844
很好	-11.1846
既有	-11.1847
行車	-11.1847
的情形	-11.1848
障碍	-11.1848
大众	-11.1848
五大	-11.185
析	-11.185
推理	-11.185
每月	-11.1852
悬	-11.1853
堯	-11.1853
侠	-11.1856
株式會社	-11.1859
香港大學	-11.186
改進	-11.186
万吨	-11.1861
江戶時代	-11.1861
只得	-11.1861
處理器	-11.1863
一定的	-11.1863
梭	-11.1863
铁道部	-11.1864
氟	-11.1866
凝	-11.1868
軍方	-11.1868
巴特	-11.1869
碗	-11.187
被列入	-11.1871
发表了	-11.1876
浸	-11.1876
ers	-11.1877
立場	-11.1878
樊	-11.1879
棠	-11.1879
啊	-11.188
混淆	-11.1881
紫色	-11.1881
深夜	-11.1882
引力	-11.1884
打開	-11.1884
单元	-11.1886
也可能	-11.189
分店	-11.1891
的秘密	-11.1892
各項	-11.1895
适	-11.1896
铁道	-11.1897
5.5	-11.1897
回国	-11.1897
谦	-11.1898
星球	-11.1899
重組	-11.1901
全年	-11.1902
第二次世界大戰	-11.1902
德里	-11.1908
AV	-11.191
槍管	-11.1911
北海	-11.1912
（2010	-11.1914
ow	-11.1916
保育	-11.1917
▁1955	-11.1918
执政	-11.192
橘	-11.1921
情况下	-11.1921
演講	-11.1922
日本電視台	-11.1922
視覺	-11.1924
领导的	-11.1924
北站	-11.1924
派人	-11.1925
可供	-11.1925
建筑物	-11.1928
与其	-11.1931
雕刻	-11.1931
的唯一	-11.1932
形式的	-11.1932
165	-11.1932
短期	-11.1932
武帝	-11.1935
位在	-11.1936
颜	-11.1936
彈藥	-11.1937
。1995	-11.1937
物理学	-11.1938
▁U	-11.1938
代表团	-11.1939
郝	-11.1939
▁上海	-11.1941
酒精	-11.1943
孙中山	-11.1943
克萊	-11.1944
經理	-11.1944
企劃	-11.1947
多元	-11.1948
好的	-11.1949
弃	-11.1949
闭	-11.1949
承受	-11.195
麵包	-11.1951
1898	-11.1952
黑龙江省	-11.1953
的设计	-11.1955
資深	-11.1955
大厦	-11.1958
认定	-11.1958
AL	-11.196
東北部	-11.196
成功的	-11.196
留学	-11.1964
陣營	-11.1965
保證	-11.1966
隊友	-11.1966
界的	-11.1969
自治区	-11.197
希爾	-11.197
專案	-11.197
辽宁省	-11.1973
鈞	-11.1973
是用	-11.1974
占地	-11.1975
牟	-11.1976
EC	-11.1978
两年	-11.198
ner	-11.198
預期	-11.1982
和尚	-11.1984
金門	-11.1985
狮	-11.1986
情人	-11.1986
運算	-11.1987
强度	-11.1987
约瑟夫	-11.1987
货物	-11.199
待遇	-11.199
開播	-11.1991
為何	-11.1992
羽毛	-11.1998
彎	-11.2001
的父亲	-11.2002
之路	-11.2002
104	-11.2002
優先	-11.2003
CH	-11.2005
▁蔡	-11.2006
过渡	-11.2008
污	-11.2008
发生在	-11.2009
▁1946	-11.2013
举行的	-11.2019
下轄	-11.2023
筋	-11.2023
駒	-11.2023
討厭	-11.2023
天子	-11.2026
间的	-11.2027
武術	-11.2027
牧師	-11.2029
行政区划	-11.2029
日發行	-11.2031
葡	-11.2031
事件中	-11.2031
地表	-11.2031
城巴	-11.2032
又在	-11.2032
夢想	-11.2033
司徒	-11.2033
傳送	-11.2035
噴	-11.2037
共用	-11.2037
诗歌	-11.2037
肃	-11.2038
行政區	-11.2039
範圍內	-11.2041
触	-11.2045
平方英里	-11.2046
讀書	-11.2046
裸	-11.2047
1899	-11.2047
明朝政治人物	-11.2047
導師	-11.2048
閒	-11.2048
關鍵	-11.2048
赏	-11.2048
履	-11.2048
理查德	-11.2048
播出的	-11.2051
AM	-11.2053
硫酸	-11.2053
建築師	-11.2057
遷至	-11.2058
寸	-11.2059
摄影	-11.2062
脱离	-11.2063
在这里	-11.2063
三千	-11.2063
其實是	-11.2064
年代中期	-11.2065
龐	-11.2067
区的	-11.2067
响	-11.2068
獨自	-11.2071
con	-11.2071
-16	-11.2072
袍	-11.2072
外型	-11.2073
同為	-11.2074
來自於	-11.2076
依賴	-11.2077
り	-11.2078
轉投	-11.2079
氣象	-11.2083
人次	-11.2084
安县	-11.2084
的学生	-11.2085
已故	-11.2088
巴克	-11.2092
不多	-11.2092
腹部	-11.2093
し	-11.2095
終點	-11.2095
插入	-11.2097
land	-11.2099
所謂的	-11.21
但不	-11.2102
下載	-11.2103
余人	-11.2107
。1988	-11.2108
现为	-11.2109
爸爸	-11.2111
派的	-11.2113
資本	-11.2113
扬州	-11.2114
南侧	-11.2114
開啟	-11.2117
變更	-11.2117
首领	-11.2119
海盜	-11.212
就此	-11.2122
公平	-11.2122
準確	-11.2123
辟	-11.2125
书籍	-11.2125
屬性	-11.2126
轟炸	-11.2127
EP	-11.2127
庚	-11.2127
原本的	-11.2128
传统的	-11.2128
託	-11.2133
直径	-11.2134
大师	-11.2135
知名的	-11.2137
曾為	-11.2138
电台	-11.2139
多倫多	-11.214
三国	-11.214
抚	-11.2142
部下	-11.2143
一处	-11.2144
黔	-11.2144
水面	-11.2144
月中旬	-11.2144
香港配音	-11.2149
堪	-11.2149
才會	-11.215
国道	-11.215
资本	-11.2152
奴隶	-11.2152
蘋果	-11.2153
and	-11.2153
码头	-11.2153
比起	-11.2154
邓小平	-11.2155
实践	-11.2156
宣称	-11.2158
转移	-11.2159
甸	-11.2159
迎接	-11.2161
掠	-11.2162
em	-11.2163
值得	-11.2166
相遇	-11.2167
。1992	-11.2167
偵探	-11.2168
確實	-11.2169
科目	-11.2171
卓越	-11.2173
末端	-11.2174
子公司	-11.2176
檐	-11.2177
祖母	-11.2179
的经济	-11.2179
2.2	-11.2181
叛乱	-11.2181
真人	-11.2182
敲	-11.2183
弼	-11.2183
憂	-11.2183
促	-11.2184
科技大學	-11.2186
論文	-11.2188
▁巴	-11.2188
拉尔	-11.2189
。1994	-11.2191
会在	-11.2194
历史学家	-11.2194
ina	-11.2195
答應	-11.2195
吉林省	-11.2197
PA	-11.2197
金星	-11.2197
外交官	-11.2199
斯托	-11.22
」(	-11.2201
一個人	-11.2201
50%	-11.2201
各有	-11.2202
中将	-11.2203
乌斯	-11.2203
武功	-11.2204
满洲	-11.2205
克拉克	-11.2205
在一些	-11.2208
假设	-11.2209
第十四	-11.2211
▁卷	-11.2212
僑	-11.2214
昔	-11.2215
的内容	-11.2217
苍	-11.2217
訴訟	-11.2218
丟	-11.2222
綾	-11.2223
的照片	-11.2225
蔚	-11.2227
在該	-11.2228
法兰西	-11.2228
随即	-11.223
提议	-11.223
甄	-11.2231
图尔	-11.2232
形态	-11.2232
短暫	-11.2232
缩	-11.2234
一組	-11.2235
办理	-11.2236
称呼	-11.2236
為基礎	-11.2237
合理	-11.224
AP	-11.2242
影视	-11.2243
▁f	-11.2246
vi	-11.2247
場景	-11.2248
消費者	-11.225
海姆	-11.2252
原本是	-11.2254
径	-11.2254
奉命	-11.2255
名詞	-11.226
遷往	-11.2261
小提琴	-11.2263
10%	-11.2263
淚	-11.2263
安置	-11.2264
赋	-11.2264
ac	-11.2266
兰州	-11.2266
花蓮	-11.2267
SE	-11.2267
競選	-11.2268
月下旬	-11.2268
隱藏	-11.2269
社會主義	-11.2269
()	-11.2269
游客	-11.2271
區議員	-11.2273
出战	-11.2274
銅鑼灣	-11.2274
搭載	-11.2276
有效的	-11.2279
摧毀	-11.2279
ber	-11.228
娟	-11.228
托马斯	-11.228
首部	-11.2281
南站	-11.2284
体制	-11.2285
▁1968	-11.2287
称号	-11.2287
骑士	-11.2287
元帥	-11.2289
卻是	-11.229
婷	-11.2291
▁1976	-11.2298
並且在	-11.2299
群体	-11.2299
绥	-11.2299
馬爾	-11.2299
峻	-11.23
证据	-11.2303
官兵	-11.2303
命名的	-11.2305
GO	-11.2306
將他	-11.2306
曝光	-11.2306
繼位	-11.2307
勿	-11.2307
相等	-11.231
致命	-11.2312
诞生	-11.2313
艾爾	-11.2314
0.4	-11.2317
注意到	-11.2317
旋转	-11.2318
练	-11.2318
水晶	-11.2319
法語	-11.232
爭奪	-11.2321
深圳市	-11.2321
di	-11.2322
起兵	-11.2323
航线	-11.2323
毗	-11.2325
战士	-11.2326
联络	-11.2327
限定	-11.2329
▁聖	-11.233
-17	-11.2333
山村	-11.2335
日本政府	-11.2338
火車	-11.2339
林肯	-11.2339
賦	-11.2343
後來在	-11.2343
宦官	-11.2344
擒	-11.2345
關東	-11.2345
這兩個	-11.2345
秘書長	-11.2345
聯隊	-11.2345
，2008	-11.2347
维也纳	-11.2348
編碼	-11.2349
▁1956	-11.235
最好	-11.235
水果	-11.2354
嬰兒	-11.2354
迪斯	-11.2359
发挥	-11.236
在同一	-11.236
描繪	-11.236
併	-11.2362
的控制	-11.2362
全省	-11.2362
驱动	-11.2366
吞	-11.2368
一邊	-11.2369
ron	-11.2369
攀	-11.2373
各界	-11.2374
在一次	-11.2375
洛杉矶	-11.2376
炒	-11.2377
-11	-11.2378
韦尔	-11.238
尚书	-11.2381
忌	-11.2383
吐蕃	-11.2386
戰爭中	-11.2387
權益	-11.2388
太祖	-11.239
源於	-11.239
他認為	-11.2392
少量	-11.2394
原来	-11.2395
接手	-11.2395
蓉	-11.2395
起源	-11.2395
怀疑	-11.2397
流行音樂	-11.2397
▁1954	-11.2397
嬌	-11.2399
德語	-11.24
种族	-11.2401
行業	-11.2402
工黨	-11.2404
局長	-11.2405
招收	-11.2405
搭檔	-11.2405
總共	-11.2406
伊斯蘭教	-11.2409
独立的	-11.2409
宰	-11.2411
數值	-11.2411
鏡頭	-11.2413
轉移	-11.2415
103	-11.2415
否認	-11.2416
結局	-11.2417
罩	-11.2417
罗马尼亚	-11.2418
判决	-11.242
落敗	-11.2423
▁1937	-11.2423
1906	-11.2424
回憶	-11.2424
两者	-11.2426
現有	-11.2427
孟加拉	-11.2428
。1946	-11.2429
又被	-11.2431
七十	-11.2431
抢	-11.2432
严格	-11.2435
則會	-11.2436
曾于	-11.2436
全港	-11.2437
团结	-11.2438
▁※	-11.2438
（；）	-11.2438
农场	-11.2438
中毒	-11.2439
焉	-11.244
進化	-11.2442
羅馬尼亞	-11.2442
掌管	-11.2444
分數	-11.2445
底部	-11.2445
沪	-11.2449
香港中文大學	-11.245
中村	-11.245
里克	-11.2451
馨	-11.2453
鑽	-11.2455
视为	-11.2456
所需的	-11.2458
荆	-11.246
负责人	-11.2461
救出	-11.2464
策劃	-11.2464
只會	-11.2464
廣西	-11.2465
所需	-11.2466
的戰鬥	-11.2468
數百	-11.2468
蠻	-11.2471
現已	-11.2472
循	-11.2472
的行動	-11.2472
可见	-11.2473
祖籍	-11.2474
出版了	-11.2474
江蘇	-11.2477
屏東	-11.2477
相近	-11.2478
三十年	-11.2483
博士学位	-11.2483
升级	-11.2484
各类	-11.2484
無綫	-11.2484
文庫	-11.2484
飲	-11.2486
國防	-11.2486
出版的	-11.2487
酒吧	-11.2487
搬到	-11.2487
ty	-11.2488
銜	-11.2489
窑	-11.249
家臣	-11.2491
潛艇	-11.2491
四周	-11.2492
海峡	-11.2493
滅亡	-11.2493
感覺	-11.2493
抽象	-11.2495
他們在	-11.2495
書中	-11.2496
TE	-11.2497
左派	-11.2497
出賽	-11.2498
1909	-11.2499
引进	-11.25
天堂	-11.25
企	-11.25
規格	-11.2501
战争中	-11.2502
。1985	-11.2507
足夠	-11.2507
ラ	-11.2508
版的	-11.251
他以	-11.2511
仍未	-11.2511
日发现	-11.2511
凹	-11.2513
区分	-11.2514
清晰	-11.2515
被俘	-11.2515
毁	-11.2515
而後	-11.2516
您	-11.2518
觀塘	-11.252
中立	-11.2521
St	-11.2522
陳水扁	-11.2523
了許多	-11.2524
美國海軍	-11.2524
欢	-11.2524
喜剧	-11.2525
半年	-11.2526
ah	-11.2528
好評	-11.2528
塞爾	-11.2529
或者是	-11.2529
▁羅	-11.253
共产主义	-11.2531
匪	-11.2531
拉特	-11.2532
封閉	-11.2535
印度洋	-11.254
ung	-11.2541
的態度	-11.2542
MI	-11.2543
匡	-11.2543
年毕业于	-11.2544
零件	-11.2547
那样	-11.2547
接到	-11.2547
除非	-11.2549
卑	-11.255
二等	-11.2551
磚	-11.2551
信義	-11.2552
化身	-11.2553
万平方米	-11.2553
出入	-11.2554
東南部	-11.2554
的比例	-11.2557
也没有	-11.2558
信任	-11.256
one	-11.256
很容易	-11.256
图案	-11.256
始建於	-11.2561
短片	-11.2561
簽	-11.2564
▁Y	-11.2564
斥	-11.2567
是一	-11.2568
必然	-11.2569
ho	-11.257
揮	-11.2571
活佛	-11.2572
增强	-11.2575
年代的	-11.2576
伊斯兰教	-11.2576
全程	-11.2577
▁1975	-11.2578
公立	-11.2579
，2012	-11.2579
▁北京	-11.2581
的首	-11.2582
ES	-11.2582
开工	-11.2583
源于	-11.2584
國家的	-11.2585
捉	-11.2587
選民	-11.2588
國旗	-11.2589
瘤	-11.259
合共	-11.2592
鄉村	-11.2592
ick	-11.2593
矛	-11.2594
庞	-11.2596
全長	-11.2596
办法	-11.2597
袖	-11.2598
发达	-11.2601
朝日電視台	-11.2602
原著	-11.2603
淫	-11.2604
贫	-11.2605
演讲	-11.2605
晃	-11.2605
收視	-11.2605
。1991	-11.2606
0.8	-11.2607
之亂	-11.2608
ley	-11.2608
不願	-11.2609
不大	-11.2612
▁本作	-11.2615
會出現	-11.2616
江湖	-11.2617
机会	-11.2619
卻被	-11.2621
類別	-11.2621
同性戀	-11.2623
藏族	-11.2624
指南	-11.2625
存储	-11.2626
回应	-11.2627
爵位	-11.2628
所谓	-11.2629
勇士	-11.2629
驅逐	-11.263
隊的	-11.263
之所以	-11.2631
q	-11.2632
民政	-11.2633
這也是	-11.2634
枢纽	-11.2635
體育館	-11.2636
当代	-11.2636
之稱	-11.2637
纖維	-11.2637
這場	-11.2637
低地	-11.2638
TA	-11.2639
改任	-11.2639
ver	-11.2639
櫃	-11.2641
谁	-11.2641
心臟	-11.2641
前身為	-11.2644
第三代	-11.2644
集結	-11.2645
研究者	-11.2646
夺	-11.2647
东路	-11.265
剧情	-11.2651
数据库	-11.2651
帥	-11.2653
磷酸	-11.2653
維多利亞	-11.2654
RNA	-11.2655
称之为	-11.2656
楷	-11.2657
▁1948	-11.2658
鸟类	-11.2659
是台灣	-11.2659
檀	-11.2659
中將	-11.2661
積分	-11.2662
訊	-11.2664
两位	-11.2664
薰	-11.2666
6.5	-11.2668
储	-11.2669
设定	-11.267
完善	-11.267
OS	-11.2671
茎	-11.2671
沃尔	-11.2671
途径	-11.2671
第二天	-11.2674
耶稣	-11.2676
攻克	-11.2677
▁1952	-11.2678
局局长	-11.2679
科進士	-11.2682
撞擊	-11.2682
铝	-11.2683
嘎	-11.2684
IN	-11.2686
陝西	-11.2686
1,2	-11.2687
一直是	-11.269
信心	-11.2691
觉得	-11.2692
獲獎	-11.2692
的基础上	-11.2694
重庆市	-11.2696
赤道	-11.2697
低於	-11.2698
綜藝節目	-11.2699
不等	-11.27
接待	-11.27
較大	-11.27
清末	-11.2701
遺跡	-11.2702
起飛	-11.2703
，2001	-11.2705
蔬菜	-11.2707
和解	-11.2709
布局	-11.2713
回合	-11.2713
考量	-11.2716
0°	-11.2717
高鐵	-11.2717
耶尔	-11.2717
五百	-11.2718
捐款	-11.2718
夥伴	-11.2723
客戶	-11.2728
质疑	-11.2729
滾	-11.2731
-19	-11.2731
州負責管轄	-11.2732
进程	-11.2732
年加入	-11.2732
青衣	-11.2735
现在的	-11.2735
重型	-11.2736
注重	-11.2736
開出	-11.2737
為香港	-11.2737
被授予	-11.2738
Ch	-11.274
集中在	-11.274
逃走	-11.2741
蛛	-11.2743
是因为	-11.2745
航天	-11.2749
機動	-11.2751
以及其他	-11.2751
不論	-11.2752
▁古	-11.2752
董事长	-11.2753
带来	-11.2756
戲院	-11.2756
被判	-11.2757
球场	-11.2757
出色	-11.2758
航空母艦	-11.276
ん	-11.276
生理	-11.2762
支队	-11.2762
時被	-11.2764
動畫版	-11.2765
全力	-11.2766
合并为	-11.2767
璋	-11.2769
惹	-11.2771
邏輯	-11.2772
歷代	-11.2773
明白	-11.2773
可達	-11.2773
為名	-11.2776
应当	-11.2778
斯堡	-11.278
認知	-11.2781
识	-11.2782
聚落	-11.2783
曲线	-11.2785
葡萄酒	-11.2785
的特殊	-11.279
危害	-11.2791
南韓	-11.2792
後於	-11.2792
伙	-11.2793
統治者	-11.2795
航海	-11.2795
個別	-11.2798
▁in	-11.2798
旁白	-11.2799
群體	-11.2803
奧運會	-11.2803
千里	-11.2806
時空	-11.2806
與他	-11.2807
以东	-11.2811
真空	-11.2813
AN	-11.2814
▁1972	-11.2815
粉絲	-11.2817
新任	-11.2817
▁埃	-11.2817
長官	-11.2819
列为	-11.2819
血管	-11.2821
1914	-11.2822
1,0	-11.2823
致使	-11.2824
▁宋	-11.2826
不合	-11.2828
敗給	-11.2828
警察局	-11.2829
裁定	-11.283
的地區	-11.2831
怪獸	-11.2831
物理學	-11.2831
▁a	-11.2832
回族	-11.2832
厦门	-11.2833
蜘蛛	-11.2833
師父	-11.2835
憤怒	-11.2837
樸	-11.2837
的身分	-11.2842
始祖	-11.2844
水庫	-11.2847
更大	-11.2848
马丁	-11.2848
暴露	-11.2849
房間	-11.2849
米蘭	-11.2849
In	-11.285
同伴	-11.2852
107	-11.2852
西面	-11.2852
合體	-11.2853
圣母	-11.2856
攻下	-11.2858
内蒙古自治区	-11.2859
是他	-11.2859
五代	-11.286
西側	-11.2861
妇	-11.2861
抗战	-11.2863
的数据	-11.2863
丛	-11.2864
喻	-11.2865
2.1	-11.2866
金錢	-11.2871
的定義	-11.2872
總經理	-11.2873
不像	-11.2879
編入	-11.2882
南區	-11.2888
▁Z	-11.2888
初次	-11.2888
很高	-11.2888
阿波罗	-11.2889
SO	-11.289
汉字	-11.289
猶	-11.2892
背面	-11.2893
景觀	-11.2894
巴爾	-11.2895
樟	-11.2896
流入	-11.2896
繩	-11.2898
登基	-11.2898
擴展	-11.2899
产物	-11.2903
不詳	-11.2904
第一任	-11.2905
字符	-11.2906
ME	-11.2906
風雲	-11.291
等於	-11.291
額外	-11.291
2》	-11.2911
太太	-11.2912
籌	-11.2913
進口	-11.2917
ID	-11.2918
水準	-11.2919
凌晨	-11.2921
末年	-11.2922
有许多	-11.2923
党委书记	-11.2923
▁曾	-11.2924
mi	-11.2925
的傳統	-11.2926
磁場	-11.293
篮球	-11.2931
攻佔	-11.2932
招募	-11.2932
奴隸	-11.2933
外形	-11.2934
在內的	-11.2934
险	-11.2934
最古老的	-11.2935
费用	-11.2935
后又	-11.2936
瘦	-11.2939
趨	-11.294
普魯士	-11.294
已在	-11.2941
合金	-11.2944
橙	-11.2945
大隊	-11.2947
削	-11.2948
俗称	-11.2952
越來越	-11.2954
▁&	-11.2958
新华网	-11.2964
TO	-11.2968
體積	-11.2969
145	-11.2973
紧急	-11.2975
於香港	-11.2976
加尔	-11.2977
框	-11.2978
次日	-11.2978
英寸	-11.2978
出家	-11.2979
今天的	-11.298
（2006	-11.2981
墓地	-11.2984
有利	-11.2986
员工	-11.2986
称作	-11.2986
拼音	-11.2986
注射	-11.2986
融入	-11.2987
2.6	-11.2988
體驗	-11.299
剧院	-11.2992
安德	-11.2992
不起	-11.2994
大城市	-11.2994
。1955	-11.2994
NO	-11.2995
羅伯特	-11.2995
民航	-11.2996
购	-11.2996
惜	-11.2996
牙齒	-11.3
禧	-11.3
反擊	-11.3001
市內	-11.3001
條款	-11.3002
的經濟	-11.3002
你的	-11.3004
大部分的	-11.3004
見面	-11.3005
遞	-11.3005
6000	-11.3006
分局	-11.3007
出生在	-11.3011
理查	-11.3011
▁这颗小行星的绝对星等为	-11.3012
划分	-11.3013
重播	-11.3016
该地区	-11.3017
甘肃省	-11.3017
市内	-11.3018
名譽	-11.3018
動詞	-11.3019
億港元	-11.3019
数十	-11.3019
煉	-11.3021
平方	-11.3021
ts	-11.3022
夏天	-11.3024
物理学家	-11.3025
連續劇	-11.3026
贝格	-11.3028
部副部长	-11.3029
0.7	-11.3029
蔣中正	-11.303
习惯	-11.3031
主要有	-11.3032
售票	-11.3034
125	-11.3035
回復	-11.3036
颁发	-11.3039
年份	-11.3041
的日子	-11.3043
患有	-11.3045
裙	-11.3045
運送	-11.3045
后被	-11.3046
兄長	-11.3046
分公司	-11.3049
发音	-11.305
光譜	-11.3051
濃	-11.3053
感觉	-11.3053
主场	-11.3054
风险	-11.3054
爱情	-11.3055
顺序	-11.3056
野生	-11.3058
品種	-11.3059
關聯	-11.306
濤	-11.306
对其	-11.3061
激素	-11.3061
揭	-11.3064
想法	-11.3065
世纪末	-11.3066
吟	-11.3067
详细	-11.3068
国家的	-11.3073
芸	-11.3073
並有	-11.3074
位居	-11.3076
烷	-11.3078
铅	-11.3079
疫苗	-11.3081
-20	-11.3082
都城	-11.3082
露出	-11.3082
百貨	-11.3082
正統	-11.3083
的方向	-11.3084
相互作用	-11.3086
長的	-11.3087
入學	-11.3088
纤维	-11.3091
公務員	-11.3092
中華職棒	-11.3092
兇	-11.3093
重傷	-11.3093
租借	-11.3094
漢人	-11.3094
剌	-11.3095
1916	-11.3096
一只	-11.3097
。1983	-11.3098
喙	-11.3098
补充	-11.3099
逃到	-11.31
火车	-11.3101
全境	-11.3103
CC	-11.3103
發現的	-11.3105
清政府	-11.3106
況	-11.3107
并不是	-11.311
下行	-11.311
鸭	-11.311
巨星	-11.3111
太宗	-11.3111
东汉	-11.3115
▁因為	-11.3119
很快就	-11.3119
的活動	-11.312
移植	-11.312
八路军	-11.3121
常见的	-11.3122
记忆	-11.3123
面积约为	-11.3124
1200	-11.3125
珍珠	-11.3126
陽光	-11.3127
▁石	-11.3127
屏東縣	-11.3127
高麗	-11.3128
的电影	-11.3129
安德烈	-11.313
內有	-11.3131
鬥爭	-11.3132
標記	-11.3132
火炮	-11.3136
135	-11.3136
古城	-11.314
神學	-11.314
ong	-11.3141
法人	-11.3141
空降	-11.3142
相似的	-11.3143
毛澤東	-11.3143
平日	-11.3144
後才	-11.3144
输	-11.3145
中正	-11.3146
的日本	-11.3146
鼓励	-11.3147
阿克	-11.3147
堵	-11.3147
間接	-11.3149
委會	-11.3149
考入	-11.315
寵	-11.3151
煤炭	-11.3152
▁1966	-11.3154
轉變	-11.3155
穿过	-11.3157
灾	-11.3157
拿破仑	-11.3158
寫成	-11.3158
熱帶氣旋	-11.316
放射性	-11.316
它们的	-11.3163
2.3	-11.3167
擦	-11.3169
穀	-11.3169
一把	-11.317
補給	-11.3171
被视为	-11.3172
ca	-11.3174
潜艇	-11.3177
塗	-11.3184
多為	-11.3185
还在	-11.3185
的说法	-11.3185
品种	-11.3186
戰國	-11.3186
殊	-11.3188
虛構	-11.3188
之初	-11.319
。1984	-11.319
有兩個	-11.3191
街頭	-11.3194
塔尔	-11.3194
办公	-11.3196
獨立的	-11.3196
懷孕	-11.3197
舞台劇	-11.3199
片中	-11.3199
前鋒	-11.32
劣	-11.3201
鉴	-11.3201
手上	-11.3201
伊藤	-11.3203
湿	-11.3205
戰事	-11.3207
打倒	-11.3207
刷	-11.3207
喊	-11.3208
使徒	-11.3209
寡	-11.321
采访	-11.3216
本劇	-11.3216
喪失	-11.3217
一职	-11.3217
推出的	-11.3217
绵	-11.3219
新教	-11.3219
勉	-11.3224
est	-11.3225
預備	-11.3225
102	-11.3227
2.4	-11.3227
瑩	-11.3228
る	-11.3228
的事件	-11.323
the	-11.3233
▁1977	-11.3233
丧	-11.3235
山下	-11.3235
▁1947	-11.3236
是唯一	-11.3236
倾	-11.3237
电路	-11.3238
於此	-11.324
评估	-11.324
采用了	-11.3241
外傳	-11.3241
此類	-11.3245
此舉	-11.3246
股東	-11.3246
平時	-11.3247
井上	-11.3248
▁1973	-11.3252
三种	-11.3256
正好	-11.3257
的演出	-11.3262
的大小	-11.3262
▁p	-11.3262
相連	-11.3263
放映	-11.3268
窩	-11.3269
初始	-11.3269
瀛	-11.327
1913	-11.327
实力	-11.3271
か	-11.3271
手持	-11.3272
〉）	-11.3274
1,3	-11.3275
明清	-11.3275
▁艾	-11.3278
中止	-11.3279
向前	-11.3279
研发	-11.3282
後世	-11.3283
撤出	-11.3283
候选人	-11.3284
為台灣	-11.3285
笑道	-11.3285
眼鏡	-11.3288
右手	-11.3288
ni	-11.3288
東側	-11.3288
有機	-11.3289
的目標	-11.3289
同位素	-11.329
溫哥華	-11.329
東漢	-11.329
ba	-11.3292
晏	-11.3293
主动	-11.3293
。1989	-11.3293
分開	-11.3295
維斯	-11.3297
北極	-11.3297
改制	-11.3297
鋼鐵	-11.3298
此處	-11.3301
擊退	-11.3303
籠	-11.3304
大選	-11.3305
预计	-11.3305
人受傷	-11.3305
将领	-11.3305
嘉義縣	-11.3306
另一種	-11.3308
四位	-11.331
传教士	-11.3311
是德国	-11.3312
學生會	-11.3313
毒性	-11.3313
來看	-11.3314
，2004	-11.3314
站在	-11.3315
坏	-11.3315
高达	-11.3317
卡片	-11.332
被杀	-11.332
將於	-11.332
起訴	-11.3321
20%	-11.3323
遺傳	-11.3323
順治	-11.3323
偶然	-11.3325
建国	-11.3325
重视	-11.3328
損	-11.3328
縣長	-11.3329
这也是	-11.333
主義者	-11.333
摸	-11.3333
隋朝	-11.3333
1860	-11.3334
路徑	-11.3337
蒸汽	-11.3338
桌	-11.334
人口变化图示	-11.334
板橋	-11.3341
欣賞	-11.3341
台語	-11.3342
的著作	-11.3343
场景	-11.3346
三等	-11.3348
呎	-11.335
張專輯	-11.335
寵物	-11.3351
省委	-11.3351
校方	-11.3352
再生	-11.3353
育有	-11.3355
1911	-11.3355
家長	-11.3356
文艺	-11.3357
起草	-11.3359
尼泊尔	-11.3359
文化中心	-11.3359
。1948	-11.336
参议院	-11.336
设在	-11.3361
第十三	-11.3361
電信	-11.3366
先行	-11.3367
乡村	-11.337
臥	-11.337
年轻	-11.3372
0.9	-11.3373
行程	-11.3376
否	-11.3377
生產的	-11.3378
拿破崙	-11.3378
的做法	-11.3378
窗口	-11.3379
斤	-11.338
年以來	-11.3381
上演	-11.3382
我是	-11.3382
民俗	-11.3383
み	-11.3384
敘利亞	-11.3384
躍	-11.3385
紀錄片	-11.3386
基本法	-11.3386
交给	-11.3387
微博	-11.3387
動工	-11.3388
每週	-11.3389
大理	-11.3389
1,1	-11.339
的老	-11.3391
書店	-11.3393
時尚	-11.3394
邪惡	-11.3394
侵	-11.3395
平常	-11.3396
ve	-11.3396
賽車	-11.34
转换	-11.34
熟悉	-11.3401
插曲	-11.3404
传递	-11.3404
故事中	-11.3404
金斯	-11.3406
同年五月	-11.3406
1896	-11.3409
邀	-11.341
的過程	-11.341
阜	-11.3411
耶夫	-11.3412
決戰	-11.3412
做法	-11.3412
陣亡	-11.3412
便會	-11.3413
中国的	-11.3413
。1958	-11.3413
期待	-11.3418
读书	-11.3418
壩	-11.3418
派系	-11.3419
戰敗	-11.342
制的	-11.342
西蒙	-11.342
拘捕	-11.3422
乒乓球	-11.3423
1.0	-11.3423
加藤	-11.3424
1926	-11.3424
si	-11.3425
一段時間	-11.3426
留學	-11.3426
頭銜	-11.3427
八大	-11.3427
的重要性	-11.3427
打出	-11.3428
绕	-11.3428
繼任	-11.3429
頸	-11.343
排序	-11.3431
直隸	-11.3432
年出版	-11.3434
机务段	-11.3437
三重	-11.3438
群眾	-11.3441
對付	-11.3442
檢測	-11.3442
叢	-11.3443
布拉格	-11.3448
作客	-11.3448
炉	-11.3448
的反	-11.3449
學位	-11.3449
特雷	-11.345
搜	-11.345
這兩	-11.3452
民兵	-11.3452
枕	-11.3453
收視率	-11.3454
个体	-11.3456
钢铁	-11.3456
变换	-11.3456
洛陽	-11.3456
变为	-11.3458
法軍	-11.3459
是不	-11.346
关键	-11.346
流程	-11.346
貨運	-11.3461
圖像	-11.3461
里程	-11.3462
第二名	-11.3467
主编	-11.3468
射击	-11.347
不易	-11.347
有所不同	-11.3471
港元	-11.3471
猜	-11.3471
當然	-11.3471
屋苑	-11.3472
的家庭	-11.3473
所属	-11.3474
论坛	-11.3474
主人公	-11.3474
主要以	-11.3476
最後在	-11.3476
臺灣省	-11.3478
老挝	-11.3478
大將	-11.3481
較多	-11.3484
（2008	-11.3484
1800	-11.3484
〉、〈	-11.3484
閘	-11.3486
担心	-11.3487
适合	-11.3487
廣播劇	-11.3489
术语	-11.3491
聖誕	-11.3496
之神	-11.3496
物資	-11.3497
飄	-11.3498
重复	-11.3498
拆卸	-11.3499
牠們的	-11.3502
主义者	-11.3503
诏	-11.3504
赶	-11.3505
冰川	-11.3507
1880	-11.3508
背部	-11.3509
老师	-11.351
農曆	-11.351
新西兰	-11.3511
人心	-11.3513
編制	-11.3515
RI	-11.3515
德州	-11.3515
▁本站	-11.3518
較低	-11.3519
ap	-11.352
art	-11.352
一款	-11.352
護照	-11.352
这场	-11.3522
站前	-11.3522
ill	-11.3522
市委书记	-11.3523
訴	-11.3523
傲	-11.3523
日間	-11.3523
膛	-11.3523
_	-11.3524
为其	-11.3524
賦予	-11.3525
信奉	-11.3527
西汉	-11.3527
的距離	-11.3527
兩大	-11.3529
战胜	-11.353
蜥	-11.3531
哈拉	-11.3532
繞	-11.3532
变种	-11.3533
一塊	-11.3533
星期	-11.3534
的一部份	-11.3534
德军	-11.3535
轟	-11.3536
自身的	-11.3537
无线电	-11.3537
在臺灣	-11.3538
建造的	-11.3538
水深	-11.354
的變化	-11.354
車廠	-11.3541
專利	-11.3541
遠東	-11.3541
缸	-11.3542
绘画	-11.3543
台中市	-11.3544
說出	-11.3544
可以被	-11.3545
傳遞	-11.3545
便利	-11.3545
營養	-11.3545
興起	-11.3546
皇子	-11.3546
蕃	-11.3548
构	-11.3549
黏	-11.3549
受損	-11.355
之王	-11.355
聖母	-11.3552
進軍	-11.3558
二战	-11.3558
。1982	-11.3558
不變	-11.3559
大將軍	-11.3559
獨特的	-11.356
成名	-11.356
算是	-11.3561
曜	-11.3562
▁該	-11.3562
前去	-11.3563
预测	-11.3563
郊区	-11.3563
SC	-11.3564
轉播	-11.3565
讚	-11.3565
分手	-11.3567
高等法院	-11.3569
第一届	-11.357
悔	-11.357
▁Ma	-11.357
始於	-11.3571
亮相	-11.3576
味道	-11.3576
比爾	-11.3577
▁1941	-11.3578
喇嘛	-11.3583
队长	-11.3583
饭	-11.3585
闪	-11.3586
義務	-11.3587
「-{	-11.3587
▁b	-11.3587
ア	-11.3588
认可	-11.3589
当前	-11.359
的食物	-11.3592
不停	-11.3594
的球員	-11.3594
指標	-11.3595
ke	-11.3597
主导	-11.3597
德川	-11.3597
年春	-11.3598
为基础	-11.3599
发售	-11.36
溶液	-11.3601
里奇	-11.3603
拿到	-11.3603
。1986	-11.3604
第二位	-11.3604
人均	-11.3605
}-」	-11.3605
貪	-11.3607
時報	-11.3607
保加利亞	-11.3607
一號	-11.3607
Ma	-11.3608
（2007	-11.3609
三分之一	-11.361
傷亡	-11.361
颁布	-11.3611
尚有	-11.3612
亚种	-11.3613
共有人口	-11.3616
山頂	-11.3618
擔當	-11.3619
排球	-11.3619
出于	-11.3619
US	-11.362
昏	-11.362
操作系统	-11.3622
演藝	-11.3623
茹	-11.3623
运动会	-11.3624
纳斯	-11.3626
的攻擊	-11.3627
發達	-11.3629
一班	-11.3631
逃往	-11.3631
抬	-11.3632
諭	-11.3632
泵	-11.3632
滿洲	-11.3633
佔據	-11.3637
璧	-11.3639
失利	-11.364
查尔斯	-11.3641
漫畫家	-11.3642
新興	-11.3642
暂	-11.3642
但後來	-11.3642
日晚上	-11.3643
发送	-11.3643
另一位	-11.3644
了自己的	-11.3645
师范大学	-11.3648
−	-11.3649
衰落	-11.365
受伤	-11.3651
冬天	-11.3653
干擾	-11.3654
驅動	-11.3654
過的	-11.3655
MC	-11.3655
友人	-11.3656
▁对于	-11.3657
等方面	-11.3658
公共交通	-11.3659
格勒	-11.3659
仅仅	-11.3661
細菌	-11.3661
神话	-11.3663
某個	-11.3663
与此同时	-11.3665
窮	-11.3668
的特性	-11.3669
未被	-11.3671
脸	-11.3672
司機	-11.3672
永安	-11.3674
年獲	-11.3674
感受	-11.3674
為日本	-11.3676
說服	-11.3679
天橋	-11.3681
知名度	-11.3684
保健	-11.3686
▁1969	-11.3686
高丽	-11.3687
監視	-11.3688
提督	-11.3688
阅读	-11.3688
債	-11.3689
一步	-11.3689
胤	-11.369
哲学家	-11.369
my	-11.3692
新幹線	-11.3693
节度使	-11.3694
軍艦	-11.3694
樑	-11.3695
西班牙卡斯蒂利亚	-11.3699
同月	-11.3699
压缩	-11.37
▁第二	-11.37
见于	-11.3702
▁1974	-11.3703
资助	-11.3703
美人	-11.3704
將來	-11.3704
暂时	-11.3704
识别	-11.3706
假日	-11.3707
依法	-11.3707
空襲	-11.3711
椎	-11.3711
實踐	-11.3711
第一期	-11.3711
薩爾	-11.3712
封鎖	-11.3714
档	-11.3714
對決	-11.3716
城市的	-11.3717
醫學院	-11.3718
是一家	-11.3719
SM	-11.3719
类似的	-11.3722
3.6	-11.3723
庆祝	-11.3723
这两个	-11.3723
笠	-11.3723
年在位	-11.3725
萬曆	-11.3725
西貢	-11.3728
立體	-11.3729
香港島	-11.3731
本次	-11.3732
北側	-11.3732
盟友	-11.3733
現代化	-11.3734
庇	-11.3736
的限制	-11.3737
参赛	-11.3738
缺少	-11.3739
男演員	-11.374
发电	-11.3741
。1947	-11.3741
最先	-11.3742
▁1964	-11.3743
牽	-11.3745
东海	-11.3745
水中	-11.3746
创始人	-11.3747
邢	-11.3747
给出	-11.3748
之家	-11.3751
痕	-11.3753
極大	-11.3755
許可	-11.3756
ru	-11.3757
答案	-11.3757
辯論	-11.3758
此劇	-11.3761
》，《	-11.3762
水手	-11.3762
歷史學家	-11.3765
服装	-11.3765
的成员	-11.3766
影視	-11.3766
水源	-11.3767
預防	-11.3769
資料庫	-11.3769
展览	-11.3769
全家	-11.377
二氧化碳	-11.377
在同年	-11.377
凤凰	-11.3772
郵	-11.3774
排放	-11.3775
极端	-11.3778
获取	-11.3781
进球	-11.3783
移除	-11.3784
浓度	-11.3786
二十四	-11.3787
會以	-11.3788
，2002	-11.379
三十六	-11.379
長老	-11.3791
的一条	-11.3791
的比賽	-11.3793
产量	-11.3796
對稱	-11.3797
西域	-11.3797
始终	-11.3798
二戰	-11.3798
前線	-11.3799
手指	-11.3799
亦在	-11.3801
发现的	-11.3802
涵蓋	-11.3804
微軟	-11.3805
ach	-11.3805
短暂	-11.3805
演技	-11.3806
小學校	-11.3808
数学家	-11.3808
輩	-11.3808
并与	-11.3809
崙	-11.3809
8.5	-11.381
關心	-11.3811
線路	-11.3811
廈門	-11.3811
里面	-11.3811
毒品	-11.3811
最強	-11.3813
一块	-11.3815
民主進步黨	-11.3816
六個	-11.3816
販售	-11.3816
团长	-11.3817
之力	-11.3817
得多	-11.3818
▁杜	-11.3819
1871	-11.3819
传媒	-11.382
伊利	-11.3821
铸	-11.3822
歌劇	-11.3822
幫忙	-11.3823
通常會	-11.3823
馬丁	-11.3824
揭露	-11.3824
低于	-11.3825
日由	-11.3826
贝克	-11.3826
山市	-11.3827
千年	-11.3827
角逐	-11.3829
下了	-11.383
字形	-11.3831
省政府	-11.3831
尼爾	-11.3832
仍然是	-11.3834
輔導	-11.3834
弗里	-11.3835
巳	-11.3836
要素	-11.3836
該處	-11.3837
禅	-11.384
新宿	-11.384
土星	-11.3841
开行	-11.3841
近年來	-11.3842
西湖	-11.3842
模糊	-11.3843
▁1967	-11.3844
辭去	-11.3846
游行	-11.3846
陸地	-11.3849
4,000	-11.385
性和	-11.3851
追封	-11.3851
▁第三	-11.3851
然而在	-11.3852
不变	-11.3853
不必	-11.3853
167	-11.3854
两条	-11.3855
冶	-11.3855
在任	-11.3857
回归	-11.386
過後	-11.3861
的安全	-11.3864
沿著	-11.3864
绍兴	-11.3864
ka	-11.3865
可愛	-11.3866
軟件	-11.3866
生平	-11.3867
也很	-11.3868
137	-11.3868
的一次	-11.3869
李氏	-11.3869
同事	-11.3871
亦被	-11.3872
类似于	-11.3872
暗中	-11.3873
加入中国共产党	-11.3873
哥伦比亚	-11.3873
所使用	-11.3874
甚麼	-11.3875
溪流	-11.3875
硕士	-11.3877
松江	-11.3877
的哥哥	-11.3878
都沒有	-11.388
︰	-11.3882
De	-11.3882
的標準	-11.3883
甚至是	-11.3883
警員	-11.3883
發電	-11.3884
腐	-11.3885
長者	-11.3885
从未	-11.3887
高手	-11.3887
識別	-11.3888
鰭	-11.3889
制成	-11.3889
渝	-11.3893
類似的	-11.3896
生育	-11.3897
hi	-11.3897
斧	-11.3897
武田	-11.3897
）-	-11.3898
美國總統	-11.3898
深刻	-11.3899
展現	-11.3901
負擔	-11.3903
找出	-11.3903
IV	-11.3904
熱門	-11.3905
多項	-11.3906
老虎	-11.3908
带着	-11.3908
灭亡	-11.3909
宜蘭縣	-11.391
反攻	-11.391
激光	-11.3911
存活	-11.3912
防線	-11.3913
杰出	-11.3913
〉，	-11.3913
十九年	-11.3918
劃分	-11.392
包裝	-11.392
▁1971	-11.3921
开始了	-11.3922
奥运	-11.3923
龍的	-11.3923
bo	-11.3924
的平均	-11.3924
家族的	-11.3925
天气	-11.3926
香港的	-11.3926
醬	-11.3927
这项	-11.3928
还原	-11.3928
-14	-11.3928
黎巴嫩	-11.3929
虛擬	-11.3931
地球的	-11.3931
无人	-11.3932
等于	-11.3933
讨	-11.3935
od	-11.3936
虐待	-11.3938
佬	-11.3939
照明	-11.394
瓷	-11.3942
變形	-11.3945
抹	-11.3945
KBS	-11.3946
的角度	-11.3948
136	-11.3948
元帅	-11.3949
放大	-11.3951
—《	-11.3952
常见	-11.3953
流派	-11.3955
孜	-11.3955
中路	-11.3957
亚军	-11.3958
世界各地	-11.3959
的第一个	-11.3959
肅	-11.396
行政區劃	-11.3961
是位于	-11.3962
船舶	-11.3963
數十	-11.3964
雲林縣	-11.3964
逃離	-11.3964
一期	-11.3964
號月台	-11.3965
编制	-11.3965
某个	-11.3966
供应	-11.3967
沖繩	-11.3967
冷却	-11.3968
孫權	-11.397
脂肪	-11.397
投影	-11.3971
目的地	-11.3971
该国	-11.3973
追擊	-11.3974
皓	-11.3974
的看法	-11.3974
▁1959	-11.3975
家鄉	-11.3977
南越	-11.3977
拾	-11.3978
圆形	-11.3978
理事会	-11.3978
曾多次	-11.3979
綁	-11.3981
男歌手	-11.3981
劇院	-11.3981
人力	-11.3982
为中国	-11.3982
五人	-11.3983
示威者	-11.3983
▁趙	-11.3983
瞬間	-11.3983
格爾	-11.3985
不详	-11.3987
Linux	-11.3989
護理	-11.3989
CA	-11.399
FA	-11.3991
之心	-11.3991
作物	-11.3991
示范	-11.3992
协定	-11.3993
烏斯	-11.3993
差別	-11.3993
顯著	-11.3993
▁清	-11.3993
轰炸	-11.3993
的河流	-11.3995
希尔	-11.4001
这座	-11.4002
南側	-11.4002
壽命	-11.4002
更换	-11.4003
夫妇	-11.4003
之人	-11.4004
1,4	-11.4005
保定	-11.4005
▁海	-11.4006
斯特拉	-11.4007
悦	-11.4008
回忆	-11.4009
年时的人口为	-11.4009
七世	-11.401
澳门	-11.4011
时候	-11.4015
首歌曲	-11.4016
疊	-11.4017
小時候	-11.4017
他對	-11.4018
是世界上	-11.4019
醛	-11.402
延长	-11.4021
法師	-11.4022
同时也是	-11.4023
公顷	-11.4025
爬	-11.4025
廟宇	-11.4028
碩士	-11.4029
公開賽	-11.4029
混凝土	-11.4029
指责	-11.403
記憶體	-11.4031
強迫	-11.4031
相對於	-11.4033
帕克	-11.4034
美術館	-11.4034
大和	-11.4034
物流	-11.4034
分部	-11.4035
棱	-11.4036
翻唱	-11.4036
该市有人口	-11.4036
每一個	-11.4038
補助	-11.4038
下半	-11.404
型号	-11.4041
同行	-11.4041
縫	-11.4042
產量	-11.4042
變為	-11.4044
商務	-11.4045
欢迎	-11.4045
界面	-11.4046
孫中山	-11.4047
赢得了	-11.4049
修正案	-11.405
GB	-11.4052
佔地	-11.4052
坐在	-11.4052
該地	-11.4054
分隔	-11.4055
閱	-11.4055
政務	-11.4055
考生	-11.4056
▁当	-11.4057
收益	-11.4058
鱼类	-11.4058
嶼	-11.4059
他還	-11.4059
控制的	-11.4059
物资	-11.4061
翻新	-11.4061
瞻	-11.4062
。1937	-11.4063
伺服器	-11.4063
图书	-11.4064
钢琴	-11.4065
霍尔	-11.4065
中隊	-11.4065
無線電	-11.4067
發展出	-11.4068
一番	-11.4069
无锡	-11.407
中国古代	-11.4072
为止	-11.4072
日晚	-11.4074
通过了	-11.4076
保加利亚	-11.4076
飯店	-11.4077
▁Ch	-11.4078
三天	-11.4078
罚	-11.408
沿線	-11.408
生活的	-11.408
多年的	-11.4081
拜占庭	-11.4081
ist	-11.4082
想像	-11.4084
的信息	-11.4084
土著	-11.4086
高宗	-11.4086
媛	-11.4088
工藝	-11.4089
建筑师	-11.409
分院	-11.4091
颇	-11.4091
炮台	-11.4092
的基礎	-11.4092
斯拉夫	-11.4093
编写	-11.4094
才有	-11.4094
典型	-11.4097
统治者	-11.4098
最小的	-11.4099
迈克尔	-11.4099
▁1961	-11.41
运算	-11.4101
ph	-11.4104
古蹟	-11.4104
栽培	-11.4105
族的	-11.4107
▁20	-11.4108
东亚	-11.4108
东站	-11.4108
第一次世界大戰	-11.4111
▁為了	-11.4111
內心	-11.4111
解放軍	-11.4111
路德	-11.4111
對立	-11.4112
渭	-11.4113
上野	-11.4114
鍋	-11.4114
日早上	-11.4114
拨	-11.4114
隶	-11.4115
颂	-11.4117
的巨大	-11.4119
改以	-11.4119
先进	-11.4119
三部曲	-11.412
高潮	-11.4121
率軍	-11.4122
Dr	-11.4123
腓特烈	-11.4123
指数	-11.4124
唐山	-11.4124
1.9	-11.4125
此站	-11.4125
分出	-11.4126
旋律	-11.4127
的非	-11.4127
2.8	-11.4128
辣	-11.4129
撤回	-11.4131
在英国	-11.4132
TBS	-11.4136
生死	-11.4137
决议	-11.4137
AI	-11.4137
AD	-11.4137
並成為	-11.4137
瑤	-11.4137
的現象	-11.4138
拋	-11.4139
前进	-11.4141
运作	-11.4142
的身體	-11.4142
占据	-11.4143
3.7	-11.4144
勘	-11.4144
政治部主任	-11.4145
決策	-11.4146
月亮	-11.4146
教育家	-11.4147
馬英九	-11.4148
烤	-11.4148
北大	-11.4148
加快	-11.4151
不同的是	-11.4151
狱	-11.4152
為主的	-11.4153
比赛中	-11.4157
時裝	-11.4157
每周	-11.4157
。1960	-11.4158
的狀況	-11.4159
的大部分	-11.4159
世家	-11.4159
穩	-11.4159
。1987	-11.416
MBC	-11.416
有時會	-11.416
3.3	-11.4161
委员会委员	-11.4161
信長	-11.4161
▁Me	-11.4162
的起源	-11.4165
緊張	-11.4169
主办	-11.417
中子	-11.4171
138	-11.4171
诉	-11.4171
個國家	-11.4172
假面騎士	-11.4172
AK	-11.4173
團結	-11.4173
亮度	-11.4174
喷	-11.4175
意味着	-11.4176
工作人員	-11.4176
遊戲中	-11.4179
很大的	-11.4179
留守	-11.4179
专用	-11.418
接口	-11.418
壓縮	-11.418
▁1962	-11.4181
老鼠	-11.4181
極限	-11.4182
准确	-11.4182
封建	-11.4184
診斷	-11.4184
褒	-11.4185
高加索	-11.4185
四方	-11.4186
共和党	-11.4187
童軍	-11.4188
呼吁	-11.4192
搖	-11.4194
停留	-11.4195
在一个	-11.4196
的狀態	-11.4197
優惠	-11.4198
緩	-11.4199
弗拉	-11.42
进口	-11.4202
渊	-11.4203
概	-11.4203
赣	-11.4203
州的	-11.4206
是最	-11.4206
初代	-11.4208
跟随	-11.4208
主編	-11.4209
北洋	-11.4209
先鋒	-11.421
系主任	-11.4211
千人	-11.4212
山峰	-11.4216
棕	-11.4218
驱逐	-11.4218
臭	-11.4219
無線	-11.4223
描述了	-11.4223
干线	-11.4224
形状	-11.4224
取代了	-11.4224
卡洛斯	-11.4224
转向	-11.4225
EN	-11.4228
▁聲優	-11.4228
星雲	-11.4229
随机	-11.4229
风暴	-11.4231
客车	-11.4231
烯	-11.4232
至今仍	-11.4233
450	-11.4234
会上	-11.4234
儀器	-11.4236
瑙	-11.4237
ea	-11.4239
命運	-11.424
投入使用	-11.424
子弟	-11.424
焚	-11.4243
監察	-11.4243
收录	-11.4244
上行	-11.4244
專屬	-11.4246
清除	-11.4247
捕捉	-11.4252
移交	-11.4252
现代化	-11.4255
委托	-11.4258
有三	-11.4258
。1978	-11.426
辛亥革命	-11.426
体现	-11.426
消灭	-11.4261
向东	-11.4262
珠海	-11.4262
代碼	-11.4263
1885	-11.4263
斯科	-11.4263
契丹	-11.4263
增援	-11.4264
主體	-11.4264
他对	-11.4265
保留了	-11.4266
吉田	-11.4266
複合	-11.4266
GUNDAM	-11.4268
锁	-11.4269
場合	-11.4275
兩地	-11.4276
罪犯	-11.4279
名誉	-11.4279
司令员	-11.428
濃度	-11.4281
提供的	-11.4281
釘	-11.4281
建安	-11.4281
傳承	-11.4282
在巴黎	-11.4284
学位	-11.4287
加密	-11.4287
簡化	-11.4289
▁1965	-11.429
3.2	-11.429
慰	-11.429
调任	-11.429
公国	-11.4291
獲頒	-11.4291
壹	-11.4293
中使用	-11.4296
迪亞	-11.4296
惡化	-11.4297
皖	-11.4298
热带	-11.4298
1,6	-11.4299
其中的	-11.43
的技術	-11.43
了许多	-11.4303
隨機	-11.4305
改編自	-11.4305
曾與	-11.4305
开办	-11.4306
家村	-11.4306
主教练	-11.4308
催化	-11.4308
0.6	-11.4309
饼	-11.4309
村庄	-11.431
填詞	-11.4311
尧	-11.4312
总是	-11.4313
火災	-11.4316
域名	-11.4316
松本	-11.4317
最後的	-11.4318
岡山	-11.4318
卡通	-11.4319
的武器	-11.4321
富裕	-11.4324
不肯	-11.4324
国外	-11.4324
成化	-11.4325
各方	-11.4325
向上	-11.4326
大地震	-11.4326
的第三	-11.4327
王朝的	-11.4328
穿過	-11.4329
地質	-11.433
黑白	-11.433
清理	-11.433
咸豐	-11.4332
唱歌	-11.4333
中興	-11.4334
列传	-11.4334
世紀末	-11.4334
企图	-11.4337
（；），	-11.4339
的名称	-11.4339
光學	-11.4339
之歌	-11.434
可达	-11.4342
德勒	-11.4342
依舊	-11.4344
全国重点文物保护单位	-11.4344
′	-11.4344
宗旨	-11.4344
探討	-11.4345
黨員	-11.4345
▁1940	-11.4346
教派	-11.4347
維奇	-11.4347
帝王	-11.435
外籍	-11.435
抗戰	-11.4351
歧視	-11.4351
房子	-11.4353
囚犯	-11.4353
棕色	-11.4354
波尔	-11.4354
魔力	-11.4356
RE	-11.4357
在這個	-11.4358
，2003	-11.436
版權	-11.4362
Game	-11.4362
Vi	-11.4363
に	-11.4365
尸	-11.4367
容許	-11.4367
by	-11.4368
115	-11.437
每小時	-11.4372
认识	-11.4372
队员	-11.4373
獨特	-11.4374
濕	-11.4377
证实	-11.4377
落後	-11.4377
奇幻	-11.4378
北岸	-11.4378
為食	-11.438
人類的	-11.4383
米高	-11.4383
金曲	-11.4387
法規	-11.439
SBS	-11.4391
▁1957	-11.4391
直隶	-11.4392
辈	-11.4392
犯人	-11.4393
特点	-11.4393
衰退	-11.4394
相隔	-11.4394
王朱	-11.4395
提早	-11.4396
屍體	-11.4397
懋	-11.4398
是中国的特有植物	-11.44
凭借	-11.44
托尔	-11.4401
冲击	-11.4401
玉山	-11.4401
际	-11.4402
身材	-11.4402
體育場	-11.4402
迪克	-11.4403
▁1953	-11.4404
强制	-11.4405
的文化	-11.4406
百分之	-11.4407
大概	-11.4407
關西	-11.4407
西岸	-11.4409
党员	-11.441
1870	-11.4411
媽祖	-11.4416
lin	-11.4416
時刻	-11.4417
纳粹	-11.4418
吉隆坡	-11.4421
总体	-11.4422
參演	-11.4422
预算	-11.4423
人受伤	-11.4425
參見	-11.4426
认	-11.4427
塞尔维亚	-11.4427
複製	-11.4428
参谋	-11.4429
流传	-11.443
。1979	-11.443
血統	-11.4432
死神	-11.4434
爪哇	-11.4435
不過在	-11.4435
的宗教	-11.4436
苗栗縣	-11.4436
给了	-11.4437
後面	-11.4439
在这	-11.4441
爾斯	-11.4441
拉丁文	-11.4441
進士出身	-11.4443
王家	-11.4443
公正	-11.4446
綽號	-11.4447
蘇軍	-11.4448
越来越	-11.4448
搜尋	-11.4449
▁五	-11.4449
螢幕	-11.4449
调节	-11.445
ud	-11.445
7-	-11.4451
中斷	-11.4452
犹	-11.4453
射手	-11.4453
巡迴	-11.4454
有個	-11.4455
一直在	-11.4456
握	-11.4457
急行	-11.4457
一组	-11.4457
在內	-11.4458
公理	-11.4459
即将	-11.446
的生物	-11.446
自由黨	-11.446
一周	-11.446
希望能	-11.4462
又稱為	-11.4463
家乡	-11.4466
很難	-11.4469
•	-11.447
境内的	-11.447
司令官	-11.4472
携带	-11.4473
判定	-11.4473
▁1963	-11.4473
渤海	-11.4475
菸	-11.4476
拉萨	-11.4476
樓宇	-11.4476
手术	-11.4479
北非	-11.4481
DA	-11.4482
图形	-11.4483
遵循	-11.4484
第二个	-11.4484
楚国	-11.4484
姑娘	-11.4484
負責人	-11.4485
的自由	-11.4486
附設	-11.4489
的軍隊	-11.449
晶体	-11.449
矮	-11.4491
地主	-11.4491
褲	-11.4493
地底	-11.4494
刻意	-11.4494
车体	-11.4494
網民	-11.4495
芭	-11.4497
主事	-11.4498
之役	-11.4499
曾一度	-11.4499
殉	-11.4501
副總統	-11.4503
會計	-11.4503
后来的	-11.4503
争取	-11.4504
筹	-11.4505
指挥官	-11.4506
来自于	-11.4507
的比赛中	-11.4509
两名	-11.4509
工作人员	-11.451
副教授	-11.4511
長約	-11.4512
钧	-11.4513
同情	-11.4513
的最	-11.4513
進修	-11.4516
階層	-11.4516
保卫	-11.4516
恐懼	-11.4517
擊中	-11.4517
給他	-11.4517
淮南	-11.4517
年期間	-11.4518
外星人	-11.4518
为中国的特有植物	-11.4519
彪	-11.4519
几年	-11.4522
年紀	-11.4523
御史	-11.4524
鳞	-11.4524
美女	-11.4526
休閒	-11.4527
的性格	-11.4529
表彰	-11.4529
明報	-11.453
舊金山	-11.453
Mi	-11.453
短篇	-11.453
的數量	-11.4531
RA	-11.4533
駛	-11.4534
▁1951	-11.4534
ara	-11.4536
鞍	-11.4537
文化的	-11.4537
開發的	-11.4537
一行人	-11.4539
果實	-11.4539
北角	-11.454
纷纷	-11.454
▁～	-11.454
ā	-11.454
被指	-11.4541
查爾斯	-11.4541
的高度	-11.4542
不安	-11.4543
光子	-11.4545
毛利	-11.4548
RO	-11.4553
▁m	-11.4554
闇	-11.4554
範疇	-11.4556
田徑	-11.4557
年以来	-11.4558
1892	-11.4565
萬港元	-11.4565
迴	-11.4566
泗	-11.4566
煌	-11.4566
档案	-11.4567
言論	-11.4567
）－	-11.4567
停播	-11.457
宁夏	-11.4571
亞視	-11.4573
氏族	-11.4574
農場	-11.4576
塑料	-11.4576
郵政	-11.4576
棲息深度	-11.4576
三子	-11.4577
的主角	-11.4577
辩	-11.4578
ag	-11.4578
銳	-11.458
電壓	-11.4582
敘	-11.4582
榕	-11.4583
若是	-11.4585
室内	-11.4585
所屬的	-11.4586
钠	-11.4586
在某些	-11.4587
武漢	-11.4588
公約	-11.459
蔭	-11.459
大氣	-11.459
宛	-11.4591
GA	-11.4592
精确	-11.4593
心靈	-11.4593
逃出	-11.4594
聖公會	-11.4594
民用	-11.4595
缅	-11.4596
鑽石	-11.4599
師團	-11.46
遗传	-11.4601
种子	-11.4601
可分為	-11.4602
Bo	-11.4603
梳	-11.4604
賠償	-11.4604
Su	-11.4604
威爾斯	-11.4605
內政部	-11.4605
哩	-11.4609
拓展	-11.4609
220	-11.4609
三級	-11.4611
難民	-11.4611
移至	-11.4612
被列为	-11.4612
金陵	-11.4613
中東	-11.4614
取名	-11.4614
民意	-11.4614
舖	-11.4615
ler	-11.4615
▁虽然	-11.4616
阿布	-11.4618
斯洛伐克	-11.4618
中尉	-11.4619
塑	-11.4621
適用於	-11.4622
戰勝	-11.4623
遥	-11.4624
牺牲	-11.4624
体积	-11.4625
奠基	-11.4625
發生的	-11.4626
侄	-11.4627
星期六	-11.4627
嫡	-11.463
ip	-11.4631
制动	-11.4632
美国总统	-11.4632
誦	-11.4632
而成為	-11.4633
發言	-11.4634
（2013	-11.4636
萬年前	-11.4639
3.4	-11.464
特尔	-11.464
碘	-11.4641
并以	-11.4642
在全球	-11.4643
。1956	-11.4643
保守黨	-11.4645
的观点	-11.4646
▁s	-11.4646
無關	-11.4648
局局長	-11.4648
很有	-11.4648
讓人	-11.4649
有功	-11.465
新竹縣	-11.4651
条例	-11.4651
锐	-11.4652
轉任	-11.4655
。1952	-11.4655
指向	-11.4655
169	-11.4656
茵	-11.4656
聞名	-11.4656
度的	-11.4657
冤	-11.4659
加拉	-11.466
的传统	-11.466
白天	-11.4661
仅次于	-11.4661
顺利	-11.4662
年以前	-11.4662
站厅	-11.4662
屋頂	-11.4663
▁II	-11.4664
有機會	-11.4665
菱	-11.4665
同進士出身	-11.4665
奉天	-11.4666
的官方	-11.4667
兜	-11.4668
月開始	-11.4668
155	-11.4669
檢驗	-11.4669
埃爾	-11.4669
多家	-11.467
單純	-11.4671
始于	-11.4672
CS	-11.4673
溥	-11.4674
格斯	-11.4674
編寫	-11.4676
措	-11.4678
港島	-11.4678
影展	-11.4678
河川	-11.4678
中文版	-11.468
之後的	-11.4681
支出	-11.4681
▁De	-11.4681
在當地	-11.4682
存在于	-11.4682
尔顿	-11.4682
ON	-11.4682
首長	-11.4683
啓	-11.4683
努斯	-11.4684
联军	-11.4686
俗名	-11.4688
夸	-11.4689
孤立	-11.4691
大敗	-11.4693
疑似	-11.4694
腕	-11.4695
事件的	-11.4695
年夏季	-11.4696
饒	-11.4697
極端	-11.4701
儒家	-11.4701
嚴重的	-11.4703
加斯	-11.4703
龟	-11.4704
公布时间为	-11.4705
沿途	-11.4705
的任務	-11.4706
收錄於	-11.4706
六个	-11.4707
ass	-11.4707
改元	-11.4707
1895	-11.4708
陶瓷	-11.4708
出現於	-11.471
扫	-11.471
公署	-11.471
不包括	-11.471
捧	-11.4711
過往	-11.4712
共和黨	-11.4712
綁架	-11.4712
巨型	-11.4714
助攻	-11.4714
!!	-11.4717
ED	-11.472
流动	-11.4722
同学	-11.4722
兵團	-11.4723
認為是	-11.4724
巖	-11.4726
權威	-11.4727
白石	-11.4731
曲線	-11.4732
在歐洲	-11.4732
亦於	-11.4733
上空	-11.4736
立法會議員	-11.4736
巡演	-11.4738
中國的	-11.4739
發生了	-11.4739
鋼彈	-11.4739
氨	-11.474
有两个	-11.4741
胡安	-11.4742
男友	-11.4742
有線電視	-11.4745
江戶	-11.4746
（2012	-11.4746
他說	-11.4749
幽默	-11.4749
洞穴	-11.475
奧斯卡	-11.4754
液体	-11.4757
3.8	-11.4757
确保	-11.4759
觀念	-11.4759
半徑	-11.476
标本	-11.476
℃	-11.4761
便宜	-11.4761
合格	-11.4761
豐富的	-11.4762
電路	-11.4762
艷	-11.4762
登记	-11.4763
國民中學	-11.4764
书写	-11.4765
北端	-11.4765
▁吴	-11.4769
细菌	-11.4771
帕拉	-11.4771
得名	-11.4772
不管	-11.4773
▁沙	-11.4775
1600	-11.4776
320	-11.4777
个国家	-11.4778
隙	-11.478
業餘	-11.478
眠	-11.4781
剿	-11.4782
的少女	-11.4782
的生命	-11.4784
天王	-11.4786
在新	-11.4786
吸引了	-11.4787
lan	-11.4789
RS	-11.4789
消化	-11.4791
台南市	-11.4791
拓跋	-11.4791
嵐	-11.4791
綺	-11.4791
無效	-11.4792
世紀的	-11.4792
率部	-11.4794
當晚	-11.4796
的區域	-11.4797
看台	-11.4797
大門	-11.4799
男爵	-11.4801
藝名	-11.4803
中国政府	-11.4805
电压	-11.4807
媒	-11.4808
▁【	-11.4809
糧食	-11.4812
倭	-11.4812
た	-11.4813
譽	-11.4813
科斯	-11.4814
面具	-11.4814
OK	-11.4814
產生了	-11.4814
嫩	-11.4815
懸	-11.4816
世俗	-11.4818
布置	-11.4818
集會	-11.4822
上限	-11.4822
敕	-11.4824
就已	-11.4825
消费	-11.4825
灘	-11.4826
僕	-11.4826
亞目	-11.4826
罪名	-11.4827
▁据	-11.4828
词汇	-11.4828
居於	-11.4829
地球上	-11.4829
飞行员	-11.483
她们	-11.4833
西區	-11.4834
sp	-11.4835
紅磡	-11.4836
服用	-11.4837
被称作	-11.4841
戊	-11.4841
灌溉	-11.4842
心理學	-11.4844
贵州省	-11.4845
寻求	-11.4847
吉爾	-11.4847
举办的	-11.4848
な	-11.4849
意指	-11.4852
復仇	-11.4854
8000	-11.4854
長時間	-11.4856
2.7	-11.4856
崇禎	-11.4857
ary	-11.4857
指責	-11.4857
總教練	-11.4858
容器	-11.4858
▁奥	-11.4859
米兰	-11.4861
也因	-11.4861
新成立的	-11.4862
稱號	-11.4863
pa	-11.4864
侍郎	-11.4865
一句	-11.4866
魅力	-11.4866
寒冷	-11.4867
外科	-11.487
。1938	-11.4871
人口密度每平方公里	-11.4872
光度	-11.4872
读者	-11.4873
俘虜	-11.4874
▁東京	-11.4876
一点	-11.4876
纪念碑	-11.4877
財團法人	-11.4878
亚美尼亚	-11.4878
人造	-11.4881
工学院	-11.4883
文書	-11.4884
阎	-11.4887
過來	-11.4887
lu	-11.4887
弗雷	-11.4888
艺人	-11.4891
詞彙	-11.4892
配套	-11.4893
第十五	-11.4893
國外	-11.4894
還在	-11.4896
明帝	-11.4897
現金	-11.4897
加冕	-11.4898
曼谷	-11.4898
南極	-11.4898
袁世凯	-11.49
其种加词	-11.4901
系数	-11.4903
案例	-11.4905
tion	-11.4905
尔斯	-11.4906
理工大学	-11.4908
捷克斯洛伐克	-11.4908
虚拟	-11.4909
的统治	-11.4911
抵制	-11.4915
術語	-11.4916
迄今	-11.4916
投訴	-11.4917
主演的	-11.4918
謎	-11.492
这两	-11.492
開展	-11.4922
碰	-11.4923
销量	-11.4926
聯合會	-11.4926
在这个	-11.4927
景区	-11.4928
128	-11.4928
韶	-11.493
翅膀	-11.493
摩洛哥	-11.493
利安	-11.4931
小隊	-11.4933
第一座	-11.4934
兩座	-11.4935
声音	-11.4936
辱	-11.4936
加里	-11.4937
幕後	-11.4941
提示	-11.4941
正德	-11.4941
高于	-11.4943
对话	-11.4944
的遊戲	-11.4944
南山	-11.4945
噪音	-11.4946
东南亚	-11.4948
失控	-11.4948
不被	-11.4949
船只	-11.4949
更好的	-11.495
相应的	-11.4951
該地區	-11.4951
高於	-11.4952
壺	-11.4952
戰時	-11.4953
公约	-11.4953
遗迹	-11.4954
▁1939	-11.4954
支线	-11.4959
了大量	-11.4959
巾	-11.4959
复杂的	-11.496
面临	-11.4961
诺夫	-11.4962
世宗	-11.4962
了很多	-11.4963
的女	-11.4964
1888	-11.4965
進駐	-11.4965
交涉	-11.4966
最後一次	-11.4967
流星	-11.4967
瓦解	-11.4967
履行	-11.4967
干燥	-11.4968
长城	-11.4968
梅花	-11.497
孚	-11.4971
畔	-11.4971
稀	-11.4973
刑法	-11.4974
參加了	-11.4974
委員會委員	-11.4975
芹	-11.4976
為中心	-11.4977
最主要的	-11.4979
昊	-11.4981
石頭	-11.4982
时刻	-11.4982
标记	-11.4985
傳輸	-11.4985
所生	-11.4985
也要	-11.4986
故鄉	-11.4987
▁Mo	-11.4988
終結	-11.4989
原生	-11.499
的一所	-11.4991
▁澳門	-11.4991
特急	-11.4992
划入	-11.4992
▁本魚	-11.4993
流放	-11.4994
▁隨著	-11.4994
中方	-11.4995
白金	-11.4995
伯恩	-11.4996
罢	-11.4996
景观	-11.4997
世紀初	-11.4997
福田	-11.4997
本屆	-11.4998
血型	-11.4999
he	-11.5002
琛	-11.5003
收取	-11.5003
NT	-11.5004
ov	-11.5004
ま	-11.5004
搜查	-11.5005
尺度	-11.5007
1886	-11.5008
之弟	-11.5009
▁1938	-11.501
特快	-11.501
的两个	-11.501
西站	-11.5011
电流	-11.5012
出租	-11.5012
出现的	-11.5012
据说	-11.5014
的描述	-11.5014
氧化物	-11.5016
細節	-11.5017
以免	-11.5019
混乱	-11.5019
症状	-11.502
傘	-11.5021
其所	-11.5021
平壤	-11.5022
東路	-11.5022
布鲁	-11.5022
音樂劇	-11.5022
隅	-11.5026
亞美尼亞	-11.5027
墜	-11.5031
280	-11.5032
與日本	-11.5032
客人	-11.5032
缝	-11.5033
莖	-11.5033
謀殺	-11.5034
皮肤	-11.5035
乾隆帝	-11.5036
編組	-11.5038
量產	-11.5039
汉口	-11.5039
巴里	-11.504
攜	-11.504
繼承人	-11.504
原來的	-11.5042
以至	-11.5044
更高的	-11.5044
ran	-11.5045
李登輝	-11.5046
總計	-11.5047
ier	-11.5047
助手	-11.5048
勒斯	-11.5048
憑藉	-11.5049
逃跑	-11.505
▁二	-11.5051
年获	-11.5051
足球运动员	-11.5052
于此	-11.5052
的理論	-11.5054
鳳山	-11.5054
回去	-11.5055
無敵	-11.5055
呆	-11.5056
GDP	-11.5057
的社會	-11.5058
五千	-11.5058
射程	-11.5062
採購	-11.5063
心理学	-11.5063
常用的	-11.5069
窦	-11.507
3.1	-11.507
傀儡	-11.507
也成為	-11.5071
販賣	-11.5071
某種	-11.5071
画面	-11.5072
美國的	-11.5073
叔叔	-11.5074
▁梅	-11.5074
简化	-11.5075
動態	-11.5076
传奇	-11.5076
暢	-11.5077
使之	-11.5077
签	-11.508
年完成	-11.5081
發言人	-11.5081
購物	-11.5082
原来的	-11.5083
芯	-11.5084
追加	-11.5085
煥	-11.5085
必需	-11.5086
就算	-11.5086
部件	-11.5088
的路線	-11.5088
顺治	-11.5089
第三季	-11.509
Ka	-11.509
掌控	-11.509
的母亲	-11.5091
驻地	-11.5092
也都	-11.5092
出於	-11.5092
年度最佳	-11.5093
最有	-11.5093
科学技术	-11.5093
位元	-11.5097
139	-11.5097
歌剧	-11.5098
會產生	-11.5103
話題	-11.5104
硬件	-11.5105
條目	-11.5105
雷达	-11.5106
諷刺	-11.5106
各州	-11.5108
中央军委	-11.5108
是个	-11.5109
高斯	-11.511
380	-11.511
疆	-11.5111
錦標	-11.5113
布魯	-11.5113
单一	-11.5113
生物学	-11.5114
彈匣	-11.5114
星光	-11.5116
分化	-11.5117
刪除	-11.5117
年建立的	-11.5119
語音	-11.5119
祈	-11.512
刻有	-11.5121
大学的	-11.5121
|	-11.5121
的基础	-11.5123
是西班牙	-11.5125
一大	-11.5127
比分	-11.5128
有不同的	-11.5128
营业	-11.5128
题材	-11.513
的语言	-11.5131
不出	-11.5131
一号	-11.5132
他认为	-11.5132
凍	-11.5132
nd	-11.5133
高铁	-11.5134
提起	-11.5134
va	-11.5135
信用	-11.5138
季軍	-11.5139
水道	-11.5139
猛烈	-11.514
签约	-11.5141
伊勢	-11.5142
西夏	-11.5143
妖精	-11.5143
导致了	-11.5143
最后一	-11.5145
中国铁路	-11.5147
两岸	-11.5149
描写	-11.5151
教材	-11.5152
疼痛	-11.5154
煤矿	-11.5155
圖片	-11.5156
募	-11.5156
中央人民政府	-11.5158
军人	-11.5158
三條	-11.5159
代表隊	-11.5159
是为了	-11.516
弘治	-11.516
▁1930	-11.5161
並被	-11.5161
车厢	-11.5162
。1970	-11.5165
戈尔	-11.5165
氨酸	-11.5166
級別	-11.517
繁荣	-11.517
王妃	-11.5171
後備	-11.5179
預言	-11.518
han	-11.5181
二十五	-11.5183
捨	-11.5183
场比赛	-11.5184
就要	-11.5185
莱昂	-11.5186
设计的	-11.5186
正确	-11.5187
之后的	-11.5188
官職	-11.5188
第三名	-11.5188
度假	-11.519
決心	-11.519
四國	-11.5191
祇	-11.5191
，2013	-11.5191
札幌	-11.5195
判断	-11.5196
會將	-11.5197
制裁	-11.5197
天水圍	-11.5199
優異	-11.52
敵方	-11.52
自動車道	-11.5202
▁d	-11.5206
数百	-11.5206
飼養	-11.5207
的語言	-11.5208
胆	-11.5211
原文	-11.5212
Ar	-11.5213
蒸	-11.5213
街市	-11.5213
哨	-11.5214
头衔	-11.5215
tic	-11.5215
復出	-11.5216
該片	-11.5217
巡抚	-11.5218
定義為	-11.522
起点	-11.522
打开	-11.5221
精確	-11.5221
整修	-11.5221
左手	-11.5225
活跃	-11.5225
之妻	-11.5226
南宁	-11.5227
ou	-11.5227
追蹤	-11.5229
以下的	-11.523
嘉庆	-11.523
咲	-11.5231
ear	-11.5231
大教堂	-11.5231
执导	-11.5231
右派	-11.5232
苹果	-11.5232
首映	-11.5235
事項	-11.5236
富豪	-11.5237
窟	-11.5239
竞选	-11.5239
峡	-11.5241
塑造	-11.5243
き	-11.5245
緩慢	-11.5245
不含	-11.5245
破裂	-11.5246
觀賞	-11.525
領導的	-11.525
的觀點	-11.525
梅尔	-11.525
致力于	-11.5251
比尔	-11.5251
时代的	-11.5252
瓣	-11.5253
詢問	-11.5254
区内	-11.5255
參與了	-11.5255
微软	-11.5255
这类	-11.5256
麓	-11.5256
微生物	-11.5257
相应	-11.5258
人所	-11.5261
貌	-11.5261
只限	-11.5261
機身	-11.5262
魔鬼	-11.5264
代數	-11.5264
落入	-11.5266
永乐	-11.5268
幾何	-11.5268
开封	-11.5268
中式	-11.5272
港府	-11.5272
SI	-11.5273
华东	-11.5273
它們的	-11.5273
▁c	-11.5275
内地	-11.5276
目前已	-11.5276
沙皇	-11.5278
以前的	-11.528
▁:	-11.528
繪製	-11.5281
自幼	-11.5282
的權力	-11.5282
新世界	-11.5283
代表團	-11.5283
婚禮	-11.5283
其实	-11.5284
船上	-11.5285
城的	-11.5285
特斯	-11.5286
削弱	-11.5288
至少有	-11.5289
棺	-11.5289
ny	-11.5291
應用程式	-11.5292
是其	-11.5293
比亞	-11.5294
撰写	-11.5295
力学	-11.5295
出身的	-11.5295
也就	-11.5296
各级	-11.5296
年完工	-11.5297
伊丽莎白	-11.5297
樹林	-11.5297
接着	-11.5298
一書	-11.5298
下台	-11.53
异常	-11.5302
香港人	-11.5302
有机	-11.5304
怎么	-11.5304
辖区	-11.5304
总局	-11.5304
關節	-11.5306
號碼	-11.5307
魚雷	-11.5309
客户	-11.531
现今	-11.531
達爾	-11.531
贼	-11.5312
海灣	-11.5314
古希腊	-11.5314
UN	-11.5315
不死	-11.5316
1876	-11.5317
在一個	-11.5318
但它	-11.5318
某种	-11.5321
鉛	-11.5324
南華	-11.5324
的乘客	-11.5324
的努力	-11.5325
朱元璋	-11.5328
的过程	-11.5329
000	-11.533
約定	-11.533
up	-11.5331
1884	-11.5333
～（	-11.5334
1,7	-11.5335
溢	-11.5336
簽下	-11.5337
雅各	-11.5338
依赖	-11.5339
写道	-11.5339
率军	-11.5341
歐陽	-11.5341
航站楼	-11.5342
行銷	-11.5344
忽略	-11.5344
很小	-11.5345
对称	-11.5345
两座	-11.5345
tra	-11.5345
終極	-11.5346
录制	-11.5346
UTC	-11.5348
YouTube	-11.5352
肾	-11.5352
争夺	-11.5352
嫌	-11.5352
競	-11.5355
電荷	-11.5355
蛋白質	-11.5356
相傳	-11.5356
笼	-11.5357
气象	-11.5358
歌迷	-11.5359
停辦	-11.536
专利	-11.536
皇太子	-11.5361
印象	-11.5361
旁邊	-11.5361
▁對於	-11.5362
睿	-11.5363
假期	-11.5365
本書	-11.5365
参与了	-11.5366
卢瓦尔省	-11.5367
的权利	-11.5368
妥	-11.5368
駐守	-11.537
密集	-11.5372
讲述	-11.5372
棉花	-11.5373
探測	-11.5374
定為	-11.5377
博客	-11.5379
可以是	-11.5379
▁The	-11.5379
并被	-11.538
党的	-11.538
那裡	-11.538
簡單的	-11.538
誘	-11.538
部族	-11.5381
一律	-11.5381
渐	-11.5383
長沙	-11.5384
牛奶	-11.5384
永远	-11.5385
科学院	-11.5385
第二部	-11.5385
成員之一	-11.5386
亦即	-11.5386
古希臘	-11.5388
敵軍	-11.5388
準決賽	-11.539
女演员	-11.5391
旅館	-11.5392
伤亡	-11.5393
居住的	-11.5394
後又	-11.5395
罗讷	-11.5395
三菱	-11.5396
红旗	-11.5396
中断	-11.5396
爭論	-11.5396
蘋果日報	-11.5398
葵涌	-11.5398
▁據	-11.5398
自行车	-11.5399
彝	-11.5401
臨床	-11.5401
提醒	-11.5401
（2004	-11.5402
馬拉	-11.5404
他為	-11.5405
睡眠	-11.5406
家屬	-11.5407
被人	-11.5408
南岸	-11.5408
〉，《	-11.5408
不分	-11.5409
正當	-11.541
以为	-11.541
简单的	-11.5411
年夏天	-11.5413
發表了	-11.5413
战区	-11.5413
紐約市	-11.5414
戚	-11.5416
閃電	-11.5416
医药	-11.5417
甲基	-11.5418
电气	-11.5418
县人	-11.5418
的成绩	-11.5419
嫁給	-11.5419
指派	-11.5419
尊敬	-11.542
转向架	-11.542
▁第一	-11.542
一處	-11.5421
顧客	-11.5425
1887	-11.5426
南北朝	-11.5428
▁我	-11.5432
四名	-11.5432
汾	-11.5435
不定	-11.5435
與此同時	-11.5436
語文	-11.5436
此種	-11.5438
▁罗	-11.5441
馬匹	-11.5441
武將	-11.5442
續集	-11.5442
名词	-11.5442
但未	-11.5442
置於	-11.5443
pe	-11.5443
倩	-11.5444
人体	-11.5445
見於	-11.5447
樓高	-11.5447
校址	-11.5447
參議院	-11.5447
。1941	-11.5447
晚間	-11.5447
千葉	-11.5448
奧斯	-11.5449
諾斯	-11.5449
還會	-11.5449
▁配音員	-11.5449
神戶	-11.545
1893	-11.5452
不一	-11.5452
宫殿	-11.5452
邮政	-11.5454
（）：	-11.5454
歷經	-11.5456
突擊	-11.5457
剩余	-11.5458
製造商	-11.5459
只需	-11.5459
▁真	-11.5459
公安部	-11.546
来的	-11.546
稳	-11.5463
譯名	-11.5463
加爾	-11.5463
共計	-11.5465
。1981	-11.5465
檢討	-11.5467
该地	-11.5468
149	-11.547
出来的	-11.5472
文集	-11.5472
背鰭	-11.5472
的第一個	-11.5473
被认为	-11.5473
▁1942	-11.5473
財經	-11.5474
堰	-11.5474
位列	-11.5475
诸多	-11.5479
缩写	-11.5481
廣大	-11.5482
gu	-11.5483
另一种	-11.5486
囚	-11.5487
新竹市	-11.5488
僧人	-11.5489
玉米	-11.5489
our	-11.549
蘆	-11.549
南美	-11.5491
约翰逊	-11.5492
新聞台	-11.5493
者為	-11.5494
代言人	-11.5495
籌備	-11.5497
後來被	-11.5499
▁愛	-11.5501
在线	-11.5502
严重的	-11.5502
的一條	-11.5503
1,5	-11.5503
栏	-11.5503
都很	-11.5503
率兵	-11.5505
4.6	-11.5505
倒塌	-11.5507
强大的	-11.5507
我們的	-11.5507
Ac	-11.5507
Ju	-11.5508
次列车	-11.5509
後來的	-11.551
斯頓	-11.551
括	-11.5511
战场	-11.5512
鬆	-11.5513
列傳	-11.5513
了不少	-11.5513
放入	-11.5514
譴責	-11.5514
地方法院	-11.5515
口號	-11.5515
佈	-11.5516
學派	-11.5517
太大	-11.5518
第十六	-11.5518
if	-11.5518
ATP	-11.5519
奉行	-11.5521
但也有	-11.5522
維也納	-11.5522
较高	-11.5525
十字架	-11.5525
後再	-11.5527
籃	-11.5529
芦	-11.5529
派出所	-11.553
一张	-11.5531
▁1944	-11.5532
百万	-11.5532
办学	-11.5534
战役中	-11.5535
30%	-11.5536
他们在	-11.5537
分別在	-11.5537
炼	-11.5537
禽	-11.5537
瓦拉	-11.5539
情绪	-11.5539
发掘	-11.5539
5.2	-11.5541
愛國	-11.5543
纺织	-11.5544
翟	-11.5545
燃烧	-11.5546
现已	-11.5546
火車站	-11.5548
盟军	-11.5549
被评为	-11.555
上台	-11.555
鹼	-11.5551
頒	-11.5551
蔣介石	-11.5552
咨询	-11.5553
焦點	-11.5553
君士坦丁堡	-11.5554
太和	-11.5554
一下	-11.5555
图片	-11.5555
牡丹	-11.5556
举行了	-11.5558
因為他	-11.5559
工会	-11.556
元代	-11.556
光年	-11.5561
災難	-11.5562
因病	-11.5564
馬上	-11.5565
sc	-11.5565
中提到	-11.5566
发生的	-11.5567
战斗机	-11.5568
在那裡	-11.5569
维修	-11.5569
年級	-11.557
个市镇	-11.5571
滨海	-11.5572
▁1943	-11.5573
的湖泊	-11.5574
支廳	-11.5575
书中	-11.5575
贬	-11.5576
功臣	-11.5578
向他	-11.5578
南朝	-11.5578
侨	-11.5579
den	-11.558
可使用	-11.558
长约	-11.5581
属性	-11.5582
擊出	-11.5582
反叛	-11.5584
的特徵	-11.5585
流经	-11.5586
數千	-11.5587
瑾	-11.5588
天体	-11.5588
但她	-11.5589
阿卡	-11.5589
春季	-11.5589
花費	-11.559
帆船	-11.559
4.8	-11.5591
神明	-11.5591
民事	-11.5591
祂	-11.5591
诉讼	-11.5593
阿塞拜疆	-11.5593
的军队	-11.5594
聯手	-11.5595
卫视	-11.5596
。1954	-11.5596
性命	-11.5597
器材	-11.5598
财务	-11.5599
銅牌	-11.5601
障	-11.5602
掩	-11.5602
较大的	-11.5605
▁世界	-11.5605
光学	-11.5605
密碼	-11.5607
先發	-11.5607
147	-11.5608
之一的	-11.561
基部	-11.5611
4.2	-11.5611
北斗	-11.5611
的對象	-11.5612
傳出	-11.5612
解析	-11.5614
長女	-11.5616
LA	-11.5616
那个	-11.5616
巧克力	-11.5616
第一家	-11.5617
瓦斯	-11.5617
多夫	-11.5618
姆斯	-11.5618
其主要	-11.5619
歌舞	-11.5619
毫	-11.562
機能	-11.562
孕	-11.5621
常數	-11.5623
強烈的	-11.5623
取消了	-11.5624
常住人口	-11.5625
士官	-11.5625
抓住	-11.5627
接駁	-11.5628
錄得	-11.5628
Mo	-11.5628
小巴	-11.5628
选中	-11.5628
表面上	-11.563
送往	-11.5632
寄生	-11.5632
塔克	-11.5633
He	-11.5633
第十八	-11.5633
戰績	-11.5634
翼龍	-11.5634
去世后	-11.5635
无限	-11.5635
排行第	-11.5636
汽油	-11.5636
穷	-11.5637
被取消	-11.5637
諡	-11.5638
ica	-11.5638
城内	-11.5639
奧爾	-11.5639
雙胞胎	-11.564
湯姆	-11.564
第二屆	-11.5641
修理	-11.5642
重心	-11.5644
eg	-11.5644
城邦	-11.5645
虐	-11.5648
妍	-11.5648
懸掛	-11.5648
發掘	-11.5649
和小	-11.565
彤	-11.565
稍後	-11.5651
星際	-11.5651
语法	-11.5651
北韓	-11.5652
荊	-11.5656
是从	-11.5657
放射	-11.5658
懂	-11.5661
ium	-11.5661
凭	-11.5661
旬	-11.5663
扯	-11.5663
媒介	-11.5665
到底	-11.5666
9.5	-11.5667
之处	-11.5668
車型	-11.5669
占地面积	-11.5669
正值	-11.5671
。1936	-11.5671
這位	-11.5672
把它	-11.5672
伤害	-11.5673
則於	-11.5674
万立方米	-11.5675
总裁	-11.5675
譯為	-11.5675
為人	-11.5677
但沒有	-11.5678
-18	-11.568
勇者	-11.5681
多为	-11.5682
ga	-11.5684
Li	-11.5685
比率	-11.5685
感應	-11.5685
北至	-11.5689
责	-11.569
人称	-11.569
平均每	-11.569
只剩下	-11.5691
金刚	-11.5691
▁赵	-11.5691
扭	-11.5692
悬挂	-11.5695
杰克逊	-11.5695
黑洞	-11.5695
嶋	-11.5696
射线	-11.5696
▁夏	-11.5697
。1940	-11.5697
趾	-11.57
抗日战争	-11.5701
皇太后	-11.5701
合一	-11.5702
168	-11.5703
泾	-11.5703
ト	-11.5703
比利	-11.5705
布什	-11.5706
局勢	-11.5707
溫和	-11.5708
菁	-11.5708
BL	-11.5709
的恆星	-11.5709
莉亞	-11.571
号机车	-11.571
钩	-11.571
教育局	-11.5711
較大的	-11.5711
卧	-11.5714
子孫	-11.5715
华南	-11.5718
雅克	-11.5718
所述	-11.5718
面積約	-11.5721
中等	-11.5721
有大量	-11.5722
向外	-11.5725
有以下	-11.5726
▁0	-11.5727
往後	-11.5728
澄清	-11.573
绘	-11.573
八卦	-11.5731
上層	-11.5731
擅	-11.5731
最快	-11.5732
卸	-11.5732
156	-11.5732
漿	-11.5733
木村	-11.5733
辑	-11.5734
渣	-11.5735
El	-11.5739
动态	-11.5739
型电力机车	-11.5739
戰役中	-11.574
夸克	-11.5742
正規	-11.5742
舞曲	-11.5742
旗帜	-11.5743
EX	-11.5744
武藏	-11.5745
每一个	-11.5745
尸体	-11.5747
的建議	-11.5748
期限	-11.5748
膝	-11.575
海面	-11.575
夜晚	-11.5751
决策	-11.5752
用法	-11.5752
修订	-11.5753
80%	-11.5753
克服	-11.5754
京城	-11.5754
1891	-11.5756
。1930	-11.5756
意志	-11.5757
线和	-11.5759
年秋	-11.5759
蛾	-11.5759
城門	-11.576
決鬥	-11.5761
大使馆	-11.5761
近期	-11.5761
官僚	-11.5761
扭曲	-11.5761
柴油	-11.5762
習俗	-11.5762
道格拉斯	-11.5763
处理器	-11.5764
萨克森	-11.5765
感謝	-11.5766
：『	-11.5767
他所	-11.5768
大厅	-11.577
房间	-11.577
春天	-11.577
比特	-11.5771
ps	-11.5772
社会科学	-11.5773
的權利	-11.5774
擠	-11.5775
找到了	-11.5775
祭司	-11.5777
中世紀	-11.5777
而有	-11.5778
不堪	-11.5778
qu	-11.578
才被	-11.578
獲得第	-11.578
制作的	-11.5782
AB	-11.5782
確	-11.5782
DE	-11.5783
漳州	-11.5783
”（）	-11.5783
pi	-11.5783
手臂	-11.5784
蒙古族	-11.5784
po	-11.5784
的總	-11.5786
很可能	-11.5787
嘉義市	-11.579
是瑞士	-11.579
173	-11.579
炭	-11.5793
非正式	-11.5795
永樂	-11.5796
為主要	-11.5798
ja	-11.5799
获胜	-11.58
這麼	-11.5801
姊	-11.5802
太陽系	-11.5803
人民币	-11.5803
莱斯	-11.5805
跟著	-11.5805
的音乐	-11.5805
相鄰	-11.5808
為首的	-11.5808
的交通	-11.5809
四面	-11.581
緯	-11.581
客量	-11.5813
山顶	-11.5815
實用	-11.5815
光線	-11.5815
鄒	-11.5815
鯛	-11.5816
分組賽	-11.5816
種種	-11.5817
年世界	-11.5817
水系	-11.5817
言论	-11.5817
大海	-11.5818
最後被	-11.5818
的著名	-11.5819
国家公园	-11.5821
神奈川縣	-11.5821
日向	-11.5823
普雷	-11.5823
大字	-11.5825
椅	-11.5825
男生	-11.5827
▁尽管	-11.5828
肖像	-11.5829
法学	-11.5829
多重	-11.583
绳	-11.5831
！（	-11.5831
一一	-11.5831
年建成	-11.5836
第四次	-11.5836
辦公	-11.5837
椒	-11.5837
祺	-11.5839
的一位	-11.584
波士頓	-11.584
波士顿	-11.584
硝酸	-11.584
鑄	-11.5845
格鬥	-11.5846
跪	-11.5846
天正	-11.5847
烈士	-11.5847
即使是	-11.5849
提取	-11.5849
荊州	-11.5852
結業	-11.5853
投靠	-11.5853
很多人	-11.5854
小野	-11.5855
傳入	-11.5856
多年來	-11.5856
友谊	-11.5856
大战	-11.5857
参见	-11.5858
成长	-11.5859
纪念馆	-11.5861
認真	-11.5861
猶太	-11.5866
ish	-11.5869
在那	-11.5872
4.3	-11.5874
枯	-11.5875
表現出	-11.5875
态度	-11.5876
纳入	-11.5876
春日	-11.5876
聯會	-11.5879
登场	-11.5879
稜	-11.5879
扩	-11.588
》：“	-11.588
廈	-11.5882
法制	-11.5882
ster	-11.5882
1861	-11.5883
過渡	-11.5883
麥可	-11.5884
丁目	-11.5886
Sa	-11.5889
被用作	-11.589
)（	-11.5891
外圍賽	-11.5891
Mac	-11.5892
订	-11.5893
路面	-11.5894
”），	-11.5895
实体	-11.5896
其间	-11.5896
的理论	-11.5896
马拉	-11.5896
认证	-11.5897
出品	-11.5897
此处	-11.5897
去除	-11.5899
不符合	-11.5902
IA	-11.5902
的变化	-11.5902
高速铁路	-11.5902
控制了	-11.5904
外面	-11.5904
情節	-11.5905
帽子	-11.5905
有名的	-11.5905
颈	-11.5906
新民	-11.5907
車道	-11.5908
鯊	-11.5909
金鐘	-11.591
布政使	-11.5911
聯賽冠軍	-11.5912
承诺	-11.5912
浆	-11.5912
望远镜	-11.5913
见到	-11.5913
石化	-11.5914
島式月台	-11.5914
佛山	-11.5916
代表作	-11.5916
所殺	-11.5916
法蘭西	-11.5917
夺取	-11.5918
四強	-11.5918
摩根	-11.5918
售出	-11.5918
宇文	-11.5919
政變	-11.5919
戀人	-11.592
陇	-11.5921
新娘	-11.5922
關卡	-11.5922
ana	-11.5923
至元	-11.5923
达到了	-11.5925
经理	-11.5926
营养	-11.5927
最終在	-11.5927
三藏	-11.5928
超新星	-11.593
千瓦	-11.593
幽靈	-11.5932
Me	-11.5936
充足	-11.5938
ance	-11.5939
的心	-11.594
牧师	-11.594
电信	-11.594
学部	-11.5941
運營	-11.5943
深海	-11.5944
促成	-11.5945
▁In	-11.5945
石碑	-11.5946
建筑面积	-11.5946
5.6	-11.5947
矩陣	-11.5947
法蘭克	-11.5947
落實	-11.5947
叠	-11.5948
封闭	-11.5948
物理學家	-11.5949
音樂家	-11.5949
第二期	-11.595
平县	-11.5951
卡洛	-11.5952
貸款	-11.5953
僅僅	-11.5953
广西壮族自治区	-11.5953
瑋	-11.5953
企業家	-11.5955
負面	-11.5956
平坦	-11.5958
沁	-11.5958
吉祥	-11.5959
終身	-11.5961
克尔	-11.5961
就读于	-11.5961
單車	-11.5962
担当	-11.5962
出身於	-11.5963
露西	-11.5963
内存	-11.5963
独特的	-11.5964
年輕人	-11.5965
》；	-11.5965
古老的	-11.5966
敖	-11.5966
大片	-11.5968
260	-11.5968
施加	-11.5968
胖	-11.5969
类型的	-11.5969
同胞	-11.5971
性行為	-11.5971
投入服務	-11.5972
兴起	-11.5972
”“	-11.5973
府知府	-11.5973
電梯	-11.5973
总数	-11.5975
付出	-11.5976
颗	-11.5976
有點	-11.5977
摄	-11.5977
靶	-11.5977
ET	-11.5978
鈾	-11.5978
☆	-11.5978
建造了	-11.5979
湛	-11.5979
也因為	-11.598
多部	-11.598
的感情	-11.598
成功地	-11.5983
吉尔	-11.5984
延遲	-11.5985
修女	-11.5986
普斯	-11.5986
大清	-11.5986
三座	-11.5987
让他	-11.5988
縣知縣	-11.5988
中壢	-11.5991
伞	-11.5991
章程	-11.5991
團員	-11.5996
。1939	-11.5997
結尾	-11.5997
畏	-11.5998
現身	-11.5998
克洛	-11.5998
幾年	-11.5998
地势	-11.5999
龍科	-11.6001
权威	-11.6002
CR	-11.6003
安平	-11.6004
策划	-11.6004
服飾	-11.6004
道士	-11.6004
代價	-11.6005
早於	-11.6006
披露	-11.6006
布爾	-11.6007
自己是	-11.6008
與美國	-11.6008
遷入	-11.6008
官網	-11.6008
史蒂芬	-11.601
選票	-11.6011
職業生涯	-11.6012
總數	-11.6012
4.7	-11.6013
座椅	-11.6014
中場	-11.6015
á	-11.6015
上尉	-11.6017
这条	-11.6018
河內	-11.6018
香港電影	-11.6018
高清	-11.6018
天生	-11.6019
很难	-11.6019
pro	-11.6019
曹魏	-11.6019
中型	-11.602
畜	-11.602
真菌	-11.6024
逝	-11.6024
適用	-11.6025
捐贈	-11.6026
会被	-11.6026
剩下的	-11.6026
但最後	-11.6026
萱	-11.6026
詛咒	-11.6027
譯本	-11.6027
女婿	-11.6027
介面	-11.6028
继位	-11.6028
游戏中	-11.6029
一幅	-11.603
死了	-11.603
選拔	-11.6031
紧张	-11.6031
枫	-11.6033
代表性	-11.6033
荔	-11.6033
1868	-11.6033
塑膠	-11.6035
金字塔	-11.6035
困擾	-11.6036
帶到	-11.6036
筹备	-11.6037
▁Ar	-11.6037
存在於	-11.6038
貝克	-11.6039
师团	-11.6041
中国国民党	-11.6041
证券	-11.6042
英军	-11.6043
190	-11.6043
只有在	-11.6043
釜山	-11.6044
对阵	-11.6044
没有任何	-11.6045
的範圍	-11.6045
）／	-11.6045
二期	-11.6045
步道	-11.6047
坐标	-11.6047
临床	-11.6048
ence	-11.6052
魔術	-11.6053
信件	-11.6054
大雄	-11.6054
▁Le	-11.6054
步枪	-11.6054
情节	-11.6055
指引	-11.6055
帅	-11.6056
嬰	-11.6058
自願	-11.6061
平息	-11.6061
開始在	-11.6065
1894	-11.6066
DJ	-11.6066
▁1928	-11.6066
引導	-11.6066
損害	-11.6068
評論家	-11.6072
递	-11.6073
米勒	-11.6076
擁	-11.6076
根據美國	-11.6076
自治州	-11.6078
之道	-11.6078
奪冠	-11.6078
詳	-11.6081
清华	-11.6081
的相關	-11.6082
屏幕	-11.6084
擴充	-11.6085
カ	-11.6085
妓	-11.6085
蘿	-11.6087
部作品	-11.6087
二郎	-11.6088
1878	-11.6089
交汇	-11.6089
站名	-11.609
各類	-11.609
LE	-11.6093
奥林匹克	-11.6093
碳酸	-11.6093
看起來	-11.6093
毗邻	-11.6093
華麗	-11.6095
野战军	-11.6096
西山	-11.6096
118	-11.6097
2.9	-11.6097
豪華	-11.6097
河道全長	-11.6098
MB	-11.6099
条件下	-11.6099
漳	-11.61
造船	-11.61
贷款	-11.61
行列	-11.6101
适用于	-11.6101
三角洲	-11.6101
二十三年	-11.6101
激烈的	-11.6104
躲	-11.6105
人質	-11.6106
環繞	-11.6108
一層	-11.6108
评选	-11.6109
战术	-11.611
議長	-11.611
中以	-11.6111
執法	-11.6112
塞纳	-11.6112
密码	-11.6112
書記	-11.6115
内有	-11.6116
瞳	-11.6117
超市	-11.6117
共識	-11.6117
マ	-11.6118
无论	-11.6118
樓梯	-11.6118
多半	-11.6119
珊瑚礁	-11.6119
跃	-11.612
諸多	-11.6121
奥斯	-11.6121
辞去	-11.6121
複雜的	-11.6121
1883	-11.6122
127	-11.6122
糕	-11.6122
招式	-11.6123
讓她	-11.6125
朝阳	-11.6125
加裝	-11.6125
les	-11.6125
獵物	-11.6126
通常在	-11.613
闵	-11.6132
薩拉	-11.6132
東京電視台	-11.6132
財富	-11.6132
▁Pro	-11.6132
大殿	-11.6132
还包括	-11.6133
電子遊戲	-11.6134
一行	-11.6134
調節	-11.6135
定义为	-11.6136
檢察官	-11.6136
年夏季奧林匹克運動會	-11.6136
大碟	-11.6137
驾	-11.6138
裝有	-11.614
在前	-11.6141
万历	-11.6141
1882	-11.6141
文武	-11.6142
频繁	-11.6143
西藏自治区	-11.6143
三甲	-11.6144
寫道	-11.6147
二者	-11.6148
秋季	-11.6148
勇敢	-11.6152
電磁	-11.6155
港台	-11.6155
攻破	-11.6155
格局	-11.6159
娥	-11.6159
3.0	-11.6159
私下	-11.6159
峯	-11.6159
卻在	-11.6159
▁崔	-11.616
分佈於	-11.6161
CP	-11.6161
萬英鎊	-11.6162
146	-11.6162
季節	-11.6162
橫跨	-11.6163
主要在	-11.6164
畑	-11.6168
终止	-11.6168
OVA	-11.6168
支撐	-11.6169
會面	-11.6169
▁东	-11.6169
過去的	-11.617
石川	-11.617
che	-11.6171
缺席	-11.6171
實習	-11.6171
封為	-11.6171
描绘	-11.6172
清洗	-11.6172
的統治	-11.6173
DI	-11.6174
中所	-11.6174
争论	-11.6175
衫	-11.6176
致力於	-11.6176
а	-11.6176
伴奏	-11.6177
延续	-11.6178
竞赛	-11.6179
記者會	-11.6179
法规	-11.6179
。1935	-11.6179
丰富的	-11.618
作了	-11.618
相接	-11.618
地段	-11.6181
俄语	-11.6181
轩	-11.6182
保守派	-11.6182
引致	-11.6183
温州	-11.6184
的名義	-11.6185
不一定	-11.6185
瑶	-11.6186
米拉	-11.6186
湿地	-11.6187
新华	-11.6188
生殖	-11.6188
未曾	-11.6188
750	-11.6188
護士	-11.6188
配樂	-11.619
外貌	-11.6191
问题的	-11.6192
甲板	-11.6192
的社会	-11.6192
遠離	-11.6193
230	-11.6194
睦	-11.6195
一流	-11.6196
一对	-11.6196
病患	-11.6199
制品	-11.62
銀牌	-11.62
臧	-11.62
匈牙利语	-11.62
在不同	-11.6202
▁<	-11.6203
确	-11.6203
Am	-11.6206
會合	-11.6207
確立	-11.6208
鋁	-11.6209
否決	-11.621
有關的	-11.6212
胸部	-11.6213
不見	-11.6213
留下的	-11.6214
步兵第	-11.6215
运动的	-11.6215
。1927	-11.6216
功夫	-11.6216
Super	-11.6218
之夜	-11.6218
蔡英文	-11.622
是來自	-11.622
大门	-11.622
层次	-11.622
圣殿	-11.6221
名列	-11.6223
Ta	-11.6225
第十七	-11.6226
褐	-11.6227
曾擔任	-11.623
▁1920	-11.623
颖	-11.6232
寶可夢	-11.6234
瘋狂	-11.6234
优先	-11.6235
底下	-11.6235
又譯	-11.6236
引爆	-11.6239
摆	-11.624
克利	-11.6241
的自然	-11.6241
野外	-11.6244
足够	-11.6245
神的	-11.6245
▁四	-11.6246
的教育	-11.6246
加热	-11.6247
獲取	-11.6248
乐器	-11.6248
リ	-11.6249
作業系統	-11.6251
先知	-11.6252
马克思主义	-11.6253
》：「	-11.6254
么	-11.6254
圍繞	-11.6257
大賞	-11.6257
反共	-11.6257
3.9	-11.6258
精通	-11.626
差不多	-11.626
崩潰	-11.626
發生於	-11.6262
前线	-11.6262
波爾	-11.6264
終點站	-11.6265
二十二年	-11.6266
FM	-11.6267
90%	-11.6271
因此被	-11.6271
也開始	-11.6271
宿主	-11.6271
的标准	-11.6271
噴射	-11.6272
古埃及	-11.6272
ng	-11.6273
龐大	-11.6274
構想	-11.6275
▁()	-11.6275
字体	-11.6275
影子	-11.6277
7000	-11.6278
矩	-11.6278
之首	-11.6279
的成功	-11.628
光谱	-11.628
槍械	-11.6282
性别	-11.6282
具备	-11.6283
轉而	-11.6284
亞斯	-11.6285
輕易	-11.6285
而其	-11.6286
講師	-11.6288
概率	-11.6288
上水	-11.6289
▁阿尔	-11.6291
公墓	-11.6291
干預	-11.6292
在欧洲	-11.6292
历代	-11.6293
防護	-11.6293
园林	-11.6294
宁县	-11.6295
前提	-11.6296
写了	-11.6298
接納	-11.6298
炸弹	-11.6299
PP	-11.63
财经	-11.6301
LED	-11.6301
年第	-11.6301
日被	-11.6301
愁	-11.6302
恪	-11.6302
克罗地亚	-11.6302
升为	-11.6302
稱讚	-11.6305
貶	-11.6306
都以	-11.6307
min	-11.631
▁1927	-11.631
致死	-11.6311
闖	-11.6312
ice	-11.6313
距離首府	-11.6313
之助	-11.6314
掘	-11.6314
體操	-11.6315
的定义	-11.6316
天文學	-11.6317
沂	-11.6317
年首次	-11.6317
露天	-11.6317
爛	-11.6318
途徑	-11.6319
一說	-11.6319
的人士	-11.632
清潔	-11.6321
迁往	-11.6326
北周	-11.6326
工場	-11.6327
後便	-11.6327
阿爾巴尼亞	-11.6327
▁莫	-11.6328
羅德	-11.6328
滑雪	-11.633
他就	-11.6332
在這裡	-11.6333
在当时	-11.6335
大事	-11.6335
大明	-11.6336
詮釋	-11.6336
下属	-11.6338
總統府	-11.6339
首次在	-11.6339
誕	-11.634
開心	-11.6341
整数	-11.6342
奶奶	-11.6342
德甲	-11.6342
▁La	-11.6342
官吏	-11.6343
研究室	-11.6343
城中	-11.6344
直升机	-11.6344
三省	-11.6345
先進	-11.6346
世纪的	-11.6346
40%	-11.6346
莎拉	-11.6346
全新的	-11.6347
南投縣	-11.6348
▁同年	-11.6349
保密	-11.6349
摩擦	-11.635
铎	-11.635
停泊	-11.635
娃娃	-11.6354
那樣	-11.6354
的列車	-11.6355
罗德	-11.6355
八強	-11.6356
運動場	-11.6357
縮短	-11.6357
兼容	-11.6358
三家	-11.6358
▁作曲	-11.6358
的活动	-11.6359
发行的	-11.636
在印度	-11.636
表述	-11.6361
Facebook	-11.6361
荫	-11.6362
6,000	-11.6362
，1998	-11.6362
职责	-11.6363
在于	-11.6363
Fe	-11.6364
橋樑	-11.6364
該區	-11.6366
省的	-11.6366
近年来	-11.6367
1848	-11.6368
仪器	-11.6369
大都	-11.6369
祚	-11.6369
く	-11.637
」），	-11.637
卢瓦	-11.637
1862	-11.6372
號班機	-11.6372
Ne	-11.6372
少校	-11.6373
西門	-11.6373
（2018	-11.6374
網友	-11.6374
2,4	-11.6377
阔	-11.6377
歐美	-11.6377
1867	-11.6377
邹	-11.6378
詹姆士	-11.6378
巡邏	-11.6378
幸運	-11.6379
中學校	-11.6379
莫尔	-11.6381
113	-11.6385
是要	-11.6386
正如	-11.6387
買賣	-11.6387
奪回	-11.639
电机	-11.639
1879	-11.6393
不足以	-11.6393
臺北縣	-11.6393
乡镇	-11.6394
普通話	-11.6394
懲罰	-11.6395
磯	-11.6395
未經	-11.6395
5.7	-11.6397
納粹	-11.6397
各自的	-11.6398
它可以	-11.6398
顯得	-11.6399
壁画	-11.6399
納斯	-11.64
成份	-11.6401
實業	-11.6404
鑫	-11.6404
语音	-11.6405
商標	-11.6406
畢業生	-11.6408
斩	-11.6409
必定	-11.6409
同一個	-11.641
錄影	-11.641
腊	-11.641
所以在	-11.6411
亥	-11.6411
輿論	-11.6413
▁元	-11.6413
麾下	-11.6415
山水	-11.6415
石头	-11.6416
球衣	-11.6418
天主教徒	-11.6418
小子	-11.6418
▁蘇	-11.6418
。1942	-11.6419
數學家	-11.642
遁	-11.642
農村	-11.642
流域面積	-11.642
博士學位	-11.6421
关联	-11.6421
蕊	-11.6421
飲料	-11.6421
珠江	-11.6422
▁沈	-11.6422
渡邊	-11.6423
暴雨	-11.6423
观看	-11.6424
埃斯	-11.6426
帶回	-11.6427
假如	-11.6429
西伯利亚	-11.643
可能有	-11.643
公所	-11.6431
基隆市	-11.6431
该公司	-11.6432
探测	-11.6432
變動	-11.6433
咸丰	-11.6435
的島嶼	-11.6436
史稱	-11.6436
的任何	-11.6437
山镇	-11.6439
▁孫	-11.644
巴德	-11.644
科隆	-11.6441
精度	-11.6441
不同於	-11.6442
聰明	-11.6442
违反	-11.6443
合唱團	-11.6443
牛肉	-11.6444
羚	-11.6445
溫柔	-11.6445
ker	-11.6447
發電廠	-11.6448
升降機	-11.6448
起源於	-11.6452
清軍	-11.6454
瘋	-11.6454
治所在	-11.6456
教皇	-11.6456
日语	-11.6456
任何人	-11.6456
估	-11.6457
▁1936	-11.6457
传教	-11.6457
之手	-11.6458
福克斯	-11.6458
這部	-11.646
王公	-11.646
有些人	-11.646
等价	-11.6461
本身的	-11.6461
宫廷	-11.6462
遺產	-11.6466
殺了	-11.6466
膏	-11.6466
編成	-11.6466
公國	-11.6467
省会	-11.6467
晋升	-11.6468
入讀	-11.6468
駕駛員	-11.6468
升高	-11.6468
覺醒	-11.6469
安南	-11.647
七個	-11.647
並獲得	-11.6471
善良	-11.6472
索尔	-11.6472
完成後	-11.6473
採用了	-11.6474
二級	-11.6474
▁潘	-11.6475
桃花	-11.6476
《》，	-11.6476
148	-11.6476
八一	-11.6477
▁雷	-11.6477
放出	-11.6477
商务	-11.6478
响应	-11.6479
巴利	-11.6479
荣获	-11.6479
拘留	-11.648
暮	-11.648
運轉	-11.648
星星	-11.6481
厚度	-11.6482
中美	-11.6483
氟化	-11.6486
政变	-11.6486
ue	-11.6486
kg	-11.649
補選	-11.649
長江	-11.649
演繹	-11.6491
该片	-11.6492
携	-11.6493
」「	-11.6493
斯蒂	-11.6494
應付	-11.6494
ris	-11.6495
連線	-11.6496
液體	-11.6497
秀吉	-11.6497
年正式	-11.6498
擋	-11.6499
大山	-11.6499
朝鮮半島	-11.65
輕鐵	-11.6502
总长	-11.6502
四季	-11.6503
看法	-11.6503
网页	-11.6503
寂	-11.6504
生产的	-11.6508
核武器	-11.6512
可由	-11.6514
以示	-11.6514
其在	-11.6515
比賽中	-11.6516
的指示	-11.6516
文帝	-11.6518
中也	-11.6518
永和	-11.6519
莉莉	-11.6521
删除	-11.6521
纏	-11.6524
高句丽	-11.6524
大人	-11.6524
明顯的	-11.6525
农历	-11.6527
vo	-11.6527
。2022	-11.6528
大奖	-11.6528
下载	-11.6529
已知的	-11.6529
行政区域	-11.6533
钙	-11.6533
同性恋	-11.6534
Na	-11.6534
拉丁语	-11.6535
挑選	-11.6535
《-{	-11.6535
慘	-11.6536
簡介	-11.6536
▁1931	-11.6538
蔣經國	-11.6541
的程度	-11.6543
稀少	-11.6543
專題	-11.6543
1864	-11.6544
守備	-11.6544
发育	-11.6548
兀	-11.6549
车型	-11.6549
4.4	-11.655
阵亡	-11.655
眷	-11.6551
固体	-11.6551
為例	-11.6552
地貌	-11.6552
四次	-11.6553
東涌	-11.6554
典礼	-11.6554
合作的	-11.6555
全能	-11.6557
個案	-11.6557
衞	-11.6559
島的	-11.6559
電影中	-11.656
相差	-11.6561
▁江	-11.6562
海灘	-11.6562
ham	-11.6563
会议上	-11.6563
广泛的	-11.6564
华侨	-11.6564
超出	-11.6566
新臺幣	-11.6567
汞	-11.6567
頒獎禮	-11.6568
納粹德國	-11.6568
饭店	-11.6569
古老	-11.6569
用了	-11.657
逆轉	-11.6571
长征	-11.6572
該黨	-11.6572
遇到了	-11.6573
皋	-11.6575
除去	-11.6576
建構	-11.6577
的主力	-11.6579
位於臺灣	-11.6581
嵌	-11.6582
立方米	-11.6583
停用	-11.6584
那不勒斯	-11.6585
的理由	-11.6585
文中	-11.6586
一颗	-11.6586
BS	-11.6587
中國人	-11.6588
派兵	-11.6588
▁Sh	-11.6589
控制器	-11.659
的权力	-11.6591
溜	-11.6592
相邻	-11.6592
是当地	-11.6593
運河	-11.6593
掉了	-11.6593
新式	-11.6593
难民	-11.6594
MG	-11.6596
起诉	-11.6596
王氏	-11.6597
重组	-11.6597
1,8	-11.6597
留下了	-11.6598
衰變	-11.66
年因	-11.6601
苗栗	-11.6601
村合併為	-11.6601
兵衛	-11.6602
Mar	-11.6602
1850	-11.6602
大于	-11.6603
对应的	-11.6605
要在	-11.6605
的男子	-11.6605
屢	-11.6606
亞科	-11.6608
114	-11.6608
約瑟夫	-11.6608
侵入	-11.6609
諫	-11.661
緬	-11.661
飓风	-11.6611
＝	-11.6611
相機	-11.6611
的工具	-11.6612
好像	-11.6612
财富	-11.6614
後衛	-11.6614
进化	-11.6615
清军	-11.6617
后面	-11.6617
董事會	-11.6618
他为	-11.6619
▁位於	-11.6619
大哥	-11.662
報復	-11.6621
有一定	-11.6622
台大	-11.6623
-23	-11.6623
林彪	-11.6625
製造的	-11.6627
工業區	-11.6628
一系列的	-11.663
集成	-11.663
常数	-11.6631
來了	-11.6632
今日的	-11.6632
白云	-11.6634
海關	-11.6635
住院	-11.6635
。1953	-11.6635
游泳池	-11.6635
研究员	-11.6639
阶级	-11.664
對待	-11.664
大气	-11.6641
分隊	-11.6642
BA	-11.6644
贯	-11.6645
渴望	-11.6646
不久後	-11.6649
樂壇	-11.6649
送給	-11.665
他自己	-11.6651
监察	-11.6652
灌木	-11.6652
中島	-11.6652
鬚	-11.6654
1875	-11.6655
粟	-11.6657
感動	-11.6657
职工	-11.6658
中外	-11.6658
王國的	-11.666
青海省	-11.666
同知	-11.6661
的意見	-11.6662
哈爾	-11.6662
闲	-11.6662
吉他手	-11.6663
摩尔	-11.6663
論述	-11.6664
打工	-11.6664
肯尼迪	-11.6664
该省份为法国	-11.6664
sch	-11.6664
的緣故	-11.6665
首演	-11.6666
並開始	-11.6667
CV	-11.6667
的计划	-11.6668
加勒比海	-11.6669
學界	-11.6669
王府	-11.667
擲	-11.6671
忒	-11.6671
香港浸會大學中醫藥學院	-11.6672
▁-{	-11.6673
豐田	-11.6673
新市鎮	-11.6673
邮	-11.6673
侍中	-11.6673
數次	-11.6676
塔爾	-11.6676
頜	-11.6677
簡易	-11.6678
局面	-11.6678
起始	-11.6679
們的	-11.668
明显的	-11.6681
动词	-11.6683
SU	-11.6686
栖	-11.6687
家裡	-11.6688
武汉大学	-11.6688
結盟	-11.6689
谴责	-11.6689
罹患	-11.669
局长	-11.669
PlayStation	-11.669
。1951	-11.669
衔	-11.669
ain	-11.6691
所辖	-11.6693
的机会	-11.6694
参观	-11.6694
反映了	-11.6694
则为	-11.6694
管治	-11.6694
小鎮	-11.6694
海豚	-11.6695
原版	-11.6696
參戰	-11.6696
神聖	-11.6697
中国国家	-11.6697
温泉	-11.6697
湊	-11.6697
录音	-11.6699
所組成	-11.6699
1/	-11.6701
的特色	-11.6702
西日本	-11.6702
打破了	-11.6703
即今	-11.6704
Jo	-11.6704
该站	-11.6706
进军	-11.6706
外观	-11.6707
▁八	-11.6707
哲學家	-11.6707
其弟	-11.6708
ya	-11.6708
oc	-11.6708
花序	-11.6709
寺庙	-11.6709
是否有	-11.6711
集团有限公司	-11.6711
▁許	-11.6711
》（），	-11.6711
金朝	-11.6714
燦	-11.6716
福斯	-11.6716
四百	-11.6716
职能	-11.6716
南京市	-11.6717
专题	-11.6717
西部的	-11.6717
充满	-11.6717
监管	-11.6718
1877	-11.6719
類型的	-11.6721
▁一些	-11.6722
刺殺	-11.6723
主要為	-11.6723
節奏	-11.6723
雾	-11.6724
熱帶低氣壓	-11.6725
竟然	-11.6726
在此之前	-11.6727
獎勵	-11.6727
已于	-11.6727
就已經	-11.6728
惑	-11.6728
參議員	-11.6728
取景	-11.6728
直轄市	-11.673
迅	-11.673
樺	-11.6731
焰	-11.6731
基斯	-11.6732
gi	-11.6733
围棋	-11.6733
鉤	-11.6733
ク	-11.6734
精選	-11.6734
狹	-11.6735
收復	-11.6735
東晉	-11.6735
山城	-11.6736
釋出	-11.6737
日耳曼	-11.6746
孔雀	-11.6746
空調	-11.6748
较多	-11.6748
是印度	-11.6749
輕鬆	-11.675
光復	-11.6751
在中國大陸	-11.6751
的集合	-11.6753
极为	-11.6753
潮流	-11.6753
史上最	-11.6754
复制	-11.6755
行事	-11.6755
蝕	-11.6756
年落成	-11.6756
失效	-11.6758
叔父	-11.6759
氦	-11.676
爺爺	-11.6761
之後在	-11.6762
發育	-11.6763
元素的	-11.6764
乌尔	-11.6766
大學的	-11.6766
大选	-11.6767
世子	-11.6768
的過程中	-11.6768
全壘打	-11.677
間諜	-11.677
備受	-11.6771
州长	-11.6772
存放	-11.6772
）→	-11.6772
二十四年	-11.6772
基爾	-11.6773
的支持者	-11.6773
过于	-11.6773
配件	-11.6774
形势	-11.6774
不了	-11.6774
1,500	-11.6775
殿試	-11.6775
電動	-11.6776
白俄羅斯	-11.6776
戰線	-11.6776
指挥部	-11.6776
開頭	-11.6777
擊落	-11.6778
者之一	-11.6779
阵地	-11.678
榆	-11.6781
過多	-11.6782
外地	-11.6783
火灾	-11.6783
學部	-11.6784
出使	-11.6785
-13	-11.6785
163	-11.6785
所致	-11.6785
裘	-11.6785
筠	-11.6785
悠久	-11.6785
5.3	-11.6786
互聯網	-11.6787
跳舞	-11.6789
▁for	-11.6789
爱国	-11.679
出生的	-11.679
極度	-11.679
的事物	-11.6791
雪山	-11.6791
550	-11.6791
的女人	-11.6792
喚	-11.6794
在该	-11.6795
的比賽中	-11.6795
自家	-11.6796
想到	-11.6796
兴趣	-11.6797
Pa	-11.6799
境外	-11.6799
但有	-11.6799
大於	-11.6801
转会	-11.6802
布兰	-11.6803
衆	-11.6803
退位	-11.6803
眾議院	-11.6804
証	-11.6804
特區	-11.6805
歌词	-11.6805
国有	-11.6807
极大	-11.6808
总经理	-11.6809
的另一	-11.681
推力	-11.6812
中亚	-11.6813
煎	-11.6813
は	-11.6813
中午	-11.6813
的决定	-11.6814
姊姊	-11.6815
外來	-11.6816
西周	-11.6816
各式	-11.6817
6.2	-11.6819
纪录片	-11.682
师长	-11.682
tor	-11.6823
「」（	-11.6823
Ad	-11.6823
魁北克	-11.6823
樹木	-11.6824
繁榮	-11.6825
129	-11.6827
▁孙	-11.6829
清河	-11.6829
az	-11.6829
5.8	-11.6829
氣氛	-11.6831
旗幟	-11.6831
躲避	-11.6831
有限责任公司	-11.6831
旁的	-11.6831
不便	-11.6833
的好友	-11.6835
年版	-11.6837
佩尔	-11.684
乃是	-11.684
便可	-11.684
台鐵	-11.684
本来	-11.6841
揭幕	-11.6841
发布了	-11.6842
条款	-11.6843
爾頓	-11.6843
姨	-11.6843
喜爱	-11.6845
ISO	-11.6845
会导致	-11.6847
新一代	-11.6849
钻	-11.6849
配偶	-11.6851
公使	-11.6851
撲	-11.6852
7.7	-11.6853
出面	-11.6853
君子	-11.6854
車手	-11.6856
轉型	-11.6856
蕩	-11.6857
龍類	-11.6862
出色的	-11.6864
其次	-11.6865
奥斯曼帝国	-11.6866
新疆维吾尔自治区	-11.6867
景點	-11.6867
他说	-11.6867
頻繁	-11.6867
▁博	-11.6868
廚	-11.6869
万人次	-11.6869
▁清朝	-11.6869
VI	-11.6872
會造成	-11.6873
分区	-11.6873
有部分	-11.6874
的建筑	-11.6875
活化	-11.6875
被誉为	-11.6876
以避免	-11.6876
朝鲜半岛	-11.6877
▁洪	-11.6878
士林	-11.6878
均由	-11.6879
。1928	-11.6879
日成立	-11.688
一说	-11.688
Si	-11.6881
妄	-11.6883
團長	-11.6883
LO	-11.6883
う	-11.6885
三级	-11.6885
的舊	-11.6885
羅賓	-11.6886
视觉	-11.6886
的差異	-11.6887
总管	-11.6889
簿	-11.6889
不夠	-11.689
宵	-11.6893
填海	-11.6894
史前	-11.6896
華僑	-11.6898
威尔士	-11.6898
水流	-11.6899
做成	-11.6899
117	-11.6899
較高的	-11.69
校內	-11.6901
伶	-11.6902
属下的一个变种	-11.6903
的同時	-11.6904
足夠的	-11.6905
仆	-11.6905
霍爾	-11.6906
康熙帝	-11.6906
週刊	-11.6907
Lo	-11.6907
做出了	-11.6909
境界	-11.6911
乘搭	-11.6911
俘虏	-11.6912
毗鄰	-11.6912
十餘	-11.6914
並向	-11.6915
看似	-11.6917
京劇	-11.6919
長崎	-11.6919
都是由	-11.692
钾	-11.6921
各地的	-11.6921
一层	-11.6922
得票率	-11.6922
编组	-11.6923
接下來	-11.6925
他将	-11.6925
军衔	-11.6925
是对	-11.6926
河西	-11.6927
荡	-11.6928
和美国	-11.6929
憤	-11.6929
验证	-11.6929
理事會	-11.693
向東	-11.6931
後代	-11.6931
引起的	-11.6933
會會長	-11.6933
的軍事	-11.6933
仁宗	-11.6934
鐸	-11.6936
他亦	-11.6937
传动	-11.6938
偏向	-11.6939
的記憶	-11.6939
先锋	-11.694
減弱	-11.6941
政府在	-11.6941
（2014	-11.6942
观音	-11.6942
1873	-11.6943
ug	-11.6943
生物學	-11.6943
排水	-11.6944
聚居	-11.6944
兩項	-11.6944
星期日	-11.6944
五郎	-11.6944
蔓延	-11.6944
以及在	-11.6945
事先	-11.6945
不動	-11.6945
斯科特	-11.6946
柴灣	-11.6946
英美	-11.6947
组织的	-11.6947
微分	-11.6948
可以追溯到	-11.6948
隕石	-11.6948
惡劣	-11.6948
更容易	-11.6949
▁Be	-11.695
其為	-11.6952
自立	-11.6953
系列中	-11.6956
ess	-11.6957
对比	-11.6957
控股有限公司	-11.6958
环绕	-11.6959
增加到	-11.6959
开始在	-11.696
隨時	-11.696
上課	-11.6962
狮子	-11.6963
2500	-11.6964
茄	-11.6964
太古	-11.6965
镇江	-11.6967
有期徒刑	-11.6967
▁1932	-11.6968
英國的	-11.6968
诸如	-11.6968
但這	-11.6968
字子	-11.6969
系统中	-11.6969
實質	-11.697
環節	-11.6971
111	-11.6974
專訪	-11.6976
阅	-11.6976
学士	-11.6976
阿拉斯加	-11.6977
。1959	-11.6977
Pro	-11.6977
天台	-11.6977
開拓	-11.6979
護衛	-11.698
▁七	-11.698
之位	-11.698
地理位置	-11.698
兩度	-11.6981
打败	-11.6982
的節目	-11.6983
表情	-11.6983
党组书记	-11.6984
竿	-11.6984
的丈夫	-11.6984
北投	-11.6985
諸葛亮	-11.6985
字幕	-11.6986
貫穿	-11.6987
gen	-11.6988
亞種	-11.6989
有毒	-11.699
诸侯	-11.699
144	-11.6992
狀元	-11.6993
靴	-11.6993
沿着	-11.6994
伯克	-11.6995
首屆	-11.6995
樂曲	-11.6996
令他	-11.6996
級的	-11.6996
債務	-11.6996
4.1	-11.6998
▁現時	-11.6998
队的	-11.7
来看	-11.7
TS	-11.7001
ix	-11.7001
沾	-11.7002
警備	-11.7002
鷲	-11.7002
新区	-11.7003
射線	-11.7004
目錄	-11.7004
全县	-11.7004
细节	-11.7004
池田	-11.7006
瑞克	-11.7006
商圈	-11.7007
使人	-11.7008
濁	-11.7009
苻	-11.701
多媒體	-11.701
的军事	-11.7011
蹄	-11.7011
足球聯賽	-11.7012
镇管辖	-11.7012
會館	-11.7012
的祖先	-11.7012
廣島	-11.7013
衛視	-11.7014
閩南語	-11.7014
就業	-11.7014
270	-11.7015
6.8	-11.7015
全体	-11.7016
樣本	-11.7016
1881	-11.7016
椿	-11.7018
表现出	-11.7018
量的	-11.7019
雙重	-11.7019
158	-11.702
阿尔巴尼亚	-11.702
ich	-11.7021
业余	-11.7022
民族主義	-11.7022
土木	-11.7023
緊密	-11.7024
受邀	-11.7024
無數	-11.7025
一开始	-11.7025
追捕	-11.7025
荀	-11.7026
地盤	-11.7027
琉	-11.7027
那時	-11.7027
諸侯	-11.7027
该剧	-11.7027
约有	-11.7029
暉	-11.7029
菩提	-11.7029
特曼	-11.7029
廣義	-11.7031
慢性	-11.7031
否则	-11.7032
這首歌	-11.7032
交代	-11.7034
体内	-11.7034
的貢獻	-11.7035
纳尔	-11.7035
▁故事	-11.7036
則被	-11.7037
浑	-11.7038
山路	-11.7038
ity	-11.7038
原子核	-11.7038
但最終	-11.7038
最初是	-11.704
嘉定	-11.7041
機上	-11.7042
可知	-11.7042
聘請	-11.7042
应对	-11.7043
令其	-11.7044
5.1	-11.7045
嗜	-11.7045
比斯	-11.7045
离婚	-11.7046
傳聞	-11.7046
佛陀	-11.7046
炮塔	-11.7047
渾	-11.7047
▁曹	-11.7047
專欄	-11.7047
喜好	-11.7049
此类	-11.705
位處	-11.705
民族主义	-11.7053
協商	-11.7053
能力的	-11.7054
敞	-11.7056
虾	-11.7056
馬路	-11.7056
給了	-11.7056
上古	-11.7056
奇蹟	-11.7057
的評價	-11.7057
周末	-11.7058
2,3	-11.7058
资本主义	-11.7058
頒布	-11.7059
方针	-11.7059
6.6	-11.7061
二號	-11.7061
的感覺	-11.7062
德文	-11.7064
媚	-11.7065
腐败	-11.7065
谥	-11.7067
所作	-11.7067
梅爾	-11.7068
米特	-11.7068
龚	-11.7068
報章	-11.7071
。1944	-11.7074
屠杀	-11.7078
後成為	-11.7078
做到	-11.7078
就业	-11.7078
黃昏	-11.7079
住房	-11.7081
央视	-11.7081
获奖	-11.7081
第一次世界大战	-11.7082
市鎮	-11.7083
俄亥俄州	-11.7085
夢幻	-11.7086
音樂錄影帶	-11.7087
光束	-11.7088
內陸	-11.7089
收费	-11.7089
該劇	-11.7091
褚	-11.7092
完結	-11.7092
Cr	-11.7093
參數	-11.7094
ys	-11.7094
廁所	-11.7094
蘇州	-11.7094
收錄了	-11.7095
半径	-11.7096
新兴	-11.7096
雙手	-11.7098
里奥	-11.71
度量	-11.71
。1961	-11.71
抑	-11.71
观念	-11.7101
禮物	-11.7102
▁1935	-11.7103
。1943	-11.7104
占有	-11.7104
标志着	-11.7105
線性	-11.7106
羅馬帝國	-11.7106
An	-11.7107
可以看到	-11.7108
。1933	-11.7109
（2002	-11.7109
而他	-11.7111
其間	-11.7111
見證	-11.7112
dy	-11.7113
擢	-11.7113
成立後	-11.7113
塔拉	-11.7114
二十六年	-11.7116
的稱號	-11.7116
的文字	-11.7116
机器人	-11.7117
1,9	-11.7117
之母	-11.7118
部部長	-11.7118
文化部	-11.7118
導彈	-11.7118
浚	-11.7118
沸	-11.7119
在其他	-11.7119
所知	-11.712
全集	-11.7121
后因	-11.7121
主打	-11.7121
九江	-11.7123
劲	-11.7124
打死	-11.7125
首尔	-11.7126
的利益	-11.7127
乘車	-11.7128
現址	-11.7128
带来的	-11.7128
敦煌	-11.713
8,000	-11.713
改組	-11.713
被发现	-11.713
。1932	-11.713
暴龍	-11.713
」，「	-11.7132
给定	-11.7134
一定要	-11.7134
兩年後	-11.7134
愿意	-11.7135
饮	-11.7136
end	-11.7137
马力	-11.7138
老大	-11.7138
剧场	-11.7139
擴散	-11.7139
116	-11.714
丑	-11.7141
人民公社	-11.7141
wa	-11.7142
歡樂	-11.7142
相望	-11.7143
县的一个市镇	-11.7143
利比亚	-11.7143
驅逐艦	-11.7145
倉庫	-11.7145
1865	-11.7145
加大	-11.7146
捕食	-11.7147
紡織	-11.7148
病情	-11.7148
国家统计	-11.7148
響應	-11.7148
的结构	-11.7149
螺科	-11.715
下设	-11.715
粵劇	-11.7151
就读	-11.7151
最佳男主角	-11.7155
節目中	-11.7155
石器	-11.7155
省长	-11.7156
As	-11.7156
痴	-11.7157
貨車	-11.7157
傳教	-11.7158
選舉中	-11.716
磊	-11.716
的历史年代为	-11.7163
一隊	-11.7164
稚	-11.7165
▁哈	-11.7166
全日	-11.7166
但實際上	-11.7166
傳達	-11.7168
天文学家	-11.7168
轰炸机	-11.7168
人民幣	-11.7169
最高峰	-11.7169
的愛	-11.7169
是俄羅斯	-11.7169
則認為	-11.717
回國	-11.717
迟	-11.7172
娄	-11.7173
知府	-11.7173
100%	-11.7174
▁英國	-11.7174
使出	-11.7175
於第	-11.7175
抛	-11.7175
写成	-11.7175
年去世	-11.7176
在南京	-11.7176
屠殺	-11.7178
撤離	-11.7178
傾斜	-11.7179
交出	-11.718
效益	-11.7181
名乘客	-11.7182
弗里德里希	-11.7185
冒险	-11.7185
za	-11.7185
干扰	-11.7185
（2003	-11.7186
被任命為	-11.7188
5.4	-11.719
降至	-11.719
切割	-11.719
活力	-11.719
交易所	-11.7191
绝大多数	-11.7191
業界	-11.7191
琉璃	-11.7192
汉朝	-11.7192
玻	-11.7193
流行的	-11.7193
个行政村	-11.7193
佛像	-11.7194
文法	-11.7194
像素	-11.7195
核准	-11.7195
cy	-11.7197
中古	-11.72
河上	-11.72
650	-11.72
应用程序	-11.72
尘	-11.7201
荃	-11.7202
总队	-11.7202
神祇	-11.7202
日记	-11.7202
拉丁美洲	-11.7204
晶片	-11.7205
的一面	-11.7205
Ga	-11.7207
志願	-11.7207
高空	-11.7207
閩南	-11.7208
大區	-11.7209
一文	-11.721
▁Al	-11.721
人口約	-11.721
在德国	-11.7212
聶	-11.7212
SL	-11.7212
身穿	-11.7213
暑假	-11.7214
』（	-11.7214
飞船	-11.7214
西村	-11.7215
遇見	-11.7215
▁葉	-11.7215
村莊	-11.7216
不應	-11.7216
處長	-11.7218
變換	-11.7218
陰陽	-11.7219
延長至	-11.722
宮廷	-11.722
。1975	-11.722
顶部	-11.7221
代表人物	-11.7221
起事	-11.7222
還包括	-11.7222
否认	-11.7222
毕业生	-11.7222
res	-11.7223
聂	-11.7224
董卓	-11.7225
的男性	-11.7227
年成立的	-11.7227
牛津	-11.7228
父親是	-11.7228
砌	-11.7229
最後一個	-11.7229
圖形	-11.723
许可	-11.723
战败	-11.723
槐	-11.723
失踪	-11.7231
▁1933	-11.7231
尾部	-11.7232
錐	-11.7233
層面	-11.7234
Ro	-11.7235
特有的	-11.7235
減輕	-11.7236
瀧	-11.7236
武德	-11.7237
弯	-11.7237
陵墓	-11.7237
的戰爭	-11.7237
回到了	-11.7239
被列為	-11.7243
笃	-11.7244
三代	-11.7245
ite	-11.7245
祝福	-11.7246
暱稱	-11.7247
陆地	-11.7248
酚	-11.7248
自行車	-11.7249
一部份	-11.7249
▁to	-11.725
维斯	-11.7252
新四军	-11.7252
的支持率	-11.7256
許多人	-11.7256
之内	-11.7257
墟	-11.7257
明日	-11.7257
陣容	-11.7258
足球俱樂部	-11.7258
南阳	-11.7258
驱	-11.7259
豐原	-11.7259
鄉試	-11.7262
唐太宗	-11.7262
元首	-11.7263
難度	-11.7266
师范学院	-11.7266
一段时间	-11.7266
柜	-11.7267
大法官	-11.7267
now	-11.7268
名录	-11.7268
的結構	-11.7269
号种子	-11.7269
湧	-11.727
。1931	-11.7271
国籍	-11.7271
洛特	-11.7271
綜藝	-11.7272
邻近	-11.7272
New	-11.7273
每秒	-11.7273
中信	-11.7274
為他	-11.7275
禮儀	-11.7276
数值	-11.7276
代谢	-11.7277
貪污	-11.7277
漁業	-11.7278
投身	-11.7279
年至今	-11.7279
美好	-11.7284
命中	-11.7284
彻	-11.7285
官邸	-11.7288
陛下	-11.7289
泄	-11.7291
高层	-11.7291
ock	-11.7291
養子	-11.7292
还可以	-11.7292
當成	-11.7292
冷卻	-11.7292
教官	-11.7294
其他地方	-11.7294
后世	-11.7295
硬體	-11.7296
筆名	-11.7297
是臺灣	-11.7299
况	-11.7299
霸王	-11.7301
參謀長	-11.7303
流經	-11.7304
變成了	-11.7306
强大	-11.7306
公學校	-11.7307
裝上	-11.7308
類似於	-11.7309
羅馬天主教	-11.7309
評選	-11.7309
桃園縣	-11.731
及第	-11.7311
奮	-11.7312
增设	-11.7313
6.1	-11.7314
苏军	-11.7314
徽章	-11.7314
組織的	-11.7315
紀念碑	-11.7316
至尊	-11.7317
與中國	-11.7317
ei	-11.7317
的質量	-11.7318
例如在	-11.7318
八戒	-11.7319
OR	-11.7319
团团长	-11.7319
不丹	-11.7319
所做的	-11.732
的所在地	-11.732
SH	-11.732
的一切	-11.7321
國土	-11.7322
影响力	-11.7323
排斥	-11.7323
多達	-11.7323
徵收	-11.7323
說道	-11.7323
鲸	-11.7323
二十一	-11.7324
尔德	-11.7324
依次	-11.7325
明史	-11.7325
交配	-11.7325
建立起	-11.7326
霍夫	-11.7327
▁除	-11.7327
司机	-11.7327
ome	-11.7328
審議	-11.7328
午夜	-11.7329
小說家	-11.733
交替	-11.733
林业	-11.7331
伙伴	-11.7331
全名	-11.7332
逃避	-11.7332
廂	-11.7333
的男人	-11.7334
都會區	-11.7334
美少女	-11.7336
封锁	-11.7336
net	-11.7337
柴油机	-11.7337
效能	-11.7339
最佳女主角	-11.734
重疊	-11.734
較小	-11.734
會導致	-11.7342
mer	-11.7342
折返	-11.7343
急性	-11.7345
1874	-11.7346
浓	-11.7346
书店	-11.7348
战国	-11.7348
副使	-11.7349
开国	-11.7351
棲	-11.7352
激進	-11.7352
競技	-11.7353
年上映的	-11.7354
击败了	-11.7355
芮	-11.7356
中校	-11.7357
郡的	-11.7358
ub	-11.7358
ide	-11.7358
摧毁	-11.7358
亦稱	-11.7359
集会	-11.7361
后方	-11.7361
八個	-11.7361
走了	-11.7362
教导	-11.7363
倚	-11.7363
大氣層	-11.7364
的早期	-11.7367
门外	-11.7367
蛮	-11.7367
孔明	-11.737
总监	-11.737
创造了	-11.737
大阪府	-11.7371
矽	-11.7372
等同	-11.7372
进行的	-11.7372
最長的	-11.7373
違法	-11.7374
由日本	-11.7375
師傅	-11.7375
王牌	-11.7377
屋邨	-11.7379
濠	-11.738
二十一年	-11.7381
平反	-11.7381
旧金山	-11.7382
容納	-11.7382
都没有	-11.7382
继承人	-11.7383
呈现	-11.7384
幹線	-11.7385
大将	-11.7385
60%	-11.7386
魯斯	-11.7386
登堡	-11.7387
牌照	-11.7387
軍用	-11.7387
強力	-11.7388
du	-11.7388
咪	-11.7388
客运专线	-11.7389
遣使	-11.7389
冕	-11.7391
的比赛	-11.7391
（2017	-11.7392
墓葬	-11.7392
▁Bo	-11.7393
这位	-11.7394
客車	-11.7394
的建築	-11.7395
条目	-11.7396
永康	-11.7397
肺炎	-11.74
神奇	-11.7401
谢尔	-11.7405
你们	-11.7406
翡翠台	-11.7406
中英	-11.7407
站位于	-11.7408
承擔	-11.7409
哈尔	-11.7409
一樓	-11.7409
诊断	-11.7409
倾向	-11.741
奖励	-11.7411
三國志	-11.7414
莫里	-11.7414
中唯一	-11.7414
远东	-11.7415
後裔	-11.7416
這件事	-11.7418
昏迷	-11.7418
当然	-11.7418
区和	-11.742
大使館	-11.742
配有	-11.7421
東面	-11.7421
狩獵	-11.7422
巴伐利亚	-11.7423
科下的一个属	-11.7424
这一时期	-11.7424
形目	-11.7426
複數	-11.7426
附有	-11.7426
按察使	-11.7427
替换	-11.7428
一类	-11.7428
大洋洲	-11.7428
6.7	-11.7429
总公司	-11.7429
意识到	-11.7431
开元	-11.7432
國家足球隊	-11.7433
军政	-11.7433
。1973	-11.7433
吋	-11.7435
野村	-11.7435
崇祯	-11.7436
合資	-11.7436
里安	-11.7436
高溫	-11.7437
鈣	-11.7437
ath	-11.7438
組組長	-11.7442
文人	-11.7442
也將	-11.7444
巴林	-11.7445
大勝	-11.7445
意味著	-11.7446
马其顿	-11.7446
糖尿病	-11.7447
7.2	-11.7447
北洋政府	-11.7447
艾德	-11.7447
人口普查	-11.7448
被逮捕	-11.7448
70%	-11.7448
場面	-11.7449
菲爾德	-11.7449
合計	-11.745
隼	-11.7451
馬達	-11.7451
都尉	-11.7451
[...]
