<unk>	0
<s>	0
</s>	0
<pad>	0
,	-2.79435
▁the	-3.1055
.	-3.56878
▁of	-3.6304
▁and	-3.6568
▁to	-3.83033
s	-4.02872
▁a	-4.11423
▁in	-4.23034
;	-4.38489
▁I	-4.49579
▁that	-4.57588
▁was	-4.66735
▁his	-4.82323
▁it	-4.90414
▁with	-4.95818
▁as	-5.06795
▁her	-5.12637
ing	-5.13909
▁for	-5.15463
▁not	-5.17333
▁he	-5.18055
▁had	-5.18643
-	-5.1929
ed	-5.1946
▁be	-5.27188
▁my	-5.29319
▁is	-5.35049
▁at	-5.36987
▁by	-5.37411
▁but	-5.40911
▁all	-5.44693
▁on	-5.47836
▁this	-5.53715
▁from	-5.55827
▁she	-5.57204
▁which	-5.60443
▁you	-5.63098
▁him	-5.64281
▁me	-5.69634
▁have	-5.7143
▁so	-5.71637
▁were	-5.75965
ly	-5.77509
▁or	-5.82943
d	-5.83807
▁their	-5.97244
▁	-5.9773
▁one	-5.98322
▁The	-5.98748
▁they	-6.02261
▁an	-6.0366
▁when	-6.12389
▁been	-6.12911
▁no	-6.15134
▁would	-6.16811
!	-6.1908
▁But	-6.19311
▁them	-6.19958
▁are	-6.22694
▁could	-6.24624
▁more	-6.25724
▁some	-6.28732
▁Mr	-6.29382
▁there	-6.30366
e	-6.30584
▁now	-6.40146
▁into	-6.42088
▁very	-6.43237
▁any	-6.44372
▁will	-6.46797
▁whale	-6.47319
▁who	-6.47426
▁if	-6.4835
▁such	-6.49565
y	-6.49574
▁other	-6.49864
▁what	-6.51604
▁out	-6.5275
▁then	-6.53293
r	-6.55711
▁upon	-6.56876
▁up	-6.56941
?	-6.60058
▁than	-6.60775
er	-6.60836
▁we	-6.61357
▁only	-6.62772
▁your	-6.63093
t	-6.63831
▁before	-6.65383
▁time	-6.65855
▁like	-6.66838
p	-6.6787
▁its	-6.68412
▁man	-6.68997
a	-6.69938
▁over	-6.71098
▁most	-6.72973
▁Elizabeth	-6.73745
▁did	-6.74558
▁must	-6.77792
▁these	-6.7953
▁should	-6.7984
▁He	-6.80721
▁do	-6.82252
▁though	-6.82297
▁It	-6.83697
▁has	-6.84724
▁much	-6.84845
▁little	-6.85288
o	-6.85292
▁might	-6.86933
n	-6.88576
▁every	-6.89022
▁down	-6.92426
▁own	-6.92741
ness	-6.93871
▁great	-6.96324
▁about	-6.96584
▁may	-6.96593
▁again	-6.96777
:	-6.96786
▁sea	-6.96799
▁after	-6.96832
▁long	-6.97656
▁first	-6.97834
▁those	-6.98087
▁being	-6.98251
▁two	-7.0091
▁yet	-7.02536
▁can	-7.03575
▁still	-7.0408
g	-7.04823
▁And	-7.05457
es	-7.06598
▁She	-7.07108
▁last	-7.0932
▁seemed	-7.09479
▁never	-7.11893
l	-7.11977
▁without	-7.14608
▁am	-7.16146
▁old	-7.16344
▁how	-7.17231
b	-7.17632
▁ship	-7.17715
▁even	-7.18059
▁made	-7.1823
▁soon	-7.18246
▁our	-7.18525
▁un	-7.18628
▁ever	-7.19611
▁where	-7.21918
c	-7.22194
▁In	-7.22314
▁see	-7.2377
▁day	-7.24143
en	-7.25245
▁good	-7.2579
▁while	-7.26225
▁himself	-7.27235
▁well	-7.27286
▁many	-7.2887
▁us	-7.29309
▁same	-7.29979
▁found	-7.31029
▁way	-7.32181
▁thought	-7.32705
al	-7.32999
▁life	-7.33483
▁A	-7.33582
m	-7.33745
▁head	-7.33911
▁say	-7.35121
▁through	-7.3533
w	-7.36081
i	-7.36442
▁Ahab	-7.38696
▁said	-7.39081
▁away	-7.39393
▁work	-7.39788
▁almost	-7.41389
▁saw	-7.41389
▁off	-7.41473
▁Project	-7.41779
▁eyes	-7.42952
▁herself	-7.4296
▁round	-7.43358
▁came	-7.43756
▁Darcy	-7.44961
▁know	-7.46029
▁too	-7.4613
▁three	-7.4618
in	-7.47157
▁think	-7.47638
▁part	-7.47983
▁CHAPTER	-7.48246
▁make	-7.49262
▁world	-7.4993
▁Gutenberg	-7.49931
est	-7.50171
▁nothing	-7.51216
▁myself	-7.51644
▁men	-7.52029
▁hand	-7.53216
ar	-7.53286
▁shall	-7.56061
f	-7.56595
▁whole	-7.57118
▁Bennet	-7.57882
▁far	-7.58013
▁boat	-7.58483
▁towards	-7.58947
st	-7.59197
▁For	-7.59302
▁heart	-7.59531
h	-7.59812
▁side	-7.60376
▁however	-7.61638
▁night	-7.6215
le	-7.62318
u	-7.62354
▁felt	-7.63077
▁go	-7.63395
▁back	-7.63497
ion	-7.63921
▁place	-7.64494
an	-7.64908
▁s	-7.65869
or	-7.65879
▁heard	-7.66307
▁among	-7.67472
on	-7.6778
▁here	-7.68826
▁once	-7.6983
▁few	-7.70092
▁Whale	-7.70429
▁This	-7.70616
▁Miss	-7.71663
▁seen	-7.71823
▁till	-7.72062
▁Jane	-7.72192
▁(	-7.72728
▁They	-7.73044
▁thing	-7.73172
▁moment	-7.7476
▁As	-7.74948
▁re	-7.75492
▁under	-7.75986
re	-7.76468
▁often	-7.76535
▁went	-7.76585
▁air	-7.76649
▁whales	-7.76747
▁looked	-7.77059
▁half	-7.77084
▁father	-7.77088
▁Bingley	-7.77643
▁against	-7.77763
it	-7.78142
▁each	-7.78208
▁look	-7.79902
▁come	-7.801
▁always	-7.80484
v	-7.80693
▁whom	-7.80729
▁between	-7.81062
▁You	-7.81465
k	-7.81744
▁If	-7.81889
able	-7.82122
▁present	-7.82537
--	-7.82703
▁young	-7.82744
▁whose	-7.82905
▁sister	-7.83439
▁full	-7.84449
▁both	-7.84606
▁house	-7.85235
is	-7.85644
at	-7.85728
▁water	-7.85744
▁just	-7.85798
▁another	-7.8642
▁cannot	-7.8642
▁My	-7.86513
▁mind	-7.8665
▁room	-7.87126
▁ye	-7.87469
▁small	-7.88215
▁b	-7.88646
▁When	-7.88897
ter	-7.89039
▁end	-7.89126
▁de	-7.89388
▁also	-7.90159
▁give	-7.90861
▁There	-7.91086
▁white	-7.9136
▁indeed	-7.91439
▁friend	-7.91606
▁thus	-7.92085
et	-7.92099
▁family	-7.93385
▁having	-7.94047
▁things	-7.9422
▁hope	-7.94616
▁began	-7.95372
ra	-7.95585
less	-7.95985
ic	-7.96889
▁something	-7.974
▁p	-7.97688
▁sort	-7.97694
▁His	-7.98782
▁passed	-7.99003
▁manner	-7.99104
▁nor	-7.99308
▁therefore	-7.99468
ity	-7.99519
▁morning	-8.00167
▁set	-8.00199
il	-8.00467
▁left	-8.01581
▁years	-8.02167
▁take	-8.02595
▁At	-8.0301
▁So	-8.03261
▁certain	-8.03418
▁feel	-8.03801
▁called	-8.03995
▁love	-8.04205
ch	-8.04331
▁sometimes	-8.04469
▁rest	-8.0454
)	-8.04967
▁Queequeg	-8.05204
▁enough	-8.05948
ers	-8.061
▁took	-8.06772
▁light	-8.06911
▁feelings	-8.07057
▁death	-8.07443
▁poor	-8.07458
▁find	-8.07684
▁perhaps	-8.08204
▁deck	-8.09556
ies	-8.09631
▁sight	-8.10321
▁reason	-8.10461
ur	-8.10491
▁whether	-8.10509
▁1.	-8.10597
▁point	-8.10762
▁hands	-8.11273
▁Wickham	-8.1129
▁feet	-8.11332
▁days	-8.11538
ive	-8.11661
▁Collins	-8.12077
▁least	-8.12077
▁quite	-8.12117
▁strange	-8.12354
▁face	-8.12751
▁What	-8.12871
▁rather	-8.12871
▁done	-8.12911
▁high	-8.13162
▁known	-8.13874
▁near	-8.13969
▁within	-8.1424
th	-8.14677
▁tell	-8.15515
el	-8.15705
▁large	-8.15907
▁new	-8.15997
▁pleasure	-8.1611
▁times	-8.16498
▁sun	-8.16912
▁because	-8.16936
▁less	-8.17059
▁door	-8.1734
▁length	-8.17766
▁sat	-8.17897
E	-8.18457
ce	-8.18485
▁home	-8.18614
▁Alice	-8.19458
▁together	-8.19458
▁right	-8.20357
▁kind	-8.20754
▁works	-8.20976
▁S	-8.21131
▁mother	-8.21186
▁gave	-8.21188
▁idea	-8.22029
▁C	-8.22266
▁turned	-8.22385
▁Stubb	-8.22921
▁knew	-8.23806
▁subject	-8.23815
▁thou	-8.24698
▁itself	-8.24699
▁country	-8.24702
ad	-8.24885
▁To	-8.25285
▁return	-8.25363
▁body	-8.256
▁line	-8.25779
▁let	-8.2648
▁several	-8.26509
us	-8.26687
▁We	-8.26789
▁short	-8.27109
▁means	-8.27199
id	-8.27379
▁wild	-8.27426
▁Now	-8.27477
ll	-8.28189
ve	-8.28238
▁get	-8.28331
ling	-8.28479
▁does	-8.28752
▁general	-8.28975
▁seem	-8.29039
▁put	-8.29283
▁next	-8.29287
▁stood	-8.29287
▁anything	-8.29288
▁received	-8.29412
▁since	-8.3019
▁power	-8.30202
▁Pequod	-8.3023
▁letter	-8.30407
ted	-8.30541
▁eye	-8.30627
▁hear	-8.30808
▁boats	-8.30971
▁voice	-8.31183
▁lay	-8.31236
and	-8.3148
▁gone	-8.32163
▁dear	-8.32173
▁crew	-8.33115
▁fish	-8.33202
▁Sperm	-8.34095
▁M	-8.34127
▁along	-8.34245
ation	-8.3432
▁happiness	-8.35085
▁word	-8.35327
▁object	-8.3603
▁going	-8.36284
▁case	-8.36335
ul	-8.36432
▁speak	-8.36508
▁w	-8.3665
ous	-8.36681
▁affection	-8.37084
▁Captain	-8.37096
led	-8.37715
▁t	-8.37947
▁nature	-8.38116
▁better	-8.38117
▁thousand	-8.384
▁person	-8.38517
▁co	-8.38651
▁Her	-8.38668
ment	-8.38952
▁happy	-8.39147
,--	-8.39428
▁land	-8.39762
▁open	-8.39767
▁soul	-8.39793
▁sure	-8.39888
▁course	-8.40189
▁told	-8.40212
▁really	-8.40406
▁appeared	-8.40551
▁forth	-8.40937
▁friends	-8.40942
▁P	-8.41056
▁live	-8.41072
▁Lydia	-8.41241
▁account	-8.41241
▁hard	-8.41836
▁dead	-8.42034
▁wish	-8.42148
▁Lady	-8.42292
▁themselves	-8.42305
▁voyage	-8.42305
▁others	-8.42368
ated	-8.4281
▁state	-8.42982
▁believe	-8.43088
▁whaling	-8.4338
▁taken	-8.43529
im	-8.43656
▁form	-8.43667
▁hardly	-8.43696
▁seems	-8.44322
am	-8.44359
▁became	-8.44467
▁alone	-8.44468
▁fire	-8.44492
▁terms	-8.44711
▁either	-8.45566
▁during	-8.45566
▁town	-8.45573
▁answer	-8.46122
▁use	-8.46299
▁business	-8.46677
▁living	-8.46682
ol	-8.47923
ant	-8.47925
▁hold	-8.48156
▁wonder	-8.48494
▁human	-8.4891
▁electronic	-8.4893
▁Catherine	-8.48937
▁brought	-8.48937
▁given	-8.49114
om	-8.4913
▁hours	-8.49377
ting	-8.4985
ful	-8.50052
▁Starbuck	-8.50087
▁already	-8.50087
▁people	-8.50087
▁true	-8.50087
▁No	-8.5009
▁ground	-8.50131
▁B	-8.5028
▁matter	-8.50636
▁creature	-8.50653
▁ten	-8.51035
▁second	-8.5125
▁looking	-8.51309
ry	-8.51362
▁best	-8.51476
▁name	-8.51489
▁wind	-8.51823
▁read	-8.52287
▁black	-8.52324
▁evening	-8.52339
▁ill	-8.52504
as	-8.52577
▁f	-8.52792
▁lost	-8.53631
▁feeling	-8.54183
▁attention	-8.54277
▁deep	-8.54309
▁words	-8.54528
▁God	-8.54883
▁entered	-8.55062
li	-8.55319
▁scene	-8.55468
▁bed	-8.55725
▁spoke	-8.5594
▁dark	-8.55942
▁conversation	-8.56041
se	-8.56645
nt	-8.56987
▁fear	-8.57208
▁With	-8.57275
▁character	-8.57275
▁possible	-8.57275
▁How	-8.57285
▁visit	-8.5791
▁arm	-8.58116
▁On	-8.58153
like	-8.58178
▁coming	-8.58526
▁four	-8.58556
▁table	-8.5856
▁remained	-8.589
ap	-8.58959
▁keep	-8.59204
▁hour	-8.59317
um	-8.59763
▁iron	-8.59791
▁Oh	-8.59822
▁suddenly	-8.60012
▁help	-8.6047
▁care	-8.60919
▁thoughts	-8.61009
▁Longbourn	-8.61073
▁brother	-8.61073
▁captain	-8.61088
▁view	-8.61333
▁close	-8.61605
▁certainly	-8.61628
▁forward	-8.61695
▁doubt	-8.61771
man	-8.61819
▁leave	-8.61905
▁cause	-8.62076
ig	-8.62272
▁purpose	-8.62372
▁sound	-8.62429
▁Nor	-8.62523
ate	-8.62675
ir	-8.62826
▁particular	-8.62919
▁fine	-8.63026
▁sperm	-8.63688
▁thy	-8.63715
▁stand	-8.64054
▁returned	-8.64499
▁further	-8.65021
▁why	-8.65021
▁vast	-8.65021
▁Yet	-8.65036
▁fixed	-8.65129
▁c	-8.6556
▁daughter	-8.65965
▁natural	-8.66053
▁above	-8.66372
ance	-8.67004
▁different	-8.67742
▁ladies	-8.67751
▁making	-8.67761
▁seeing	-8.68823
▁beneath	-8.69131
▁common	-8.69131
▁followed	-8.69448
▁turn	-8.69823
▁mast	-8.69937
▁calm	-8.70217
▁free	-8.70247
x	-8.70504
▁Gardiner	-8.7054
▁countenance	-8.7054
▁except	-8.7054
▁ocean	-8.7054
▁joy	-8.7054
▁especially	-8.70546
▁That	-8.70549
lo	-8.70692
▁Nantucket	-8.71176
▁cold	-8.71968
▁appearance	-8.71984
▁oil	-8.72175
▁concerning	-8.72279
te	-8.73042
▁instant	-8.73106
▁seas	-8.73168
▁spirits	-8.73355
▁sense	-8.73417
▁everything	-8.73418
▁All	-8.73521
end	-8.73526
▁nearly	-8.73982
▁longer	-8.74209
▁respect	-8.74517
▁After	-8.74888
▁Foundation	-8.74888
▁blood	-8.74888
▁various	-8.74888
▁copyright	-8.74891
▁standing	-8.75538
ver	-8.75572
▁delight	-8.75576
▁met	-8.75824
▁change	-8.76085
▁degree	-8.76088
▁waters	-8.76201
▁dis	-8.7621
▁marriage	-8.76381
▁around	-8.76381
▁fellow	-8.76402
▁curious	-8.76417
▁former	-8.76475
▁F	-8.76873
▁en	-8.77123
▁sleep	-8.7714
▁minutes	-8.77797
▁kept	-8.77896
▁board	-8.78002
▁ice	-8.78006
sh	-8.78801
▁regard	-8.78876
▁clear	-8.79112
▁bear	-8.7926
ish	-8.79326
▁behind	-8.79434
▁distance	-8.79434
▁horror	-8.79434
▁opinion	-8.79434
▁monster	-8.79448
z	-8.79452
▁immediately	-8.79567
▁sail	-8.79676
▁months	-8.79894
un	-8.80448
▁chance	-8.80703
▁occasion	-8.80922
▁miserable	-8.80997
▁silence	-8.80997
▁misery	-8.80997
▁States	-8.80997
▁White	-8.80998
▁fast	-8.81009
▁taking	-8.81011
▁woman	-8.81015
▁resolved	-8.81022
▁walk	-8.81442
▁appear	-8.81832
▁placed	-8.81934
ned	-8.82172
▁earth	-8.82275
▁wood	-8.8237
▁become	-8.82391
▁real	-8.8243
▁else	-8.82584
▁call	-8.8303
▁want	-8.83071
▁walked	-8.83143
▁e	-8.83593
▁silent	-8.83879
ge	-8.83999
▁London	-8.84197
▁charge	-8.84197
▁mouth	-8.84197
▁continued	-8.84285
▁st	-8.84552
▁following	-8.84587
▁stranger	-8.84611
age	-8.84843
▁D	-8.84845
▁question	-8.85725
▁truth	-8.85836
▁United	-8.85836
▁afterwards	-8.85858
▁tail	-8.85868
▁five	-8.85883
▁entirely	-8.86077
▁ga	-8.86141
ill	-8.86168
▁pass	-8.86332
▁r	-8.86497
▁desire	-8.87209
▁circumstances	-8.87312
room	-8.87379
▁harpoon	-8.87407
▁cabin	-8.87503
▁below	-8.87503
▁broken	-8.87532
▁engaged	-8.8754
if	-8.87565
▁whalemen	-8.87611
▁party	-8.8811
▁asked	-8.88145
▁play	-8.88264
▁spout	-8.88397
▁d	-8.88433
ot	-8.8844
▁ships	-8.88601
em	-8.88836
1	-8.88943
▁girl	-8.89141
▁despair	-8.89198
▁yourself	-8.89198
▁savage	-8.89198
▁children	-8.89198
▁until	-8.89198
▁aunt	-8.89202
▁agreement	-8.89208
▁struck	-8.89211
▁whatever	-8.89256
▁By	-8.8942
▁instantly	-8.89564
▁mine	-8.89607
▁got	-8.89657
ped	-8.8975
▁leg	-8.90088
▁order	-8.90318
▁T	-8.90389
▁E	-8.9051
▁peculiar	-8.90555
▁used	-8.90663
▁low	-8.90736
▁impossible	-8.90922
▁wife	-8.90922
▁scarcely	-8.90974
▁law	-8.90999
▁meet	-8.91141
ct	-8.91355
▁Do	-8.91759
▁wished	-8.91825
head	-8.91996
ng	-8.92028
▁self	-8.9266
▁pa	-8.93399
▁greater	-8.93652
ts	-8.93784
▁imp	-8.93787
ut	-8.93942
▁mark	-8.94027
ship	-8.94146
▁sudden	-8.94151
▁Netherfield	-8.94462
▁knowledge	-8.94462
▁story	-8.94462
▁noble	-8.94606
▁cr	-8.95136
▁ago	-8.95721
▁Leviathan	-8.9628
▁Moby	-8.9628
▁drew	-8.9628
▁hundred	-8.9628
▁number	-8.9628
▁glad	-8.9629
▁vessel	-8.9634
▁spirit	-8.96359
▁perfectly	-8.96427
▁pain	-8.96757
▁lower	-8.96964
▁remain	-8.97074
▁fact	-8.97162
▁creatures	-8.97239
ian	-8.97417
▁period	-8.9766
▁Lucas	-8.98039
▁cousin	-8.98132
▁Though	-8.98134
▁expected	-8.98523
▁waves	-8.98717
▁interest	-8.98856
▁sisters	-8.99919
8	-9.00009
▁future	-9.00019
▁necessary	-9.00019
▁secret	-9.00019
▁Dick	-9.00026
▁gentlemen	-9.00027
▁bound	-9.00059
▁expressed	-9.0047
▁plan	-9.00514
▁G	-9.00841
way	-9.01317
▁stay	-9.01451
▁plain	-9.01635
ving	-9.01867
▁Jonah	-9.01942
▁evil	-9.01942
▁journey	-9.01942
▁quarter	-9.01942
▁fresh	-9.01942
▁green	-9.01942
▁run	-9.0196
▁Then	-9.0208
▁harpooneer	-9.02125
▁W	-9.02392
▁watch	-9.0267
ug	-9.02697
▁top	-9.02948
▁formed	-9.02954
▁suppose	-9.03609
▁late	-9.03882
▁William	-9.03903
▁caught	-9.03903
▁pleasant	-9.03903
▁fell	-9.03903
▁thick	-9.03904
▁fancy	-9.03906
▁spot	-9.03921
▁pleased	-9.03999
▁circumstance	-9.04128
▁gr	-9.04731
▁ha	-9.04777
▁equal	-9.05597
op	-9.05729
▁Such	-9.05903
▁aspect	-9.05903
▁beautiful	-9.05903
▁beauty	-9.05903
▁blind	-9.05903
▁giving	-9.05903
▁mortal	-9.05903
▁ought	-9.05903
▁sharp	-9.05903
▁single	-9.05963
▁able	-9.05972
▁tried	-9.06021
▁early	-9.06041
▁merely	-9.06166
▁book	-9.06172
▁con	-9.0625
me	-9.06559
▁pre	-9.07024
▁act	-9.07105
▁join	-9.07441
▁O	-9.075
▁vain	-9.07619
▁fair	-9.07625
▁chase	-9.07652
▁Be	-9.07663
▁comfort	-9.07896
▁honour	-9.079
▁cottage	-9.07932
▁Clerval	-9.07944
▁English	-9.07944
▁Flask	-9.07944
▁beheld	-9.07944
▁bottom	-9.07944
▁leaving	-9.07944
▁latter	-9.07944
▁although	-9.07944
▁uncle	-9.07944
▁acquaintance	-9.07944
▁married	-9.07944
▁Indian	-9.07959
▁lady	-9.08007
▁slowly	-9.08063
land	-9.08073
▁observed	-9.08092
to	-9.0819
▁added	-9.08271
ions	-9.08532
▁manners	-9.0903
▁ran	-9.09362
▁understand	-9.0941
▁copy	-9.09425
▁hint	-9.09469
▁bow	-9.09589
▁wide	-9.09645
ard	-9.0991
▁sweet	-9.09924
▁child	-9.10025
▁Kitty	-9.10027
▁across	-9.10027
▁beyond	-9.10027
▁blue	-9.10027
▁foot	-9.10027
▁teeth	-9.10027
▁running	-9.1003
▁wholly	-9.10031
▁While	-9.10034
▁ivory	-9.10035
▁sitting	-9.10042
▁ball	-9.10057
▁cast	-9.10086
▁minute	-9.10163
▁saying	-9.11281
▁strong	-9.11696
▁entire	-9.11843
9	-9.12072
▁ex	-9.12103
▁Charlotte	-9.12154
▁conduct	-9.12154
▁instead	-9.12154
▁storm	-9.12154
▁paid	-9.12186
▁otherwise	-9.12199
▁arrived	-9.12278
▁pro	-9.12294
▁none	-9.12344
▁warm	-9.12382
▁kindness	-9.12399
▁unless	-9.12399
▁ready	-9.1243
▁supposed	-9.12474
▁companion	-9.12541
▁greatest	-9.12639
▁master	-9.12699
▁year	-9.12745
▁lived	-9.1275
he	-9.13412
▁war	-9.13485
▁attempt	-9.13757
▁seek	-9.14001
▁surprise	-9.14035
▁receive	-9.14037
per	-9.14141
▁From	-9.14328
▁advantage	-9.14328
▁carried	-9.14328
▁neither	-9.14328
▁pretty	-9.14328
▁pursuit	-9.14328
▁spent	-9.14328
▁wondrous	-9.14328
▁broad	-9.14328
▁fishery	-9.14329
▁unknown	-9.14336
▁window	-9.14337
▁shore	-9.14382
▁rope	-9.14401
▁exactly	-9.14415
▁assured	-9.14532
▁filled	-9.14592
▁quickly	-9.14608
▁drawing	-9.14717
▁discovered	-9.1478
▁heaven	-9.14795
▁believed	-9.14927
▁led	-9.15413
▁U	-9.15752
ical	-9.15815
▁ere	-9.15952
one	-9.15956
▁mention	-9.15996
▁harpooneers	-9.1634
▁gentle	-9.16422
▁carriage	-9.16551
▁dinner	-9.16551
▁native	-9.16551
▁virtue	-9.16551
▁health	-9.16552
▁held	-9.16564
▁bright	-9.16568
▁considerable	-9.1659
▁determined	-9.16627
▁perceived	-9.16673
▁main	-9.16691
▁deal	-9.16786
▁Not	-9.16814
▁possessed	-9.16817
▁One	-9.16886
▁parts	-9.16946
▁allowed	-9.17034
▁dream	-9.17034
de	-9.17658
▁show	-9.17668
▁talk	-9.17677
▁sailors	-9.18006
▁mighty	-9.1806
line	-9.18368
▁proper	-9.18554
6	-9.18729
▁Archive	-9.18823
▁Literary	-9.18823
▁middle	-9.18823
▁New	-9.18823
▁rose	-9.18823
▁situation	-9.18823
▁soft	-9.18829
▁glance	-9.18832
▁money	-9.18838
▁laws	-9.18847
▁Some	-9.18861
▁sky	-9.18871
ress	-9.18903
▁settled	-9.18929
▁sent	-9.18937
▁donations	-9.18969
▁wonderful	-9.19231
),	-9.19565
▁generally	-9.19593
▁consider	-9.19787
co	-9.2035
▁R	-9.20427
▁express	-9.20503
▁try	-9.20603
▁age	-9.20823
▁usual	-9.20829
▁chief	-9.20834
▁L	-9.21139
▁cut	-9.21142
▁blow	-9.21149
▁easily	-9.21149
▁pride	-9.21149
▁weather	-9.21149
▁Justine	-9.21151
▁agreeable	-9.21174
▁notice	-9.21237
I	-9.21908
▁mean	-9.21956
▁youth	-9.22202
S	-9.2246
▁event	-9.22753
for	-9.22759
▁De	-9.23162
5	-9.23428
▁garden	-9.23493
▁Meryton	-9.2353
▁aloft	-9.2353
▁satisfied	-9.2353
▁society	-9.2353
▁surface	-9.2353
▁easy	-9.2353
▁duty	-9.23534
▁acquainted	-9.2355
▁passage	-9.23551
▁directly	-9.23724
▁surprised	-9.23853
▁fee	-9.24037
▁These	-9.24127
▁talking	-9.24153
▁rock	-9.24182
▁m	-9.24209
▁daughters	-9.24255
▁marked	-9.24279
▁tears	-9.24299
▁Here	-9.24443
▁arms	-9.24501
▁officers	-9.24513
▁die	-9.24526
▁sh	-9.24771
▁opened	-9.24816
▁mere	-9.24818
▁follow	-9.24827
ial	-9.24831
▁l	-9.2538
men	-9.2544
ie	-9.25523
▁quick	-9.25553
▁mo	-9.2566
▁po	-9.25726
▁red	-9.25838
▁straight	-9.25968
▁King	-9.25969
▁curiosity	-9.25969
▁written	-9.25969
▁write	-9.25969
▁information	-9.25976
▁craft	-9.25985
▁hair	-9.25991
▁figure	-9.26049
▁bows	-9.26313
▁plainly	-9.26369
▁seated	-9.26538
▁considered	-9.26561
▁talked	-9.26573
▁mentioned	-9.26583
▁jaw	-9.26696
▁bit	-9.2674
ph	-9.26871
▁turning	-9.26999
▁answered	-9.27208
▁speaking	-9.27413
▁destroy	-9.27911
ure	-9.28327
▁peace	-9.28357
▁Right	-9.28469
▁behaviour	-9.28469
▁including	-9.28469
▁leviathan	-9.28469
▁opportunity	-9.28469
▁species	-9.28469
▁design	-9.28469
▁amiable	-9.28469
▁beginning	-9.28469
▁obliged	-9.28495
▁Sir	-9.2852
▁1	-9.28524
▁Let	-9.28579
▁anyone	-9.2865
▁rolled	-9.28802
▁desired	-9.28913
ty	-9.29172
▁effect	-9.29211
▁picture	-9.29226
▁thee	-9.2947
▁trees	-9.295
ings	-9.29577
▁mountains	-9.29914
ast	-9.30094
ily	-9.30376
▁success	-9.30454
▁allow	-9.30462
▁remember	-9.30474
▁dare	-9.30739
▁mass	-9.30966
▁Colonel	-9.31033
▁altogether	-9.31033
▁disposition	-9.31033
▁fortune	-9.31033
▁husband	-9.31033
▁prospect	-9.31033
▁history	-9.31033
▁credit	-9.31033
▁rising	-9.31033
▁grand	-9.31066
▁American	-9.31068
▁continually	-9.312
our	-9.31283
▁reached	-9.31376
▁touching	-9.31458
▁Their	-9.31524
cy	-9.31869
▁lance	-9.31883
ble	-9.32035
▁mate	-9.32144
of	-9.32264
▁thinking	-9.32277
▁hopes	-9.32704
ne	-9.32879
▁doing	-9.33002
▁expect	-9.33006
the	-9.33204
▁promise	-9.3337
▁St	-9.33441
0	-9.33665
▁England	-9.33665
▁Peleg	-9.33665
▁company	-9.33665
▁courage	-9.33665
▁grief	-9.33665
▁jet	-9.33665
▁seldom	-9.33665
▁strength	-9.33665
▁visible	-9.33665
▁Rosings	-9.33665
▁summer	-9.33667
▁grave	-9.33673
▁Thus	-9.33677
▁Mary	-9.33688
▁past	-9.33779
▁offer	-9.33836
▁3	-9.33844
▁completely	-9.33963
▁happened	-9.34064
ub	-9.34208
▁forced	-9.34213
▁smile	-9.34266
▁step	-9.34554
▁loved	-9.34743
▁concern	-9.35218
▁la	-9.35376
▁comes	-9.35492
ach	-9.35614
▁discover	-9.35625
▁hat	-9.35651
▁slight	-9.36013
▁ho	-9.36028
▁knowing	-9.3605
▁escape	-9.36069
▁ask	-9.36106
▁snow	-9.36212
▁superior	-9.36331
▁Bildad	-9.36367
▁Pemberley	-9.36367
▁Tashtego	-9.36367
▁arrival	-9.36367
▁individual	-9.36367
▁public	-9.36367
▁study	-9.36367
▁temper	-9.36367
▁distant	-9.36367
▁spite	-9.36374
▁convinced	-9.36388
▁getting	-9.36431
▁attached	-9.36437
▁girls	-9.36458
▁frequently	-9.36544
▁wretched	-9.36551
go	-9.36573
▁darkness	-9.36587
▁darted	-9.36731
ward	-9.36875
▁ti	-9.36895
ary	-9.3701
▁particularly	-9.3702
▁o	-9.37145
▁sailed	-9.37348
▁eBook	-9.3735
▁walking	-9.37385
tic	-9.37443
▁sailor	-9.37449
▁lovely	-9.37549
ations	-9.37603
▁enter	-9.38063
▁V	-9.38243
▁complete	-9.38524
▁fall	-9.38593
all	-9.38658
rs	-9.38722
▁son	-9.38735
▁nigh	-9.3894
ine	-9.39091
▁tale	-9.39128
▁fiend	-9.39135
▁Felix	-9.39145
▁compliment	-9.39145
▁excellent	-9.39145
▁existence	-9.39145
▁sought	-9.39145
▁trademark	-9.39146
▁court	-9.39146
▁lake	-9.39153
▁heavy	-9.39156
▁start	-9.39192
▁port	-9.39196
▁Of	-9.39215
▁seamen	-9.39256
▁wishes	-9.39384
▁season	-9.39441
▁endeavoured	-9.39588
▁colour	-9.39655
▁considering	-9.3986
▁died	-9.39866
ities	-9.3991
▁joined	-9.39911
ingly	-9.39949
▁sir	-9.41006
▁sides	-9.41144
▁li	-9.41608
que	-9.41669
▁anxious	-9.41682
ious	-9.41822
▁lines	-9.41835
▁hung	-9.41861
▁An	-9.41922
▁brow	-9.41927
▁danger	-9.41978
▁drop	-9.41987
▁Hertfordshire	-9.42002
▁admiration	-9.42002
▁substance	-9.42002
▁affair	-9.42002
▁somehow	-9.42002
▁yield	-9.42002
▁consequence	-9.42013
▁handsome	-9.42015
▁claim	-9.42018
▁coast	-9.42029
▁spring	-9.4205
▁exceedingly	-9.42093
▁4	-9.42139
▁eagerly	-9.42253
▁ma	-9.4235
▁tall	-9.4238
▁unable	-9.42383
▁art	-9.42675
▁expression	-9.43181
▁sit	-9.43369
▁bones	-9.43663
▁bring	-9.44354
▁encounter	-9.44377
▁extreme	-9.44626
▁previous	-9.44627
▁secure	-9.44645
2	-9.44689
▁repeated	-9.44694
uff	-9.44904
▁access	-9.44933
▁astonishment	-9.44943
▁ignorant	-9.44943
▁occupied	-9.44943
▁possibly	-9.44943
▁receiving	-9.44943
▁somewhat	-9.44943
▁Why	-9.44944
▁favourite	-9.44949
▁taste	-9.44952
▁third	-9.44963
▁civility	-9.44964
▁twenty	-9.45001
▁pipe	-9.45009
▁whenever	-9.45094
▁2	-9.45198
▁proved	-9.45204
▁attended	-9.45255
▁dared	-9.45284
▁gained	-9.4533
▁addressed	-9.45404
▁sensations	-9.45782
▁sharks	-9.45891
ho	-9.45996
ors	-9.4604
▁fin	-9.46088
▁fl	-9.46681
▁command	-9.46794
▁shape	-9.46862
▁using	-9.47019
hole	-9.47064
out	-9.47141
▁provide	-9.47676
heads	-9.4768
▁mad	-9.47738
▁remains	-9.4783
▁miles	-9.47908
▁Pacific	-9.47974
▁breakfast	-9.47974
▁food	-9.47974
▁imagination	-9.47974
▁replied	-9.47974
▁science	-9.47974
▁similar	-9.47974
▁stream	-9.47974
▁brain	-9.47974
▁wake	-9.47974
▁demand	-9.47974
▁front	-9.47977
▁gentleman	-9.47978
▁OF	-9.47984
▁six	-9.47991
▁mar	-9.48015
▁thrown	-9.48028
▁path	-9.48068
▁employed	-9.48103
▁whaleman	-9.48345
▁watching	-9.48903
▁meant	-9.49061
▁passing	-9.49068
▁meeting	-9.49162
▁sign	-9.49214
ering	-9.49215
▁devil	-9.49295
▁mountain	-9.49317
▁bone	-9.49542
▁sc	-9.49827
ied	-9.49846
▁hearing	-9.49914
▁turns	-9.50177
red	-9.50257
▁H	-9.50344
va	-9.50512
▁marry	-9.50516
▁afford	-9.50531
▁accept	-9.50538
up	-9.50703
▁assure	-9.5082
▁goes	-9.50845
▁License	-9.51099
▁bulk	-9.51099
▁coffin	-9.51099
▁difference	-9.51099
▁language	-9.51099
▁skeleton	-9.51099
▁loose	-9.51099
▁stern	-9.51109
▁forget	-9.51143
▁breeze	-9.51153
▁possession	-9.51158
▁bore	-9.51211
▁toil	-9.5123
▁cost	-9.51282
▁fit	-9.51288
▁intended	-9.51303
▁upper	-9.5131
ca	-9.51357
▁sails	-9.5153
▁news	-9.51537
▁learned	-9.51625
▁listened	-9.51644
uc	-9.51917
▁Your	-9.51977
▁instances	-9.52281
▁interval	-9.52537
▁intervals	-9.52861
▁lead	-9.52874
ton	-9.53021
▁listen	-9.53205
▁mates	-9.5333
▁pointed	-9.53374
▁breath	-9.53432
▁support	-9.53747
▁obtain	-9.53761
▁letters	-9.5385
▁mild	-9.53897
▁measure	-9.54316
▁Bourgh	-9.54325
▁Geneva	-9.54325
▁absence	-9.54325
▁confess	-9.54325
▁neck	-9.54325
▁opposite	-9.54325
▁permission	-9.54325
▁profound	-9.54325
▁progress	-9.54325
▁steady	-9.54325
▁sank	-9.54325
▁Besides	-9.54325
▁proud	-9.54325
▁river	-9.54325
▁fond	-9.54326
▁quitted	-9.54348
▁forehead	-9.54364
▁moon	-9.54401
▁seized	-9.54417
▁rage	-9.54423
▁related	-9.54523
▁weight	-9.54595
▁promised	-9.54688
cu	-9.5472
▁fearful	-9.54831
▁proceeded	-9.54872
▁moments	-9.55032
▁destroyed	-9.55051
▁younger	-9.55093
be	-9.55218
ction	-9.55347
▁highly	-9.55619
▁circle	-9.55838
▁week	-9.55863
cl	-9.56005
▁laugh	-9.56244
▁proceed	-9.56296
use	-9.56811
ons	-9.56882
▁learn	-9.56965
▁carry	-9.57077
▁alarm	-9.5709
▁faint	-9.57285
▁violent	-9.5734
▁advance	-9.5736
F	-9.5738
▁prove	-9.57405
boat	-9.57406
▁presented	-9.57453
fish	-9.57521
▁gold	-9.57587
sail	-9.57611
▁bad	-9.57613
▁ancient	-9.57658
▁anguish	-9.57658
▁bulwarks	-9.57658
▁everybody	-9.57658
▁smoke	-9.57658
▁spread	-9.57658
▁Queen	-9.57658
▁avoid	-9.57658
▁huge	-9.57658
▁Greenland	-9.5766
▁cutting	-9.57693
▁report	-9.57695
▁connected	-9.57763
▁removed	-9.57793
▁moved	-9.57834
▁produced	-9.57843
▁Had	-9.57962
▁ashore	-9.5803
▁started	-9.58349
▁freely	-9.58413
▁showed	-9.58492
▁lively	-9.58666
▁regarded	-9.58889
▁ring	-9.59048
▁shut	-9.59212
▁makes	-9.59714
Fish	-9.59761
▁likely	-9.60004
▁N	-9.60159
▁fail	-9.60525
▁prevent	-9.60543
▁add	-9.60751
▁cheer	-9.60759
▁thin	-9.60812
▁tea	-9.60921
▁Hurst	-9.61106
▁Lizzy	-9.61106
▁blubber	-9.61106
▁famous	-9.61106
▁fifty	-9.61106
▁material	-9.61106
▁melancholy	-9.61106
▁resolution	-9.61106
▁sensible	-9.61106
▁sentence	-9.61106
▁threw	-9.61106
▁thunder	-9.61106
▁vengeance	-9.61106
▁winter	-9.61106
▁worse	-9.61106
▁Pip	-9.61106
▁trace	-9.61106
▁neighbourhood	-9.61107
▁reply	-9.61109
▁woe	-9.61109
▁lips	-9.61109
▁Heading	-9.61109
▁agony	-9.61115
▁satisfaction	-9.6112
▁dropped	-9.61124
▁capable	-9.6113
▁eight	-9.61155
▁leaning	-9.61326
▁cheerful	-9.61354
▁endeavour	-9.61666
▁remembered	-9.61866
▁besides	-9.61903
▁nose	-9.62037
▁content	-9.62285
ice	-9.62352
ally	-9.62385
bed	-9.62399
▁sailing	-9.62488
▁strangely	-9.62505
▁bearing	-9.62515
▁paragraph	-9.62847
ite	-9.62875
▁direction	-9.62917
▁fate	-9.6322
ke	-9.6323
row	-9.63247
▁force	-9.63314
▁touch	-9.63541
▁events	-9.63928
▁draw	-9.63937
▁grow	-9.63976
▁address	-9.64034
▁heads	-9.64254
▁eager	-9.64264
▁immediate	-9.64366
▁persuade	-9.64382
most	-9.64426
▁quit	-9.64474
▁worth	-9.64618
▁height	-9.64677
▁Chapter	-9.64678
▁anybody	-9.64678
▁effort	-9.64678
▁hammer	-9.64678
▁probably	-9.64678
▁strike	-9.64678
▁utmost	-9.64678
▁village	-9.64678
▁Cape	-9.64678
▁Sometimes	-9.64678
▁modern	-9.64678
▁trust	-9.64678
▁creation	-9.64678
▁Section	-9.64681
▁hitherto	-9.64682
▁However	-9.64693
▁cl	-9.64695
▁game	-9.64704
▁likewise	-9.64741
ize	-9.64751
▁cool	-9.64753
iest	-9.64759
▁skin	-9.64776
▁Well	-9.64779
▁concluded	-9.64801
▁looks	-9.64847
▁prepared	-9.64855
▁finally	-9.64933
▁consideration	-9.64935
▁quietly	-9.64936
▁intention	-9.64945
▁flying	-9.64993
▁rolling	-9.65246
▁nearer	-9.65301
▁need	-9.6532
▁pale	-9.65371
mast	-9.65521
▁Ha	-9.6597
▁leaves	-9.65988
▁happen	-9.66015
▁ears	-9.6612
ave	-9.66203
▁wall	-9.66594
▁Nantucketer	-9.66707
▁favour	-9.67005
▁cloud	-9.6747
▁murder	-9.67513
iness	-9.67567
▁enjoy	-9.67728
▁check	-9.67801
▁crowd	-9.67809
▁wound	-9.67822
▁sink	-9.6785
▁send	-9.67906
▁See	-9.67925
▁earnest	-9.6796
board	-9.67998
▁agree	-9.6802
3	-9.68045
▁flow	-9.68061
▁sufficient	-9.68062
▁according	-9.68063
▁regular	-9.68064
▁sad	-9.6828
ism	-9.68313
▁assist	-9.68365
▁afraid	-9.68381
▁bodily	-9.68381
▁comprehend	-9.68381
▁fight	-9.68381
▁inquiries	-9.68381
▁intelligence	-9.68381
▁license	-9.68381
▁enormous	-9.68381
▁hull	-9.68381
▁revenge	-9.68381
▁terrible	-9.68381
▁swimming	-9.68382
▁memory	-9.68382
▁Christian	-9.68382
▁forecastle	-9.68382
▁influence	-9.68398
▁n	-9.68421
▁cook	-9.6843
▁hall	-9.6843
▁shot	-9.68433
▁affectionate	-9.68449
▁legs	-9.68484
▁actually	-9.68495
▁surrounded	-9.68499
▁affected	-9.68499
▁suspended	-9.68519
▁rank	-9.68528
▁raised	-9.68544
▁discovery	-9.68593
▁departed	-9.68647
▁persuaded	-9.68689
▁rear	-9.6883
▁directed	-9.68925
▁coat	-9.69008
▁higher	-9.69034
▁mariners	-9.69171
▁wear	-9.69252
▁Who	-9.69279
▁deeply	-9.6937
ments	-9.69437
▁fr	-9.69928
▁judge	-9.69992
▁terror	-9.7041
▁Sea	-9.70418
ably	-9.7083
▁returning	-9.7087
▁perform	-9.71058
▁cross	-9.71059
▁Co	-9.7111
side	-9.71124
▁beat	-9.71186
▁direct	-9.71292
▁island	-9.71314
▁finding	-9.71362
ier	-9.71407
▁burst	-9.71425
▁utter	-9.71433
ked	-9.71596
▁books	-9.71741
▁firm	-9.71802
▁bitter	-9.71803
▁post	-9.71833
▁eternal	-9.71898
▁perfect	-9.71915
▁base	-9.71935
▁born	-9.72107
▁rise	-9.72188
▁rain	-9.72226
▁First	-9.72227
▁carpenter	-9.72227
▁centre	-9.72227
▁dignity	-9.72227
▁distributing	-9.72227
▁hurried	-9.72227
▁niece	-9.72227
▁solitary	-9.72227
▁regret	-9.72227
▁shock	-9.72227
▁grew	-9.72228
▁rich	-9.72228
▁sorry	-9.72229
▁occurred	-9.72235
▁shook	-9.72236
▁loss	-9.72256
▁readily	-9.72259
ible	-9.72286
▁excited	-9.72326
▁increased	-9.72361
▁declared	-9.72419
mer	-9.72432
▁rapidly	-9.72469
▁paused	-9.72501
▁succeeded	-9.72504
▁murderer	-9.72519
▁rushed	-9.72594
▁di	-9.72687
▁suffered	-9.72705
▁noticed	-9.72743
▁chiefly	-9.72755
▁rendered	-9.72769
▁equally	-9.72843
▁changed	-9.73002
▁meaning	-9.73341
▁interesting	-9.73463
▁lie	-9.73464
ties	-9.73495
▁per	-9.73798
king	-9.74225
▁passion	-9.74504
▁fashion	-9.74516
▁pr	-9.74725
▁sta	-9.74797
▁lives	-9.74869
no	-9.75165
▁burn	-9.75534
▁kill	-9.75664
▁bestow	-9.75666
▁profession	-9.7569
▁distinct	-9.75706
▁render	-9.75708
▁solemn	-9.75865
▁serious	-9.75905
▁admire	-9.75922
▁trouble	-9.75931
▁observe	-9.75934
▁behold	-9.75937
O	-9.75943
deck	-9.75975
port	-9.76101
▁sorrow	-9.76206
▁royal	-9.76221
▁contrary	-9.76227
▁destruction	-9.76227
▁drink	-9.76227
▁extraordinary	-9.76227
▁important	-9.76227
▁invitation	-9.76227
▁private	-9.76227
▁rigging	-9.76227
▁school	-9.76227
▁simple	-9.76227
▁space	-9.76227
▁suspicion	-9.76227
▁truly	-9.76227
▁unhappy	-9.76227
▁fishermen	-9.76227
▁gratitude	-9.76227
▁intense	-9.76227
▁Even	-9.76228
▁ease	-9.76228
▁element	-9.76228
▁Lord	-9.76228
▁Nothing	-9.76229
▁Forster	-9.76234
▁lamp	-9.76235
▁shade	-9.76245
▁battle	-9.76264
▁additional	-9.76269
▁recollection	-9.76292
▁ideas	-9.76297
▁created	-9.76318
▁corner	-9.76321
atch	-9.76363
▁expectation	-9.76386
▁drawn	-9.7644
ick	-9.76499
▁recovered	-9.76531
▁spoken	-9.76563
▁Can	-9.76586
▁flukes	-9.76636
▁preserve	-9.76667
▁covered	-9.76719
▁strongly	-9.7683
▁features	-9.76934
▁hump	-9.76976
▁forty	-9.77204
▁watery	-9.77253
▁planks	-9.77308
▁understanding	-9.77434
mor	-9.77534
▁oars	-9.77585
▁particulars	-9.77647
▁visited	-9.78061
▁sooner	-9.78068
▁hoped	-9.78073
nder	-9.78115
▁names	-9.78316
▁ch	-9.78337
▁cur	-9.78374
▁opening	-9.78559
▁reflection	-9.78637
▁horse	-9.78642
▁cla	-9.78765
▁fore	-9.78873
▁dart	-9.79031
▁jaws	-9.79187
▁roll	-9.79228
▁approach	-9.79233
▁reach	-9.79302
▁charm	-9.79596
▁swell	-9.79821
▁row	-9.80088
▁imagine	-9.8009
▁share	-9.80091
▁bo	-9.80094
▁pause	-9.80116
▁pay	-9.80155
▁sick	-9.80344
▁author	-9.8035
ified	-9.80374
▁swim	-9.80394
▁YOU	-9.80394
▁anxiety	-9.80394
▁example	-9.80394
▁explanation	-9.80394
▁flash	-9.80394
▁hammock	-9.80394
▁knee	-9.80394
▁located	-9.80394
▁medium	-9.80394
▁merchant	-9.80394
▁ourselves	-9.80394
▁refund	-9.80394
▁request	-9.80394
▁scheme	-9.80394
▁task	-9.80394
▁thrust	-9.80394
▁unfortunate	-9.80394
▁whisper	-9.80394
▁enemy	-9.80394
▁praise	-9.80394
▁grateful	-9.80394
▁queer	-9.80395
▁midnight	-9.80395
▁search	-9.80395
▁hook	-9.80395
▁grass	-9.80395
▁race	-9.80396
▁hence	-9.80397
▁lightning	-9.80398
▁OR	-9.80399
▁alive	-9.80404
▁detail	-9.80406
▁hideous	-9.8041
▁writing	-9.80422
▁grasp	-9.80422
▁remarkable	-9.80432
▁importance	-9.80432
▁tone	-9.80436
▁clothes	-9.80447
▁enjoyment	-9.8049
▁exist	-9.80493
▁difficulty	-9.80527
▁den	-9.80536
▁fatal	-9.80578
▁occasionally	-9.80609
▁sunk	-9.80614
▁reasonable	-9.80618
▁hanging	-9.80635
▁endured	-9.8068
▁cry	-9.80821
▁approached	-9.80961
▁whiteness	-9.81052
▁Yes	-9.81054
▁rate	-9.81157
▁faces	-9.81297
hu	-9.81313
▁deadly	-9.8166
▁star	-9.81697
▁stands	-9.81767
▁wanted	-9.81877
▁delighted	-9.82
▁fears	-9.8221
▁aside	-9.82253
▁feared	-9.8232
▁attentions	-9.82403
▁rang	-9.82439
▁reading	-9.82544
▁north	-9.82615
▁holding	-9.82635
▁weeks	-9.82695
cri	-9.82762
▁tree	-9.83031
▁officer	-9.83063
test	-9.83088
▁eBooks	-9.83168
▁wait	-9.8358
▁cases	-9.83647
▁gain	-9.83729
▁pen	-9.83797
ook	-9.83838
▁dread	-9.83848
▁heavens	-9.83856
her	-9.83889
▁separate	-9.84105
▁powers	-9.84129
▁spend	-9.84131
▁distress	-9.84166
▁sl	-9.84321
▁quiet	-9.84425
▁original	-9.84454
place	-9.84497
▁endure	-9.84512
▁assurance	-9.84742
▁conceit	-9.84742
▁entrance	-9.84742
▁gigantic	-9.84742
▁gunwale	-9.84742
▁horrible	-9.84742
▁lofty	-9.84742
▁mankind	-9.84742
▁narrow	-9.84742
▁skull	-9.84742
▁terrific	-9.84742
▁thirty	-9.84742
▁valley	-9.84742
▁Upon	-9.84742
▁chapter	-9.84742
▁cruising	-9.84742
▁glory	-9.84742
▁keel	-9.84742
▁record	-9.84742
▁value	-9.84742
▁women	-9.84742
▁crown	-9.84742
▁ruin	-9.84742
▁pounds	-9.84742
▁During	-9.84742
▁lord	-9.84743
▁sideways	-9.84744
▁divine	-9.84746
▁Steelkilt	-9.84748
▁foe	-9.84749
▁attachment	-9.8475
▁consent	-9.84752
▁compassion	-9.84769
▁alongside	-9.8477
▁image	-9.84784
▁laid	-9.84786
▁seat	-9.84795
ough	-9.84803
▁lying	-9.8483
▁slightest	-9.84834
▁Look	-9.84835
▁city	-9.84859
▁lo	-9.84931
▁wooden	-9.84943
▁floating	-9.84945
▁pity	-9.84977
▁harpoons	-9.84994
▁experienced	-9.85026
▁Soon	-9.85035
▁dish	-9.85048
▁card	-9.85059
▁troubled	-9.85066
▁questions	-9.85082
▁utterly	-9.85103
au	-9.85306
▁waited	-9.8531
▁bestowed	-9.85357
▁painful	-9.85495
▁delightful	-9.85496
ever	-9.85497
▁bringing	-9.85633
▁concerned	-9.85664
▁offered	-9.85677
urn	-9.85728
▁lesson	-9.8575
▁caused	-9.85754
▁trying	-9.85874
▁greatly	-9.85907
org	-9.85947
▁remaining	-9.86168
ink	-9.86263
by	-9.86416
▁dog	-9.86605
▁Re	-9.86633
▁reflections	-9.86667
▁pin	-9.86748
▁scenes	-9.86773
▁winds	-9.87007
▁dance	-9.87193
▁pi	-9.87227
▁ear	-9.87304
▁liked	-9.8735
▁begin	-9.87452
▁paper	-9.87493
▁suffer	-9.88101
▁objects	-9.8819
▁mis	-9.88192
rus	-9.88268
▁spar	-9.88491
▁Le	-9.886
▁desert	-9.8871
▁strain	-9.8871
▁conceal	-9.88719
▁pick	-9.88756
▁fill	-9.88805
▁swift	-9.88865
ire	-9.88944
▁constant	-9.88958
▁pursue	-9.88978
▁comply	-9.88986
▁describe	-9.88987
▁experience	-9.88991
rk	-9.89054
▁heat	-9.89067
▁final	-9.89075
▁vessels	-9.89137
bone	-9.89199
▁honor	-9.89245
▁remark	-9.89253
▁occur	-9.89279
▁false	-9.89285
▁church	-9.89287
▁Daggoo	-9.89287
▁Derbyshire	-9.89287
▁Philips	-9.89287
▁Rabbit	-9.89287
▁beloved	-9.89287
▁disappointment	-9.89287
▁domestic	-9.89287
▁forgotten	-9.89287
▁hurry	-9.89287
▁instrument	-9.89287
▁leisure	-9.89287
▁library	-9.89287
▁numerous	-9.89287
▁observation	-9.89287
▁overcome	-9.89287
▁precious	-9.89287
▁presence	-9.89287
▁proportion	-9.89287
▁retreat	-9.89287
▁special	-9.89287
▁supper	-9.89287
▁understood	-9.89287
▁unusual	-9.89287
▁valuable	-9.89287
▁vapor	-9.89287
▁floor	-9.89287
▁nevertheless	-9.89287
▁fortnight	-9.89288
▁flew	-9.89288
▁keen	-9.89288
▁pray	-9.89288
▁owing	-9.89288
▁anchor	-9.89289
fold	-9.89307
▁property	-9.89307
▁tub	-9.8933
▁match	-9.89332
▁jacket	-9.89337
▁justice	-9.8934
▁chest	-9.89351
▁music	-9.89357
▁frost	-9.89358
▁active	-9.89359
▁golden	-9.89387
▁lose	-9.8941
▁gale	-9.89431
▁pole	-9.89488
▁car	-9.89498
▁dashed	-9.89512
▁hot	-9.89526
▁pursued	-9.89585
tur	-9.89602
▁dreadful	-9.89637
▁hailed	-9.89643
▁prey	-9.89645
▁barb	-9.89675
▁earnestly	-9.89679
ey	-9.90068
▁beings	-9.90268
▁perils	-9.90351
▁closed	-9.90353
▁naturally	-9.90376
▁relations	-9.90436
ars	-9.90537
▁objection	-9.90657
▁fully	-9.90695
▁cha	-9.90774
▁mat	-9.90804
▁sounds	-9.90894
▁Un	-9.91119
▁takes	-9.91377
pike	-9.91774
▁eyeing	-9.9221
▁shadow	-9.92216
▁instance	-9.92263
▁steps	-9.92415
arm	-9.92561
▁gives	-9.92806
▁partly	-9.92848
▁contrast	-9.9312
▁wing	-9.93221
▁ways	-9.934
▁possess	-9.93402
▁reflect	-9.93424
▁depend	-9.93472
▁eat	-9.93491
right	-9.9358
▁comp	-9.93699
▁uncommon	-9.93724
▁frequent	-9.93736
▁continual	-9.93736
▁distribute	-9.93751
▁gaze	-9.93754
▁relate	-9.93754
time	-9.93785
A	-9.93788
D	-9.93796
day	-9.93848
▁gloom	-9.93895
▁difficult	-9.93897
▁spare	-9.93939
▁drive	-9.93948
▁ver	-9.93966
▁civil	-9.94006
▁gl	-9.94012
▁admit	-9.94022
▁trans	-9.94049
▁Dutch	-9.94049
▁Nevertheless	-9.94049
▁agitation	-9.94049
▁application	-9.94049
▁contempt	-9.94049
▁disappeared	-9.94049
▁disgust	-9.94049
▁empty	-9.94049
▁immense	-9.94049
▁inclination	-9.94049
▁inferior	-9.94049
▁nervous	-9.94049
▁repose	-9.94049
▁swear	-9.94049
▁tranquil	-9.94049
▁twice	-9.94049
▁South	-9.94049
▁foam	-9.94049
▁hidden	-9.94049
▁probable	-9.94049
▁road	-9.94049
▁tax	-9.94049
▁vice	-9.94049
▁clean	-9.94049
▁copies	-9.94049
▁Henry	-9.9405
▁source	-9.9405
▁double	-9.94051
▁frame	-9.94053
▁awful	-9.94054
▁astern	-9.94054
▁departure	-9.94055
▁judgment	-9.94056
▁inches	-9.94058
▁bread	-9.94072
▁severe	-9.94074
▁glass	-9.94081
▁catch	-9.94085
▁dislike	-9.94113
▁dry	-9.94113
▁size	-9.94119
▁corpse	-9.94142
▁decided	-9.94144
▁apprehension	-9.94147
▁retired	-9.94158
▁doubtless	-9.94183
▁orders	-9.94185
▁apparently	-9.94228
▁hoisted	-9.9423
▁protected	-9.94256
▁precisely	-9.9429
▁required	-9.94332
▁finished	-9.94341
▁distinguished	-9.9445
▁lad	-9.94471
▁hole	-9.94551
▁previously	-9.94569
▁woods	-9.94601
▁deeper	-9.94611
▁hunters	-9.94656
▁yards	-9.94809
▁prevented	-9.94837
▁awe	-9.94838
▁carrying	-9.94913
▁commanded	-9.94954
▁owner	-9.95021
▁mist	-9.95352
▁erect	-9.95512
▁gods	-9.95628
▁calling	-9.9595
▁bent	-9.95994
▁stars	-9.96073
▁fan	-9.96198
liest	-9.96213
▁keeping	-9.96357
▁misfortune	-9.9723
▁forms	-9.97318
▁method	-9.97864
▁contain	-9.9787
▁belong	-9.9813
▁companions	-9.98134
▁count	-9.98387
▁break	-9.98458
▁dim	-9.98554
▁swam	-9.98625
▁rapid	-9.98704
▁bold	-9.98723
▁require	-9.98746
▁arrive	-9.98756
house	-9.98816
▁pains	-9.98844
▁speed	-9.98879
▁luck	-9.98977
▁speech	-9.99012
mate	-9.99029
utenberg	-9.99037
▁drag	-9.99043
▁Like	-9.99046
▁neighbour	-9.99047
▁horizon	-9.99048
▁Every	-9.99049
▁Fitzwilliam	-9.99049
▁anywhere	-9.99049
▁benefit	-9.99049
▁birth	-9.99049
▁choice	-9.99049
▁consolation	-9.99049
▁eldest	-9.99049
▁elephant	-9.99049
▁extent	-9.99049
▁fatigue	-9.99049
▁fortunate	-9.99049
▁indifferent	-9.99049
▁necessity	-9.99049
▁philosophy	-9.99049
▁project	-9.99049
▁satisfy	-9.99049
▁service	-9.99049
▁stiff	-9.99049
▁summit	-9.99049
▁swung	-9.99049
▁nail	-9.99049
▁flesh	-9.99049
▁solitude	-9.99049
▁Good	-9.9905
▁moreover	-9.9905
▁idle	-9.9905
▁consist	-9.99051
▁assert	-9.99054
▁leeward	-9.99057
▁edge	-9.99059
▁permitted	-9.99064
▁pocket	-9.99069
▁gradually	-9.99074
▁lash	-9.99082
▁mistaken	-9.99104
so	-9.99106
▁sport	-9.99116
▁torn	-9.99117
stone	-9.99123
▁tossed	-9.99132
▁lest	-9.99175
▁putting	-9.99181
▁eagerness	-9.9919
▁page	-9.99207
▁madness	-9.99216
▁shroud	-9.99239
▁associated	-9.99325
▁revealed	-9.99325
sent	-9.99372
▁displaying	-9.99404
▁highest	-9.99413
▁regularly	-9.99482
▁pulling	-9.99497
▁advanced	-9.99501
▁gay	-9.99521
▁extremely	-9.99596
▁smiled	-9.99617
▁reflected	-9.99646
▁killed	-9.99762
▁paying	-9.99774
▁burning	-9.99802
▁crossed	-9.99815
ww	-9.99853
▁accepted	-9.99961
▁knows	-10.0031
▁masts	-10.004
▁parted	-10.0073
▁due	-10.0087
▁Whales	-10.0087
▁bar	-10.013
▁clouds	-10.0151
unch	-10.0153
▁habit	-10.0159
▁bare	-10.019
L	-10.022
▁animal	-10.0247
▁servant	-10.0249
▁connection	-10.025
▁smiles	-10.0252
▁lances	-10.0261
▁oar	-10.0262
▁souls	-10.0273
▁attend	-10.0312
▁descend	-10.0312
az	-10.0375
▁wretch	-10.0375
4	-10.0397
▁principal	-10.0398
▁loud	-10.0398
▁slow	-10.04
▁produce	-10.0402
▁perceive	-10.0402
▁continue	-10.0402
piece	-10.0404
▁shake	-10.0421
▁tender	-10.0429
▁threat	-10.0431
▁Atlantic	-10.0431
▁Hunsford	-10.0431
▁Saturday	-10.0431
▁THE	-10.0431
▁Where	-10.0431
▁advice	-10.0431
▁belief	-10.0431
▁choose	-10.0431
▁conclusion	-10.0431
▁confusion	-10.0431
▁crack	-10.0431
▁dancing	-10.0431
▁globe	-10.0431
▁hollow	-10.0431
▁ignorance	-10.0431
▁impatient	-10.0431
▁innocent	-10.0431
▁magnitude	-10.0431
▁malice	-10.0431
▁neglect	-10.0431
▁pleasing	-10.0431
▁reference	-10.0431
▁resentment	-10.0431
▁serene	-10.0431
▁somewhere	-10.0431
▁sword	-10.0431
▁thither	-10.0431
▁windlass	-10.0431
▁wrote	-10.0431
▁Long	-10.0431
▁amusement	-10.0431
▁flag	-10.0431
▁nurse	-10.0431
▁unwilling	-10.0431
▁torture	-10.0431
▁conviction	-10.0432
▁accompanied	-10.0432
that	-10.0432
▁boast	-10.0433
▁arch	-10.0433
▁wreck	-10.0433
▁flatter	-10.0434
▁fitted	-10.0436
▁stop	-10.0437
▁pronounced	-10.0437
▁apartment	-10.0438
▁exertion	-10.0441
▁comfortable	-10.0442
▁absolutely	-10.0442
▁reserved	-10.0443
▁included	-10.0445
▁prow	-10.0453
▁swallowed	-10.046
▁reel	-10.0463
▁distributed	-10.0464
▁unlike	-10.0465
▁stretched	-10.0473
▁agreed	-10.0474
▁pressed	-10.0479
▁invested	-10.0479
▁provided	-10.0487
▁escaped	-10.049
but	-10.049
▁mu	-10.0502
▁murdered	-10.0513
▁touched	-10.0516
▁hills	-10.0535
▁beach	-10.0538
▁holder	-10.0541
▁limbs	-10.0545
▁birds	-10.0545
▁Ho	-10.0547
▁entering	-10.0547
▁hinted	-10.0577
▁shortly	-10.0619
ced	-10.0689
▁lies	-10.0703
▁directions	-10.0707
▁lee	-10.0714
▁fro	-10.0715
▁places	-10.0733
fully	-10.0792
▁accident	-10.0802
▁street	-10.0806
▁shark	-10.0808
▁field	-10.0812
▁wave	-10.0815
▁persons	-10.0831
▁tear	-10.0832
ny	-10.0836
▁king	-10.0842
▁La	-10.085
yard	-10.0897
▁outer	-10.0908
▁throw	-10.0917
▁pitch	-10.0929
▁explain	-10.093
▁cover	-10.094
▁Go	-10.0943
▁move	-10.0948
▁welcome	-10.0956
N	-10.0961
U	-10.0961
▁lock	-10.0962
ined	-10.0964
▁mood	-10.0971
▁broke	-10.0977
▁cont	-10.0982
▁level	-10.0984
▁witness	-10.0985
▁French	-10.0985
▁safe	-10.0986
▁incident	-10.0986
▁Agatha	-10.0987
▁Safie	-10.0987
▁comparison	-10.0987
▁condition	-10.0987
▁conscience	-10.0987
▁disappointed	-10.0987
▁exercise	-10.0987
▁female	-10.0987
▁generous	-10.0987
▁ghost	-10.0987
▁improvement	-10.0987
▁innocence	-10.0987
▁mutual	-10.0987
▁ordinary	-10.0987
▁perpendicular	-10.0987
▁prison	-10.0987
▁probability	-10.0987
▁prodigious	-10.0987
▁quantity	-10.0987
▁relief	-10.0987
▁result	-10.0987
▁scientific	-10.0987
▁shriek	-10.0987
▁tolerable	-10.0987
▁twelve	-10.0987
▁universal	-10.0987
▁vague	-10.0987
▁whirl	-10.0987
▁critical	-10.0987
▁phantom	-10.0987
▁pilot	-10.0987
▁sake	-10.0987
▁tongue	-10.0987
▁damage	-10.0987
▁gazing	-10.0987
▁stairs	-10.0987
▁bosom	-10.0987
▁deemed	-10.0987
▁absent	-10.0987
▁angel	-10.0987
▁applied	-10.0987
▁anger	-10.0988
▁chair	-10.0989
▁fowl	-10.0989
▁helm	-10.0989
▁cottagers	-10.099
▁rule	-10.099
▁yellow	-10.0991
▁slave	-10.0991
▁windward	-10.0991
▁evinced	-10.0993
▁employment	-10.0994
▁tide	-10.0995
▁aye	-10.0998
▁driven	-10.0999
▁friendship	-10.0999
▁devoted	-10.1
▁relieved	-10.1001
▁disposed	-10.1001
▁setting	-10.1005
▁useless	-10.1005
▁sum	-10.101
▁shown	-10.1012
▁dwelling	-10.1013
▁prevailed	-10.1014
▁hopeless	-10.1018
▁stone	-10.102
▁gazed	-10.1022
▁parents	-10.1024
▁largest	-10.1025
▁swiftly	-10.1026
▁collected	-10.1026
pot	-10.1027
▁Or	-10.1028
▁accordingly	-10.1035
▁smallest	-10.1039
▁violently	-10.1041
▁secured	-10.1044
▁belonged	-10.1051
▁waiting	-10.1065
▁approaching	-10.1068
▁posted	-10.107
▁obtained	-10.1086
:--	-10.1089
▁longed	-10.109
▁proceeding	-10.1124
val	-10.1132
▁copying	-10.1151
▁god	-10.1153
▁seeking	-10.1154
▁rid	-10.119
▁sleeping	-10.1214
▁worked	-10.1239
▁lowering	-10.1243
▁needs	-10.127
apping	-10.1276
▁Th	-10.1286
▁lover	-10.1296
▁presently	-10.1298
▁motion	-10.1389
▁month	-10.1397
▁telling	-10.141
▁hunt	-10.144
▁dreams	-10.1446
▁rush	-10.1459
▁minds	-10.1492
▁personal	-10.1505
▁lurk	-10.1513
▁guard	-10.1517
light	-10.1526
▁emb	-10.1536
▁induce	-10.1544
▁refuse	-10.1545
▁declare	-10.1545
▁prepare	-10.1545
▁please	-10.1546
humour	-10.1549
G	-10.155
▁cap	-10.1556
▁milk	-10.1559
▁hate	-10.156
▁qu	-10.156
▁triumph	-10.1573
▁cord	-10.1574
▁Austen	-10.1575
▁Bedford	-10.1575
▁Frankenstein	-10.1575
▁benevolent	-10.1575
▁compliance	-10.1575
▁composure	-10.1575
▁convenient	-10.1575
▁delicacy	-10.1575
▁descried	-10.1575
▁fault	-10.1575
▁fifteen	-10.1575
▁guest	-10.1575
▁increasing	-10.1575
▁lantern	-10.1575
▁meanwhile	-10.1575
▁negro	-10.1575
▁principle	-10.1575
▁qualities	-10.1575
▁research	-10.1575
▁rude	-10.1575
▁significant	-10.1575
▁striking	-10.1575
▁tranquillity	-10.1575
▁vicinity	-10.1575
▁victim	-10.1575
▁violence	-10.1575
▁volume	-10.1575
▁Thou	-10.1575
▁education	-10.1575
▁flank	-10.1575
▁honest	-10.1575
▁intimate	-10.1575
▁peep	-10.1575
▁Alas	-10.1575
▁fiery	-10.1575
▁inhabitants	-10.1575
▁brave	-10.1575
▁nay	-10.1575
▁depth	-10.1575
▁key	-10.1575
▁cannibal	-10.1575
▁dining	-10.1575
▁canvas	-10.1575
▁merit	-10.1576
▁solid	-10.1576
▁seventy	-10.1576
▁salt	-10.1576
▁rare	-10.1576
▁felicity	-10.1576
▁damp	-10.1577
▁token	-10.1577
▁Still	-10.1578
▁branches	-10.158
▁authority	-10.158
▁X	-10.1581
▁pair	-10.1581
▁favourable	-10.1582
▁gate	-10.1582
▁supply	-10.1584
▁Our	-10.1584
▁seven	-10.1584
▁pure	-10.159
▁captured	-10.159
▁united	-10.1591
▁rod	-10.1593
▁nameless	-10.1594
▁strip	-10.1594
▁restored	-10.1594
▁wise	-10.1595
▁overboard	-10.1595
▁billows	-10.1603
▁carefully	-10.1603
▁grown	-10.1604
▁endless	-10.161
▁du	-10.1612
▁originally	-10.1619
▁parties	-10.1621
▁hunted	-10.1632
▁hide	-10.1642
▁attending	-10.1643
ric	-10.1643
▁Ah	-10.1661
▁performed	-10.1664
▁prop	-10.1668
▁file	-10.1668
▁listening	-10.1687
▁silently	-10.1695
▁fled	-10.1702
▁thanks	-10.1722
▁whence	-10.1738
▁labours	-10.1748
amp	-10.1765
▁streets	-10.1771
LI	-10.1814
▁noon	-10.1842
▁sin	-10.1872
liness	-10.1932
▁pictures	-10.2009
▁flame	-10.2017
▁labour	-10.2019
▁sensation	-10.2021
▁thousands	-10.2024
▁rocks	-10.2028
ically	-10.2028
▁boy	-10.2054
T	-10.2055
▁ages	-10.2064
aint	-10.2076
▁delay	-10.2142
▁furnish	-10.2143
▁invest	-10.2145
▁settle	-10.2152
▁press	-10.2164
▁precise	-10.2168
▁cease	-10.217
▁conceive	-10.217
▁save	-10.2179
bound	-10.2182
nel	-10.2187
▁chose	-10.219
▁marks	-10.2193
▁addition	-10.2193
▁subjects	-10.2194
▁remote	-10.2194
▁system	-10.22
▁Because	-10.22
▁Information	-10.22
▁Meanwhile	-10.22
▁Whether	-10.22
▁comrade	-10.22
▁confidence	-10.22
▁daily	-10.22
▁delicate	-10.22
▁exclamation	-10.22
▁furniture	-10.22
▁indifference	-10.22
▁leak	-10.22
▁observing	-10.22
▁philosopher	-10.22
▁proposal	-10.22
▁regiment	-10.22
▁remembrance	-10.22
▁singular	-10.22
▁sprang	-10.22
▁stock	-10.22
▁stroke	-10.22
▁subsequent	-10.22
▁symbol	-10.22
▁sympathy	-10.22
▁trunk	-10.22
▁unnatural	-10.22
▁urged	-10.22
▁variety	-10.22
▁volunteers	-10.22
▁wrong	-10.22
▁Great	-10.22
▁computer	-10.22
▁inclined	-10.22
▁oak	-10.22
▁silver	-10.22
▁status	-10.22
▁subtle	-10.22
▁Death	-10.22
▁console	-10.22
▁frightened	-10.22
▁steel	-10.22
▁traveller	-10.22
▁horn	-10.22
▁couple	-10.22
▁estate	-10.22
▁farther	-10.22
▁horizontal	-10.22
izing	-10.22
▁weapon	-10.22
▁score	-10.22
▁region	-10.22
▁shoot	-10.2201
▁cunning	-10.2201
▁committed	-10.2201
▁weep	-10.2201
▁requirements	-10.2201
▁communication	-10.2201
▁allusion	-10.2201
▁hastily	-10.2201
▁foolish	-10.2201
ound	-10.2201
▁Roman	-10.2202
▁grey	-10.2202
▁stopped	-10.2202
▁perilous	-10.2202
▁park	-10.2202
▁flight	-10.2202
▁perish	-10.2203
▁block	-10.2203
▁execution	-10.2203
▁cup	-10.2204
▁alteration	-10.2204
▁perch	-10.2205
▁thirst	-10.2206
▁distribution	-10.2206
▁list	-10.2208
▁Ladyship	-10.2208
▁stage	-10.2208
▁fun	-10.2209
▁elevated	-10.2209
▁dust	-10.2209
▁apply	-10.221
▁useful	-10.2212
▁oh	-10.2213
▁scar	-10.2214
▁reality	-10.2214
▁acknowledged	-10.2216
▁error	-10.2217
▁spade	-10.2218
▁coward	-10.222
▁wretchedness	-10.2224
▁inserted	-10.2224
▁outside	-10.2225
▁floated	-10.2228
▁wheel	-10.2229
▁portion	-10.2231
▁wandered	-10.2232
▁furious	-10.2233
▁sand	-10.2236
▁dearest	-10.2238
▁blessed	-10.2239
▁lifted	-10.2246
▁tormented	-10.2253
▁sufficiently	-10.2255
▁fain	-10.2273
▁breaking	-10.2276
▁apart	-10.2296
▁fairly	-10.23
▁union	-10.2303
▁sinking	-10.2304
vine	-10.2304
▁growing	-10.2307
headed	-10.2324
▁bolt	-10.2338
▁closely	-10.2359
▁Only	-10.2365
▁contract	-10.2417
▁playing	-10.2429
▁views	-10.2437
▁hast	-10.2475
looking	-10.2483
▁doubted	-10.2488
▁overlook	-10.2547
▁landed	-10.2555
▁sorts	-10.2576
▁fat	-10.2578
▁min	-10.2596
▁sounding	-10.261
aged	-10.262
▁spi	-10.2625
▁states	-10.2625
▁sole	-10.2635
▁Sh	-10.2667
▁impression	-10.2682
▁motive	-10.2684
▁crime	-10.2684
▁fees	-10.2684
▁plank	-10.2701
▁hum	-10.2733
▁pull	-10.2749
hold	-10.2789
▁exceed	-10.2805
▁attack	-10.2808
▁convey	-10.2808
▁esteem	-10.2809
▁recommend	-10.2809
▁distinguish	-10.281
▁fix	-10.2813
hand	-10.2821
▁torment	-10.2826
▁ahead	-10.2828
▁practical	-10.2834
▁familiar	-10.2834
▁raise	-10.2837
knife	-10.284
ground	-10.2842
▁curse	-10.2844
hearted	-10.2846
war	-10.2853
fall	-10.2855
▁obscure	-10.2855
▁Loo	-10.2856
▁aft	-10.2856
▁weak	-10.2857
truck	-10.2862
▁mystic	-10.2862
▁suit	-10.2862
▁remorse	-10.2863
▁entertain	-10.2864
▁occasional	-10.2864
▁Turk	-10.2865
▁Again	-10.2867
▁Dormouse	-10.2867
▁Fedallah	-10.2867
▁Ingolstadt	-10.2867
▁Maria	-10.2867
▁Perhaps	-10.2867
▁Quaker	-10.2867
▁Radney	-10.2867
▁accustomed	-10.2867
▁advancing	-10.2867
▁applicable	-10.2867
▁complexion	-10.2867
▁creating	-10.2867
▁creator	-10.2867
▁current	-10.2867
▁doubloon	-10.2867
▁drove	-10.2867
▁elder	-10.2867
▁external	-10.2867
▁glimpse	-10.2867
▁hereafter	-10.2867
▁immortal	-10.2867
▁impatience	-10.2867
▁incapable	-10.2867
▁involuntarily	-10.2867
▁marvellous	-10.2867
▁obvious	-10.2867
▁penetrate	-10.2867
▁privilege	-10.2867
▁sacrifice	-10.2867
▁smell	-10.2867
▁struggle	-10.2867
▁tremendous	-10.2867
▁uncertain	-10.2867
▁uniform	-10.2867
▁wrinkled	-10.2867
▁About	-10.2867
▁German	-10.2867
▁desolate	-10.2867
▁disdain	-10.2867
▁disgrace	-10.2867
▁expand	-10.2867
▁glow	-10.2867
▁spray	-10.2867
▁embark	-10.2867
▁excuse	-10.2867
▁mould	-10.2867
▁stove	-10.2867
▁sledge	-10.2867
▁idol	-10.2867
▁shiver	-10.2867
▁wore	-10.2867
▁dropping	-10.2867
▁print	-10.2867
▁odd	-10.2867
▁quest	-10.2867
▁aware	-10.2867
▁musk	-10.2867
▁infant	-10.2867
▁partner	-10.2867
▁wept	-10.2867
▁duties	-10.2867
▁shipmates	-10.2867
▁scuttle	-10.2868
▁possibility	-10.2868
▁safety	-10.2868
▁fever	-10.2868
▁frightful	-10.2868
▁considerably	-10.2869
▁marble	-10.2869
▁assistance	-10.287
▁stout	-10.287
▁cried	-10.287
▁stuff	-10.287
▁rust	-10.2871
▁certainty	-10.2876
▁canoe	-10.2877
▁calculated	-10.288
▁mixed	-10.2881
▁upwards	-10.2881
▁log	-10.2881
▁fallen	-10.2885
▁lonely	-10.2886
▁Man	-10.2886
▁gloomy	-10.2889
▁box	-10.289
▁condemned	-10.2892
▁usage	-10.2896
▁conceived	-10.2899
▁outward	-10.2905
▁described	-10.2911
▁mounted	-10.2912
▁amid	-10.2923
▁rushing	-10.2936
▁lifeless	-10.2936
▁contained	-10.2944
▁concealed	-10.2952
▁complying	-10.2957
▁usually	-10.2961
▁reaching	-10.2965
▁uttered	-10.2968
ah	-10.2968
▁beholding	-10.2969
▁performing	-10.2974
▁tackles	-10.2975
▁afforded	-10.2991
▁encountered	-10.2999
▁cheeks	-10.3001
▁visitors	-10.3005
▁earthly	-10.3006
▁casks	-10.3014
▁fly	-10.3026
▁action	-10.3051
▁sights	-10.3059
▁tar	-10.3068
▁watched	-10.3068
▁stayed	-10.307
▁decks	-10.307
▁goodness	-10.3076
▁lowered	-10.308
▁servants	-10.3104
▁misfortunes	-10.3117
▁Ro	-10.314
▁inside	-10.3141
▁legal	-10.3185
▁terrors	-10.3194
▁islands	-10.3195
▁devils	-10.3273
umb	-10.3273
▁signs	-10.3273
▁poet	-10.3299
work	-10.3376
▁rib	-10.3388
▁lighted	-10.3396
▁sentiment	-10.3397
▁engagement	-10.3399
▁finger	-10.3399
▁relation	-10.3399
▁piece	-10.3433
▁Se	-10.3459
▁dress	-10.3467
iously	-10.3474
▁Pa	-10.3501
▁snatch	-10.3522
▁push	-10.3524
▁stretch	-10.3525
▁hail	-10.3537
wise	-10.3538
▁pour	-10.3543
▁commence	-10.3548
▁inquire	-10.3551
▁remove	-10.3551
W	-10.3556
point	-10.3556
white	-10.3556
▁careful	-10.3561
▁polite	-10.3571
▁America	-10.3571
▁limit	-10.3575
▁defect	-10.3578
▁solicit	-10.3578
▁nephew	-10.3581
▁occurrence	-10.3581
▁prejudice	-10.3581
▁provision	-10.3581
▁pulpit	-10.3581
▁spear	-10.3581
natured	-10.3581
▁accompany	-10.3581
▁activity	-10.3581
▁aloud	-10.3581
▁arose	-10.3581
▁believing	-10.3581
▁binnacle	-10.3581
▁chimney	-10.3581
▁civilized	-10.3581
▁crawl	-10.3581
▁dawn	-10.3581
▁enchanted	-10.3581
▁everlasting	-10.3581
▁fierce	-10.3581
▁frantic	-10.3581
▁indignation	-10.3581
▁indirectly	-10.3581
▁intolerable	-10.3581
▁invariably	-10.3581
▁lung	-10.3581
▁mysterious	-10.3581
▁physical	-10.3581
▁problem	-10.3581
▁quality	-10.3581
▁reject	-10.3581
▁smoking	-10.3581
▁spermaceti	-10.3581
▁square	-10.3581
▁studies	-10.3581
▁supposing	-10.3581
▁timid	-10.3581
▁tolerably	-10.3581
▁unaccountable	-10.3581
▁unexpected	-10.3581
▁vision	-10.3581
▁breast	-10.3581
▁operation	-10.3581
▁preceding	-10.3581
▁Heaven	-10.3581
▁grandeur	-10.3581
▁northern	-10.3581
▁links	-10.3581
▁stump	-10.3581
▁wedding	-10.3581
▁Most	-10.3581
▁Poor	-10.3581
▁animated	-10.3581
▁folly	-10.3581
▁unseen	-10.3581
▁rational	-10.3581
▁prophet	-10.3581
▁dragged	-10.3581
▁Indeed	-10.3581
▁----	-10.3581
▁combined	-10.3581
▁fountain	-10.3581
▁hue	-10.3581
▁organ	-10.3581
▁bench	-10.3582
▁customary	-10.3582
▁uncomfortable	-10.3582
▁housekeeper	-10.3582
▁south	-10.3582
▁beef	-10.3583
shire	-10.3584
▁century	-10.3584
▁dull	-10.3584
▁defective	-10.3584
▁cloth	-10.3585
▁18	-10.3585
▁moving	-10.3585
▁motionless	-10.3585
▁Fast	-10.3586
ouch	-10.3587
▁dangerous	-10.3587
▁lament	-10.3587
▁Stand	-10.3588
▁march	-10.3589
▁puff	-10.359
▁deceived	-10.3591
▁grieved	-10.3591
▁glided	-10.3591
▁warmth	-10.3591
▁guilty	-10.3593
▁store	-10.3594
▁fury	-10.3595
▁Many	-10.3598
▁introduced	-10.36
▁procured	-10.3602
▁derived	-10.3609
▁learnt	-10.361
▁commenced	-10.3611
▁band	-10.3611
▁thereby	-10.3613
▁recollected	-10.3613
▁peaceful	-10.3615
▁ceased	-10.3616
▁borne	-10.3616
▁distinction	-10.3617
▁lot	-10.3618
▁sk	-10.3622
▁snowy	-10.3623
▁shuddering	-10.3625
▁generations	-10.3629
▁unde	-10.3632
▁informed	-10.3634
▁howling	-10.3646
▁furnished	-10.3647
▁weary	-10.3649
▁explained	-10.3655
▁anxiously	-10.3663
▁becomes	-10.3671
▁test	-10.3673
▁dreaded	-10.3677
▁backward	-10.3694
nut	-10.3696
▁crossing	-10.3696
▁alarmed	-10.3706
▁sufferings	-10.3714
▁charming	-10.3722
▁darting	-10.3723
▁chanced	-10.3723
▁th	-10.3727
tro	-10.3729
▁respects	-10.3731
▁bursting	-10.3734
works	-10.3739
▁falling	-10.3741
▁warp	-10.3744
▁statement	-10.3748
▁arguments	-10.3753
▁laughing	-10.3759
▁fingers	-10.3767
▁hated	-10.3784
▁lieu	-10.3805
▁motions	-10.3809
▁whalers	-10.3815
▁fields	-10.3822
▁kings	-10.3823
lac	-10.383
rope	-10.3855
itude	-10.3902
▁horses	-10.3906
▁passions	-10.3926
▁walls	-10.3948
▁thank	-10.3958
▁matters	-10.3984
wards	-10.399
▁circles	-10.399
▁meat	-10.401
▁im	-10.4017
▁hell	-10.4039
▁whaler	-10.4119
▁Sp	-10.4143
▁expense	-10.4166
▁argument	-10.4168
▁latitude	-10.4168
▁term	-10.4174
▁peril	-10.4174
▁chin	-10.4198
▁leap	-10.4231
▁depart	-10.4278
▁recover	-10.4278
▁beside	-10.428
▁seal	-10.4281
▁treat	-10.4291
▁inform	-10.4291
▁retain	-10.4292
▁remind	-10.4292
▁attract	-10.4293
▁lift	-10.4294
▁succeed	-10.4294
▁fur	-10.4314
▁exact	-10.4319
▁conjecture	-10.4319
▁deserve	-10.432
▁derive	-10.432
lock	-10.4321
B	-10.4325
C	-10.4325
▁dine	-10.4326
▁facts	-10.4328
▁fulfil	-10.4328
▁compass	-10.4336
▁restrain	-10.4336
▁conscious	-10.434
▁ja	-10.4344
▁cruel	-10.4349
jewel	-10.435
▁Gabriel	-10.435
▁General	-10.435
▁Ishmael	-10.435
▁Meantime	-10.435
▁Parsonage	-10.435
▁Those	-10.435
▁apparition	-10.435
▁astonished	-10.435
▁commission	-10.435
▁commotion	-10.435
▁description	-10.435
▁desirable	-10.435
▁destined	-10.435
▁enterprise	-10.435
▁fancied	-10.435
▁gratified	-10.435
▁inquiry	-10.435
▁invisible	-10.435
▁knock	-10.435
▁liberal	-10.435
▁magistrate	-10.435
▁majestic	-10.435
▁monstrous	-10.435
▁naked	-10.435
▁obey	-10.435
▁patience	-10.435
▁position	-10.435
▁poverty	-10.435
▁refuge	-10.435
▁resemblance	-10.435
▁scattered	-10.435
▁temporary	-10.435
▁tomahawk	-10.435
▁tumultuous	-10.435
▁upstairs	-10.435
▁vivid	-10.435
▁whatsoever	-10.435
▁yesterday	-10.435
▁Before	-10.435
▁John	-10.435
▁ardour	-10.435
▁begged	-10.435
▁blame	-10.435
▁drugg	-10.435
▁harbor	-10.435
▁impulse	-10.435
▁squall	-10.435
▁vow	-10.435
▁Paris	-10.435
▁blend	-10.435
▁pagan	-10.435
▁root	-10.435
▁Two	-10.435
▁super	-10.435
▁worn	-10.435
▁busy	-10.435
▁train	-10.435
▁moral	-10.435
▁wealth	-10.435
▁awoke	-10.435
▁worst	-10.435
▁rail	-10.435
▁haunt	-10.435
▁silly	-10.435
▁angry	-10.4351
▁heaving	-10.4351
▁noise	-10.4351
▁plum	-10.4351
CT	-10.4351
▁chart	-10.4351
▁reign	-10.4351
▁candle	-10.4351
▁abhorred	-10.4351
▁protectors	-10.4351
▁magic	-10.4351
▁Think	-10.4351
▁plate	-10.4351
▁amazement	-10.4351
▁royalties	-10.4351
▁alas	-10.4351
▁humorous	-10.4351
▁Never	-10.4351
▁vanity	-10.4351
▁skill	-10.4352
▁appalling	-10.4352
▁harmless	-10.4352
▁Come	-10.4353
▁hatred	-10.4353
▁TO	-10.4353
▁nice	-10.4353
▁stick	-10.4353
▁partiality	-10.4354
▁quitting	-10.4355
▁trial	-10.4356
▁limitation	-10.4357
▁pool	-10.4357
▁agent	-10.4357
▁teach	-10.4358
▁grim	-10.4359
▁grant	-10.4359
▁seemingly	-10.4359
▁collection	-10.436
▁expressive	-10.4361
▁invited	-10.4361
▁roused	-10.4361
▁chosen	-10.4363
▁composed	-10.4364
▁sub	-10.4364
▁partial	-10.4367
▁host	-10.4368
ability	-10.4368
▁confined	-10.4368
▁wit	-10.4369
▁fearless	-10.4374
▁grin	-10.4374
▁sincerely	-10.4375
▁humanity	-10.4375
▁towing	-10.4378
▁chat	-10.4381
▁altered	-10.4385
▁pant	-10.4385
▁deny	-10.4386
▁gentleness	-10.4386
▁wherever	-10.439
▁fleet	-10.4397
▁blasted	-10.4403
▁danced	-10.4403
▁wandering	-10.4405
▁treated	-10.4408
▁pushed	-10.4412
▁dressed	-10.4413
▁slid	-10.4414
▁firmly	-10.4416
▁bitterly	-10.4416
▁sadly	-10.4419
▁arise	-10.4428
▁nations	-10.4434
▁throwing	-10.4436
▁descended	-10.4436
▁appears	-10.4443
▁slightly	-10.4445
ists	-10.446
▁emotions	-10.4462
▁enjoyed	-10.4472
▁failed	-10.4482
▁pretend	-10.4485
▁laughed	-10.4487
▁peculiarly	-10.4499
▁marrying	-10.4504
▁degrees	-10.4507
▁chains	-10.4515
▁formal	-10.4516
▁successful	-10.452
▁formerly	-10.4523
▁latitudes	-10.4537
▁song	-10.4537
▁pieces	-10.4552
▁breathe	-10.4562
▁motives	-10.4567
▁crimes	-10.4567
▁flames	-10.4582
▁sing	-10.461
▁ordered	-10.4616
▁connections	-10.4628
▁wanting	-10.4651
▁meal	-10.4655
▁govern	-10.4671
bel	-10.4709
▁date	-10.4715
read	-10.4716
▁fi	-10.4736
▁contents	-10.4762
▁wishing	-10.4809
▁forming	-10.4809
▁handle	-10.4809
▁envelope	-10.4814
law	-10.4839
▁expressions	-10.486
outs	-10.4867
▁effects	-10.4933
▁cask	-10.5001
▁limb	-10.5003
▁bird	-10.5003
▁mariner	-10.5004
▁wet	-10.5008
▁rag	-10.5042
▁rob	-10.5045
▁fare	-10.5049
▁display	-10.5066
▁deed	-10.5083
▁collect	-10.5117
▁suspect	-10.5125
▁jump	-10.5126
▁blast	-10.5126
▁mount	-10.5127
▁hover	-10.5127
▁intend	-10.5129
▁jo	-10.5144
▁process	-10.5148
▁attentive	-10.5151
▁apparent	-10.5152
▁increase	-10.5154
▁conclude	-10.5154
▁determine	-10.5154
▁owe	-10.5155
box	-10.5158
morrow	-10.5158
back	-10.5158
▁exert	-10.5169
▁extra	-10.5173
▁office	-10.5179
▁jack	-10.518
▁awake	-10.5182
▁format	-10.5182
▁custom	-10.5183
▁trade	-10.5183
▁worship	-10.5183
▁Qu	-10.5184
▁SAILOR	-10.5184
▁correct	-10.5184
▁correspond	-10.5184
▁indulge	-10.5184
▁prudent	-10.5184
▁stagger	-10.5184
▁widow	-10.5184
▁ANY	-10.5184
▁Arabian	-10.5184
▁Brighton	-10.5184
▁Coffin	-10.5184
▁George	-10.5184
▁Life	-10.5184
▁Parsee	-10.5184
▁Presently	-10.5184
▁THIS	-10.5184
▁Would	-10.5184
▁afloat	-10.5184
▁appetite	-10.5184
▁approve	-10.5184
▁archangel	-10.5184
▁attain	-10.5184
▁await	-10.5184
▁bloom	-10.5184
▁bubble	-10.5184
▁build	-10.5184
▁central	-10.5184
▁confused	-10.5184
▁consternation	-10.5184
▁contrivance	-10.5184
▁derivative	-10.5184
▁desperate	-10.5184
▁destiny	-10.5184
▁disclaimer	-10.5184
▁distrust	-10.5184
▁elegant	-10.5184
▁equipment	-10.5184
▁genius	-10.5184
▁guess	-10.5184
▁injustice	-10.5184
▁interpret	-10.5184
▁introduction	-10.5184
▁landlord	-10.5184
▁malicious	-10.5184
▁pistol	-10.5184
▁prairie	-10.5184
▁rapture	-10.5184
▁reckless	-10.5184
▁replacement	-10.5184
▁resolving	-10.5184
▁scream	-10.5184
▁smooth	-10.5184
▁solicitude	-10.5184
▁spectacle	-10.5184
▁split	-10.5184
▁striving	-10.5184
▁structure	-10.5184
▁supernatural	-10.5184
▁superstitious	-10.5184
▁tapering	-10.5184
▁thyself	-10.5184
▁unconscious	-10.5184
▁vigorous	-10.5184
▁website	-10.5184
▁wrench	-10.5184
▁Could	-10.5184
▁afternoon	-10.5184
▁baby	-10.5184
▁crush	-10.5184
▁loath	-10.5184
▁pardon	-10.5184
▁snug	-10.5184
▁bodies	-10.5184
▁inspire	-10.5184
▁Perth	-10.5184
▁entity	-10.5184
▁gliding	-10.5184
▁boiling	-10.5184
▁scorn	-10.5184
▁style	-10.5184
▁neat	-10.5184
▁social	-10.5184
▁FOR	-10.5184
▁heightened	-10.5184
▁shift	-10.5184
▁mission	-10.5184
▁dying	-10.5184
▁insult	-10.5184
▁supplied	-10.5184
▁spine	-10.5185
▁undertaking	-10.5185
▁payments	-10.5185
▁temptation	-10.5185
▁fright	-10.5185
▁cordial	-10.5185
▁speedily	-10.5185
▁stole	-10.5186
▁oarsmen	-10.5186
▁stamp	-10.5186
▁slipped	-10.5186
▁mid	-10.5187
▁lengthwise	-10.5187
▁taught	-10.5187
▁reproach	-10.5189
▁East	-10.519
▁recognised	-10.519
▁class	-10.519
▁tempted	-10.5191
▁flat	-10.5191
▁wine	-10.5191
▁Tun	-10.5192
▁plunged	-10.5193
rous	-10.5193
▁extract	-10.5194
SE	-10.5194
▁painting	-10.5194
▁politeness	-10.5195
▁accomplished	-10.5196
▁consequently	-10.5196
▁painted	-10.5196
▁station	-10.5197
▁Did	-10.5198
▁interruption	-10.5198
▁hit	-10.5199
▁examined	-10.5201
.3.	-10.5203
▁Once	-10.5204
▁faithful	-10.5205
ility	-10.5205
▁declined	-10.5206
▁respectable	-10.5208
▁helpless	-10.5208
▁trembled	-10.5209
▁vanished	-10.5211
▁ventured	-10.5211
▁owed	-10.5214
▁confirmed	-10.5216
.9.	-10.5217
▁inquired	-10.5219
▁tower	-10.5221
▁interrupted	-10.5221
▁humour	-10.5222
▁hunger	-10.5226
▁Lucases	-10.5227
▁attitude	-10.5231
▁exhibited	-10.5236
▁gathered	-10.5236
▁jumped	-10.5241
▁attracted	-10.5246
▁planted	-10.525
▁seriously	-10.5253
▁singing	-10.5258
▁sla	-10.5267
▁locked	-10.5271
▁hunting	-10.5272
▁amongst	-10.528
▁thanked	-10.5281
▁holy	-10.5287
▁counter	-10.5287
▁palms	-10.5289
▁eating	-10.5293
▁heave	-10.5295
▁herds	-10.5301
▁gaining	-10.5304
▁properly	-10.5306
▁chased	-10.5314
▁crowded	-10.5317
▁wounded	-10.5317
▁lately	-10.5326
▁shoulders	-10.5332
▁larger	-10.5342
▁leading	-10.5347
▁online	-10.5349
gen	-10.5356
▁sentiments	-10.5403
▁engagements	-10.5404
▁attempted	-10.5413
lent	-10.5413
▁actions	-10.5426
▁boys	-10.5436
▁interested	-10.545
▁Dr	-10.5451
oke	-10.5479
▁shadows	-10.5519
▁viewed	-10.557
▁helped	-10.5576
rod	-10.5586
▁spouting	-10.5601
▁happens	-10.5614
stir	-10.5626
▁paragraphs	-10.5635
▁endeavours	-10.5639
▁owners	-10.5647
utter	-10.5713
▁plant	-10.5769
top	-10.5832
▁occupation	-10.5908
▁cheek	-10.591
▁hill	-10.5914
ram	-10.5925
▁visitor	-10.5947
▁hid	-10.5949
R	-10.5973
▁lean	-10.5976
▁chip	-10.5981
▁chain	-10.5993
▁bless	-10.6017
▁tri	-10.6018
▁roar	-10.6018
titude	-10.6023
▁sweep	-10.6031
▁pack	-10.6034
▁ascend	-10.6035
▁exhibit	-10.6035
▁gather	-10.6035
▁intent	-10.6041
▁evident	-10.606
▁ardent	-10.606
▁shame	-10.6061
▁restore	-10.6063
▁venture	-10.6063
spade	-10.6067
worth	-10.6067
M	-10.6067
▁pile	-10.6073
▁guilt	-10.6073
▁pace	-10.6078
▁mistake	-10.6083
▁survive	-10.6085
▁origin	-10.6085
▁bag	-10.6086
▁vital	-10.6089
▁permit	-10.609
▁fool	-10.6091
▁vent	-10.6092
▁discern	-10.6092
▁hither	-10.6092
▁impart	-10.6093
▁Egyptian	-10.6093
▁adventure	-10.6093
▁draught	-10.6093
▁pyramid	-10.6093
▁religion	-10.6093
▁According	-10.6093
▁Africa	-10.6093
▁Among	-10.6093
▁Caroline	-10.6093
▁Georgiana	-10.6093
▁Mediterranean	-10.6093
▁Mock	-10.6093
▁Next	-10.6093
▁Ramadan	-10.6093
▁Scotland	-10.6093
▁Take	-10.6093
▁Tuesday	-10.6093
▁abhorrence	-10.6093
▁abode	-10.6093
▁absurd	-10.6093
▁accent	-10.6093
▁admirable	-10.6093
▁advise	-10.6093
▁affright	-10.6093
▁agitated	-10.6093
▁ambition	-10.6093
▁amount	-10.6093
▁ashamed	-10.6093
▁asleep	-10.6093
▁aught	-10.6093
▁awkward	-10.6093
▁banks	-10.6093
▁betrayed	-10.6093
▁buried	-10.6093
▁cautious	-10.6093
▁ceremony	-10.6093
▁characteristic	-10.6093
▁contact	-10.6093
▁delirium	-10.6093
▁deprived	-10.6093
▁determination	-10.6093
▁discourse	-10.6093
▁driving	-10.6093
▁elastic	-10.6093
▁embraced	-10.6093
▁endeavor	-10.6093
▁extremity	-10.6093
▁frozen	-10.6093
▁gently	-10.6093
▁glancing	-10.6093
▁gush	-10.6093
▁incredible	-10.6093
▁indebted	-10.6093
▁infallibly	-10.6093
▁inquiring	-10.6093
▁intellectual	-10.6093
▁intercourse	-10.6093
▁interior	-10.6093
▁narrative	-10.6093
▁notwithstanding	-10.6093
▁permanent	-10.6093
▁porpoise	-10.6093
▁professor	-10.6093
▁providing	-10.6093
▁pumps	-10.6093
▁refrain	-10.6093
▁repair	-10.6093
▁romantic	-10.6093
▁secrecy	-10.6093
▁shrink	-10.6093
▁simply	-10.6093
▁sixteen	-10.6093
▁socket	-10.6093
▁soldiers	-10.6093
▁strove	-10.6093
▁sublime	-10.6093
▁suppress	-10.6093
▁tempest	-10.6093
▁thorough	-10.6093
▁trembling	-10.6093
▁unctuous	-10.6093
▁valiant	-10.6093
▁whilst	-10.6093
buoy	-10.6093
▁Street	-10.6093
▁accuse	-10.6093
▁copied	-10.6093
▁countries	-10.6093
▁earlier	-10.6093
▁fetch	-10.6093
▁hovel	-10.6093
▁miseries	-10.6093
▁official	-10.6093
▁plenty	-10.6093
▁prolonged	-10.6093
▁March	-10.6093
▁mystery	-10.6093
▁spiritual	-10.6093
▁flaming	-10.6093
▁Nay	-10.6093
▁Meets	-10.6093
▁compared	-10.6093
▁disaster	-10.6093
▁strict	-10.6093
▁wilful	-10.6093
▁Horn	-10.6093
▁gun	-10.6093
▁May	-10.6093
▁augment	-10.6093
▁Asia	-10.6093
▁invent	-10.6093
▁forgive	-10.6093
▁Aye	-10.6093
▁punishment	-10.6093
▁tribe	-10.6094
▁earliest	-10.6094
▁remarkably	-10.6094
▁humble	-10.6094
▁necessarily	-10.6094
▁dumb	-10.6095
▁sixty	-10.6096
▁Having	-10.6096
▁protection	-10.6096
▁shoal	-10.6097
▁elapsed	-10.6097
▁oarsman	-10.6097
▁steadily	-10.6097
▁peculiarities	-10.6097
▁shone	-10.6097
Boy	-10.6097
▁acute	-10.6098
▁admitted	-10.6098
▁arrangement	-10.6098
▁semi	-10.6099
▁midst	-10.6099
▁intelligent	-10.6099
▁screw	-10.6099
▁talent	-10.6099
▁mode	-10.61
▁ashes	-10.61
▁amidst	-10.61
▁Sunday	-10.6101
▁solemnity	-10.6101
▁coach	-10.6101
▁ladder	-10.6102
▁alluded	-10.6103
▁Was	-10.6104
▁True	-10.6104
▁bull	-10.6105
will	-10.6106
▁profit	-10.6106
▁divided	-10.6109
▁tossing	-10.6111
▁isles	-10.6112
▁excessively	-10.6113
▁mile	-10.6113
▁throughout	-10.6114
▁totally	-10.6114
▁Ere	-10.6117
▁upright	-10.6121
▁big	-10.6122
▁ardently	-10.6125
▁intently	-10.6125
▁abandoned	-10.6128
▁Fin	-10.613
▁bid	-10.6134
▁worthy	-10.6134
▁renewed	-10.6134
▁fathoms	-10.6137
▁saved	-10.6138
▁solely	-10.6141
▁hastened	-10.6145
▁ascended	-10.6151
▁imagined	-10.6161
▁whereas	-10.6161
▁shared	-10.6161
▁based	-10.6167
▁poured	-10.6167
pans	-10.6171
▁recommended	-10.6172
▁illness	-10.6175
▁guarded	-10.6184
▁leagues	-10.6191
▁containing	-10.6207
▁belonging	-10.6207
▁wrap	-10.6223
verse	-10.6226
▁floats	-10.6228
▁endeavouring	-10.6257
▁contribute	-10.6262
▁occupations	-10.628
▁clearly	-10.6293
▁commander	-10.6295
▁calmly	-10.6312
▁expenses	-10.6316
▁dat	-10.6331
▁ribs	-10.6332
▁tend	-10.6344
▁bowed	-10.6351
▁impressions	-10.6353
▁openly	-10.6391
▁surely	-10.6391
▁accidents	-10.6407
▁animals	-10.6425
▁kindly	-10.6454
ipping	-10.6466
▁papers	-10.6477
▁begins	-10.648
▁dances	-10.6481
▁sheet	-10.6507
▁Me	-10.6544
▁wondered	-10.6577
off	-10.6611
▁pine	-10.6624
▁dive	-10.666
▁wondering	-10.6798
long	-10.6849
▁feature	-10.6914
part	-10.6926
▁bowl	-10.6926
▁slide	-10.6937
▁prefer	-10.6945
▁flower	-10.6987
ification	-10.7011
▁inhabit	-10.7034
▁maintain	-10.7034
▁sustain	-10.7034
▁disturb	-10.7035
▁swallow	-10.7036
▁reveal	-10.7036
▁associat	-10.7036
▁hang	-10.7041
▁hasten	-10.7047
▁suffering	-10.7048
▁infinite	-10.7059
▁recent	-10.706
minded	-10.7061
▁actual	-10.7061
▁expose	-10.7062
▁tremble	-10.7062
▁procure	-10.7063
▁seize	-10.7063
▁scarce	-10.7066
▁err	-10.7067
drawn	-10.7067
▁faith	-10.7067
wood	-10.7067
P	-10.7067
▁sigh	-10.7071
▁suppl	-10.7076
▁appl	-10.7078
▁Ju	-10.7086
bow	-10.7091
▁complain	-10.7091
▁selfish	-10.7092
ology	-10.7092
▁deliberat	-10.7093
▁instinct	-10.7093
parlour	-10.7093
▁Consider	-10.7093
▁Ernest	-10.7093
▁High	-10.7093
▁Lakeman	-10.7093
▁Margaret	-10.7093
▁Monday	-10.7093
▁Spanish	-10.7093
▁Turtle	-10.7093
▁Yojo	-10.7093
▁abroad	-10.7093
▁astonishing	-10.7093
▁basket	-10.7093
▁becoming	-10.7093
▁blade	-10.7093
▁busily	-10.7093
▁celestial	-10.7093
▁centuries	-10.7093
▁clutch	-10.7093
▁coffee	-10.7093
▁concluding	-10.7093
▁contrived	-10.7093
▁desirous	-10.7093
▁discharge	-10.7093
▁disorder	-10.7093
▁editions	-10.7093
▁energy	-10.7093
▁enthusiasm	-10.7093
▁flood	-10.7093
▁flourish	-10.7093
▁gallery	-10.7093
▁improved	-10.7093
▁independent	-10.7093
▁insufficient	-10.7093
▁intensity	-10.7093
▁irregular	-10.7093
▁jealous	-10.7093
▁leather	-10.7093
▁liberty	-10.7093
▁magnificent	-10.7093
▁malignity	-10.7093
▁meadow	-10.7093
▁mischief	-10.7093
▁moderate	-10.7093
▁monkey	-10.7093
▁nobody	-10.7093
▁patient	-10.7093
▁perceiving	-10.7093
▁persuasion	-10.7093
▁ponderous	-10.7093
▁preparing	-10.7093
▁pursuing	-10.7093
▁rack	-10.7093
▁ramble	-10.7093
▁reception	-10.7093
▁relative	-10.7093
▁serenity	-10.7093
▁serpent	-10.7093
▁slept	-10.7093
▁spoil	-10.7093
▁steep	-10.7093
▁sullen	-10.7093
▁superstition	-10.7093
▁surpass	-10.7093
▁swept	-10.7093
▁text	-10.7093
▁throne	-10.7093
▁timber	-10.7093
▁unearthly	-10.7093
▁unjust	-10.7093
▁vacant	-10.7093
▁venerable	-10.7093
▁vexation	-10.7093
▁void	-10.7093
▁withdrew	-10.7093
▁wrinkles	-10.7093
▁50	-10.7093
▁90	-10.7093
▁Derick	-10.7093
▁accumulat	-10.7093
▁carries	-10.7093
▁engraving	-10.7093
▁gesture	-10.7093
▁ornament	-10.7093
▁overcame	-10.7093
▁poison	-10.7093
▁precipice	-10.7093
▁steward	-10.7093
▁stoop	-10.7093
▁Hatter	-10.7093
▁gleam	-10.7093
▁harem	-10.7093
▁prior	-10.7093
▁slumber	-10.7093
▁yonder	-10.7093
▁Christmas	-10.7093
▁arising	-10.7093
▁impressed	-10.7093
▁jolly	-10.7093
▁waif	-10.7093
▁kick	-10.7093
▁parish	-10.7093
▁confident	-10.7093
▁adopt	-10.7093
▁animation	-10.7093
▁boots	-10.7093
▁odor	-10.7093
▁carved	-10.7093
▁persist	-10.7093
▁series	-10.7093
▁sex	-10.7093
▁flirt	-10.7093
▁convert	-10.7093
▁daring	-10.7093
▁barrels	-10.7093
▁bowels	-10.7093
▁offended	-10.7093
▁fastened	-10.7093
▁reverie	-10.7093
▁comprise	-10.7093
▁withstand	-10.7093
▁scale	-10.7093
▁elopement	-10.7093
▁sunset	-10.7094
▁confidential	-10.7094
▁childhood	-10.7094
▁joke	-10.7094
▁clever	-10.7094
▁satisfactory	-10.7094
▁wrapped	-10.7094
▁relationship	-10.7095
▁awakened	-10.7095
▁monomaniac	-10.7095
▁meantime	-10.7095
▁mistress	-10.7095
▁available	-10.7095
▁bucket	-10.7096
▁treatment	-10.7096
▁blanket	-10.7096
▁triumphant	-10.7096
▁Line	-10.7097
▁proof	-10.7097
▁Just	-10.7098
▁loom	-10.7098
▁simultaneously	-10.7098
▁boom	-10.7098
▁cave	-10.7098
▁stepped	-10.7099
▁dense	-10.7099
▁built	-10.71
▁slain	-10.71
▁spire	-10.71
▁conception	-10.7102
▁Have	-10.7103
▁net	-10.7104
lude	-10.7105
▁consciousness	-10.7106
▁communicated	-10.7107
▁revolved	-10.7107
▁representation	-10.7109
▁sincere	-10.711
▁witnesses	-10.711
▁reward	-10.711
▁tun	-10.711
▁careless	-10.7112
▁boundless	-10.7113
▁encouraged	-10.7114
▁tomb	-10.7114
▁established	-10.7114
▁exhausted	-10.7114
▁signal	-10.7116
▁North	-10.7117
script	-10.7117
▁comparatively	-10.7118
▁involved	-10.712
▁detached	-10.712
▁represented	-10.712
▁ambergris	-10.7121
▁widest	-10.7121
vot	-10.7122
▁cheerfulness	-10.7123
▁exposed	-10.7123
▁instruction	-10.7125
▁cable	-10.7126
▁burnt	-10.7128
▁bend	-10.7129
▁doze	-10.713
▁heaved	-10.713
▁piled	-10.7133
▁deserved	-10.7133
▁knife	-10.7133
▁delivered	-10.7139
▁recalled	-10.714
▁cursed	-10.7142
▁watches	-10.7143
▁deepest	-10.7143
▁refused	-10.7146
▁welcomed	-10.7149
▁thine	-10.7151
▁disturbed	-10.7151
▁clinging	-10.7154
▁exceeding	-10.7154
▁leaned	-10.7157
▁stronger	-10.7163
▁uncommonly	-10.7163
▁displayed	-10.7163
▁fortitude	-10.7164
▁nearest	-10.7169
▁leaped	-10.717
▁willingly	-10.717
▁admired	-10.7172
▁reminded	-10.7174
▁leaping	-10.7174
▁blessing	-10.7175
▁trap	-10.7177
▁distinctly	-10.7177
▁symptoms	-10.7182
▁blackness	-10.7184
▁delayed	-10.7188
▁Ste	-10.7188
▁youngest	-10.7197
▁mildly	-10.7198
▁pitched	-10.72
▁repeatedly	-10.7208
▁forge	-10.7209
▁lid	-10.7212
▁depended	-10.7218
▁Are	-10.7223
▁picked	-10.7223
▁deserted	-10.7225
▁coin	-10.723
▁distressed	-10.723
▁spending	-10.7239
▁articles	-10.7241
Ho	-10.7252
▁widely	-10.7257
▁vainly	-10.726
▁contented	-10.7263
▁sending	-10.7265
▁downwards	-10.7276
▁supported	-10.728
▁beating	-10.7284
▁spared	-10.729
▁flowers	-10.7291
▁thence	-10.7292
▁sheets	-10.7305
▁shower	-10.7327
▁named	-10.7368
▁tiller	-10.7379
▁acted	-10.7401
▁needles	-10.7418
▁snap	-10.7453
AL	-10.7464
▁flu	-10.7507
bell	-10.7566
▁beard	-10.7574
bre	-10.7674
▁reader	-10.7693
etc	-10.7978
II	-10.8008
▁Ye	-10.8011
▁tackle	-10.8022
▁weigh	-10.8055
▁downward	-10.8063
▁wander	-10.8067
▁yard	-10.8078
▁dash	-10.8085
▁swing	-10.8143
▁flee	-10.8144
▁prevail	-10.8147
▁finish	-10.8154
▁excite	-10.8161
▁brief	-10.817
▁popular	-10.8171
covered	-10.8172
▁involve	-10.8173
▁decline	-10.8173
▁introduce	-10.8174
▁capture	-10.8174
▁relieve	-10.8174
▁include	-10.8174
V	-10.8178
pipe	-10.8178
boy	-10.8178
▁load	-10.8179
water	-10.818
▁lone	-10.818
▁grace	-10.8181
▁branch	-10.8195
upon	-10.8197
▁blank	-10.82
load	-10.82
▁unite	-10.82
▁excess	-10.8201
hood	-10.8202
▁resist	-10.8202
▁constru	-10.8203
▁comb	-10.8203
▁patron	-10.8204
▁Porpoise	-10.8204
▁bride	-10.8204
▁homage	-10.8204
▁imprudent	-10.8204
▁incessant	-10.8204
▁inconvenience	-10.8204
▁passenger	-10.8204
▁potent	-10.8204
▁reconcil	-10.8204
▁supposition	-10.8204
▁treasure	-10.8204
ostentatious	-10.8204
▁Another	-10.8204
▁Blanc	-10.8204
▁Father	-10.8204
▁Greek	-10.8204
▁Hussey	-10.8204
▁Kirwin	-10.8204
▁Louis	-10.8204
▁Nature	-10.8204
▁Night	-10.8204
▁Victor	-10.8204
▁adequate	-10.8204
▁appeal	-10.8204
▁assembly	-10.8204
▁atmosphere	-10.8204
▁barbaric	-10.8204
▁barbarous	-10.8204
▁biscuit	-10.8204
▁bleak	-10.8204
▁blush	-10.8204
▁border	-10.8204
▁burden	-10.8204
▁cake	-10.8204
▁casual	-10.8204
▁cheese	-10.8204
▁consult	-10.8204
▁convenience	-10.8204
▁crept	-10.8204
▁despise	-10.8204
▁diminish	-10.8204
▁disguise	-10.8204
▁domain	-10.8204
▁dreary	-10.8204
▁drooping	-10.8204
▁embarrassment	-10.8204
▁everywhere	-10.8204
▁evidence	-10.8204
▁exchange	-10.8204
▁exclaimed	-10.8204
▁exquisite	-10.8204
▁families	-10.8204
▁forcibly	-10.8204
▁glacier	-10.8204
▁glittering	-10.8204
▁gratify	-10.8204
▁happiest	-10.8204
▁heavily	-10.8204
▁illuminate	-10.8204
▁improbable	-10.8204
▁incredulous	-10.8204
▁indolent	-10.8204
▁inflict	-10.8204
▁irksome	-10.8204
▁jerk	-10.8204
▁lecture	-10.8204
▁mixture	-10.8204
▁multitude	-10.8204
▁oppose	-10.8204
▁placid	-10.8204
▁preparation	-10.8204
▁presumption	-10.8204
▁puzzled	-10.8204
▁resemble	-10.8204
▁residence	-10.8204
▁sacred	-10.8204
▁separation	-10.8204
▁shattered	-10.8204
▁situated	-10.8204
▁smiling	-10.8204
▁specific	-10.8204
▁squeeze	-10.8204
▁stupid	-10.8204
▁summoned	-10.8204
▁sympathise	-10.8204
▁tight	-10.8204
▁transparent	-10.8204
▁treacherous	-10.8204
▁trowsers	-10.8204
▁twelvemonth	-10.8204
▁ultimate	-10.8204
▁unspeakable	-10.8204
▁victor	-10.8204
▁vocation	-10.8204
▁wharf	-10.8204
▁Ocean	-10.8204
▁Polar	-10.8204
▁congratulations	-10.8204
▁dried	-10.8204
▁imperial	-10.8204
▁portrait	-10.8204
▁tropic	-10.8204
▁unworthy	-10.8204
▁Almost	-10.8204
▁chaise	-10.8204
▁climb	-10.8204
▁debts	-10.8204
▁linked	-10.8204
▁paddle	-10.8204
▁protested	-10.8204
▁quiver	-10.8204
▁reduced	-10.8204
▁snuff	-10.8204
▁Therefore	-10.8204
▁oath	-10.8204
▁Everything	-10.8204
▁Time	-10.8204
▁steam	-10.8204
▁Tell	-10.8204
▁freedom	-10.8204
▁panic	-10.8204
▁subsist	-10.8204
▁deliberately	-10.8204
▁provoke	-10.8204
▁Very	-10.8204
▁pausing	-10.8204
▁queen	-10.8204
▁propriety	-10.8204
▁tumble	-10.8204
▁landsmen	-10.8204
▁tiger	-10.8204
▁coiled	-10.8204
▁hoping	-10.8204
▁clergyman	-10.8204
▁folded	-10.8204
▁restrictions	-10.8204
freighted	-10.8204
▁ripe	-10.8204
▁pierce	-10.8204
▁version	-10.8204
▁feather	-10.8204
▁warning	-10.8204
▁forgot	-10.8204
▁blacksmith	-10.8204
▁resume	-10.8205
▁arrow	-10.8205
▁hired	-10.8205
▁forbearance	-10.8205
▁define	-10.8205
▁investigat	-10.8205
▁hesitate	-10.8205
▁liability	-10.8205
▁disagreeable	-10.8205
▁indispensable	-10.8205
▁stopping	-10.8205
▁gallantry	-10.8205
▁coarse	-10.8205
▁starboard	-10.8206
▁bath	-10.8206
▁Delight	-10.8206
▁prize	-10.8206
▁enable	-10.8206
▁denied	-10.8206
▁sparkling	-10.8206
▁route	-10.8206
▁nine	-10.8206
▁ascribe	-10.8206
▁feverish	-10.8206
▁loving	-10.8207
▁mainmast	-10.8207
▁mute	-10.8208
▁Towards	-10.8208
▁attendant	-10.8209
▁skies	-10.8209
▁noiseless	-10.8209
▁accomplishment	-10.821
▁reverse	-10.821
▁remorseless	-10.821
▁readiness	-10.821
▁shoes	-10.821
▁whe	-10.8211
Post	-10.8211
▁curling	-10.8211
▁cub	-10.8212
▁chill	-10.8213
▁pots	-10.8213
pole	-10.8214
▁chamber	-10.8215
▁attributed	-10.8216
▁compasses	-10.8218
▁shout	-10.8218
▁longitude	-10.8218
▁presumed	-10.822
▁stricken	-10.8221
▁weakness	-10.8221
▁consumed	-10.8224
▁proposed	-10.8224
▁joyous	-10.8224
▁ridge	-10.8224
▁cries	-10.8225
▁male	-10.8225
▁recovery	-10.8227
▁rejoiced	-10.8227
▁soothed	-10.8227
▁issued	-10.8227
▁mechanically	-10.8229
▁announced	-10.8231
▁assumed	-10.8231
▁thankful	-10.8231
▁bill	-10.8232
▁bitterness	-10.8235
▁drowned	-10.8235
▁movement	-10.8235
▁moody	-10.8236
▁representing	-10.8237
▁mole	-10.8238
▁lucky	-10.824
▁peak	-10.824
▁recently	-10.824
▁mildness	-10.8241
▁dived	-10.8241
▁stranded	-10.8242
▁evidently	-10.8244
▁cat	-10.8246
▁attentively	-10.8248
▁contemplated	-10.8248
▁heedful	-10.8255
▁cherished	-10.8255
▁suggested	-10.8255
▁doomed	-10.8255
cast	-10.8256
▁straits	-10.826
▁familiarly	-10.826
▁sweetness	-10.8261
▁loaded	-10.8262
▁weighed	-10.8263
▁induced	-10.8264
▁sustained	-10.8269
▁finest	-10.8277
▁boldly	-10.8279
▁dimly	-10.8279
▁sweeping	-10.828
▁hiding	-10.8281
▁suspected	-10.8283
▁separated	-10.8286
▁retained	-10.829
▁sliding	-10.8294
▁wont	-10.8296
▁roaring	-10.8297
▁solemnly	-10.8299
▁dressing	-10.8303
▁esteemed	-10.8304
▁pulled	-10.8304
▁manned	-10.8309
▁sleepy	-10.8327
▁completed	-10.8333
▁descending	-10.8339
▁closer	-10.8341
▁qua	-10.8345
▁strained	-10.8351
▁rowing	-10.8374
▁hearth	-10.8375
▁hardy	-10.838
▁checked	-10.8387
▁needed	-10.8391
▁powerful	-10.8403
▁cling	-10.8412
agged	-10.8413
▁contrasting	-10.8431
▁pig	-10.8462
▁offering	-10.8501
▁hi	-10.8529
▁lit	-10.8652
▁hearse	-10.8656
RE	-10.8656
eastward	-10.8874
▁buck	-10.8907
▁slip	-10.9078
▁float	-10.9152
coloured	-10.9216
▁article	-10.9269
▁emotion	-10.9271
▁needle	-10.9287
▁interrupt	-10.9374
▁recollect	-10.9376
▁entreat	-10.9376
▁deliver	-10.9379
▁employ	-10.9381
▁renew	-10.9389
▁alter	-10.9391
▁protect	-10.9391
▁dwell	-10.9395
▁cherish	-10.9396
▁suggest	-10.9396
▁recall	-10.9396
▁extinguish	-10.9404
▁swa	-10.9405
handed	-10.9406
▁comparative	-10.9421
▁engage	-10.9421
▁guide	-10.9423
▁announce	-10.9423
▁assume	-10.9423
tail	-10.9423
▁confine	-10.9424
▁devote	-10.9424
▁reserve	-10.9424
▁retire	-10.9424
▁create	-10.9424
▁converse	-10.9424
grown	-10.9428
twenty	-10.9428
join	-10.9428
▁mourn	-10.9434
skin	-10.9437
▁concept	-10.9442
▁India	-10.9444
▁brig	-10.9447
▁travel	-10.9448
▁harm	-10.945
▁appal	-10.9451
▁feat	-10.9452
▁pea	-10.9452
▁abhor	-10.9453
opping	-10.9453
▁machine	-10.9454
▁Mississippi	-10.9454
▁bottle	-10.9454
▁counsel	-10.9454
▁luxuri	-10.9454
▁miniature	-10.9454
▁mortification	-10.9454
▁obligation	-10.9454
▁oriental	-10.9454
▁replenish	-10.9454
▁rival	-10.9454
▁scruple	-10.9454
▁spiracle	-10.9454
▁thrice	-10.9454
▁whist	-10.9454
,000	-10.9454
▁27	-10.9454
▁AGREE	-10.9454
▁AND	-10.9454
▁BREACH	-10.9454
▁Carpenter	-10.9454
▁China	-10.9454
▁Denny	-10.9454
▁Europe	-10.9454
▁Fishery	-10.9454
▁Heidelburgh	-10.9454
▁Java	-10.9454
▁Jenkinson	-10.9454
▁Joppa	-10.9454
▁Kent	-10.9454
▁LIMITED	-10.9454
▁Mapple	-10.9454
▁NOT	-10.9454
▁Remember	-10.9454
▁Royalty	-10.9454
▁Suddenly	-10.9454
▁Switzerland	-10.9454
▁THAT	-10.9454
▁Terms	-10.9454
▁Through	-10.9454
▁WARRANTIES	-10.9454
▁Wherefore	-10.9454
▁adieu	-10.9454
▁benevolence	-10.9454
▁brawn	-10.9454
▁brute	-10.9454
▁charitable	-10.9454
▁chowder	-10.9454
▁clumsy	-10.9454
▁completion	-10.9454
▁condescension	-10.9454
▁conjure	-10.9454
▁conscientious	-10.9454
▁criminal	-10.9454
▁defiance	-10.9454
▁discuss	-10.9454
▁dissipate	-10.9454
▁dividing	-10.9454
▁dwelt	-10.9454
▁elegance	-10.9454
▁elsewhere	-10.9454
▁enemies	-10.9454
▁eventually	-10.9454
▁experiment	-10.9454
▁extensive	-10.9454
▁gift	-10.9454
▁happier	-10.9454
▁happily	-10.9454
▁haughty	-10.9454
▁hieroglyphic	-10.9454
▁historical	-10.9454
▁horrid	-10.9454
▁identical	-10.9454
▁imaginary	-10.9454
▁inasmuch	-10.9454
▁indulgence	-10.9454
▁injured	-10.9454
▁injury	-10.9454
▁intellect	-10.9454
▁interference	-10.9454
▁intimacy	-10.9454
▁irresistible	-10.9454
▁majesty	-10.9454
▁maternal	-10.9454
▁military	-10.9454
▁miraculous	-10.9454
▁muffled	-10.9454
▁naught	-10.9454
▁negative	-10.9454
▁obedience	-10.9454
▁omnipotent	-10.9454
▁opportunities	-10.9454
▁pirate	-10.9454
▁plague	-10.9454
▁positive	-10.9454
▁preliminary	-10.9454
▁prominently	-10.9454
▁promising	-10.9454
▁purchase	-10.9454
▁reputation	-10.9454
▁resource	-10.9454
▁revolving	-10.9454
▁ridiculous	-10.9454
▁riot	-10.9454
▁salutation	-10.9454
▁sculpture	-10.9454
▁shaking	-10.9454
▁specified	-10.9454
▁spell	-10.9454
▁stirring	-10.9454
▁stuck	-10.9454
▁submerged	-10.9454
▁surprising	-10.9454
▁temporarily	-10.9454
▁uneasiness	-10.9454
▁uneasy	-10.9454
▁unnecessary	-10.9454
▁unreasonable	-10.9454
▁uplifted	-10.9454
▁velocity	-10.9454
▁vigilance	-10.9454
▁voluntarily	-10.9454
▁waist	-10.9454
▁wigwam	-10.9454
▁60	-10.9454
▁Donations	-10.9454
▁Japanese	-10.9454
▁Persian	-10.9454
▁beauties	-10.9454
▁breach	-10.9454
▁buoyant	-10.9454
▁capital	-10.9454
▁foreign	-10.9454
▁hatches	-10.9454
▁hurl	-10.9454
▁hush	-10.9454
▁impelled	-10.9454
▁kiss	-10.9454
▁overpower	-10.9454
▁stature	-10.9454
▁undoubtedly	-10.9454
▁verdure	-10.9454
▁vicious	-10.9454
▁welded	-10.9454
▁France	-10.9454
▁harsh	-10.9454
▁straw	-10.9454
▁waving	-10.9454
▁Grand	-10.9454
▁Much	-10.9454
▁decay	-10.9454
▁foul	-10.9454
▁peering	-10.9454
▁trance	-10.9454
▁cream	-10.9454
▁tidings	-10.9454
▁worm	-10.9454
▁trick	-10.9454
▁zone	-10.9454
▁Often	-10.9454
▁gorge	-10.9454
▁risk	-10.9454
▁Mouse	-10.9454
▁placing	-10.9454
▁helmsman	-10.9454
▁hauled	-10.9454
▁threatened	-10.9454
▁bury	-10.9454
▁crystal	-10.9454
▁donate	-10.9454
▁veil	-10.9454
▁blew	-10.9454
▁moored	-10.9454
▁More	-10.9454
▁Hence	-10.9454
▁imprudence	-10.9454
▁adorn	-10.9454
▁softened	-10.9454
▁amazing	-10.9454
▁indicate	-10.9454
▁lull	-10.9454
qualified	-10.9454
▁brace	-10.9454
▁effectual	-10.9454
▁begun	-10.9454
▁employee	-10.9454
ermon	-10.9454
▁gracious	-10.9455
▁rumors	-10.9455
▁feeding	-10.9455
▁beget	-10.9455
▁descent	-10.9455
▁twin	-10.9455
▁entail	-10.9455
▁moonlight	-10.9455
▁divers	-10.9456
▁House	-10.9456
▁picturesque	-10.9456
▁confirmation	-10.9456
resuming	-10.9456
escent	-10.9456
▁sanct	-10.9456
▁entreaties	-10.9457
▁heroes	-10.9457
▁stripped	-10.9457
▁tread	-10.9458
▁precede	-10.9458
▁rough	-10.9458
▁lane	-10.9459
circular	-10.9459
▁powder	-10.9459
▁staff	-10.9459
▁15	-10.9459
▁passionate	-10.946
▁boundary	-10.946
▁headsman	-10.9462
▁electronically	-10.9462
▁murderous	-10.9462
▁ox	-10.9463
▁wickedness	-10.9463
▁gown	-10.9463
▁slate	-10.9463
▁spark	-10.9463
▁speechless	-10.9463
cock	-10.9464
▁Will	-10.9464
▁laborious	-10.9464
▁fatality	-10.9465
▁remotest	-10.9466
▁published	-10.9466
▁startled	-10.9466
▁honorable	-10.9466
▁justified	-10.9467
▁Use	-10.9468
▁glare	-10.9473
▁bitterest	-10.9474
.4.	-10.9475
▁curve	-10.9476
▁surmise	-10.9478
▁northward	-10.9478
▁tenderness	-10.9479
▁shaken	-10.948
▁lodged	-10.9481
▁heartily	-10.9482
▁respective	-10.9482
▁guided	-10.9485
▁Hare	-10.9487
▁milky	-10.9489
▁enabled	-10.9489
▁firmness	-10.9489
▁exasperated	-10.9489
file	-10.949
▁popularly	-10.9491
▁repeating	-10.9491
▁Young	-10.9494
ounce	-10.9496
▁banished	-10.9497
▁resigned	-10.9497
▁executed	-10.9497
.5.	-10.9501
▁paced	-10.9501
▁masses	-10.9503
.6.	-10.9503
▁selected	-10.9505
▁steered	-10.9505
▁shuddered	-10.9505
▁hoisting	-10.9508
▁steering	-10.9508
▁extinguished	-10.9513
▁entreated	-10.9513
▁dined	-10.9515
▁practically	-10.9518
▁restless	-10.9522
▁swinging	-10.9524
▁dashing	-10.9525
▁surrounding	-10.9527
▁doom	-10.9528
▁inhabited	-10.9528
▁maintained	-10.9528
▁bade	-10.9529
▁loudly	-10.9535
▁principally	-10.9535
▁packed	-10.9536
▁hovering	-10.9549
▁constantly	-10.9549
▁separately	-10.9553
▁snatched	-10.956
▁eternally	-10.9566
▁attacked	-10.9568
▁conveyed	-10.9568
imming	-10.9568
▁swamp	-10.9572
▁later	-10.9576
▁lurking	-10.959
▁operate	-10.962
▁swelled	-10.9638
▁rum	-10.9649
▁West	-10.9667
▁pious	-10.9709
▁playful	-10.9734
▁periodical	-10.9796
▁leader	-10.9805
Spout	-10.9836
▁Cha	-10.9848
VI	-10.9922
shaped	-10.9952
fashioned	-11.0033
▁east	-11.0079
▁clam	-11.0143
lets	-11.0301
▁Gu	-11.0334
▁ride	-11.0374
▁Cat	-11.0395
▁cruise	-11.0514
utting	-11.0611
▁Bal	-11.0652
▁palm	-11.0699
shore	-11.073
▁shudder	-11.0734
▁steer	-11.0762
▁hoist	-11.0764
▁hunter	-11.0765
▁contemplat	-11.0819
▁confirm	-11.0822
▁overwhelm	-11.0824
▁select	-11.0824
▁abandon	-11.0825
▁condemn	-11.0825
▁suspend	-11.0826
▁insert	-11.0828
▁instruct	-11.0836
▁won	-11.0838
▁encourage	-11.0849
▁absolute	-11.0851
▁mechanical	-11.0851
▁serve	-11.0851
▁lodge	-11.0851
▁rejoice	-11.0852
▁issue	-11.0852
▁soothe	-11.0852
▁examine	-11.0852
▁calculate	-11.0852
▁decide	-11.0853
mark	-11.0853
though	-11.0854
▁excessive	-11.0854
hunter	-11.0855
▁revive	-11.0856
cloth	-11.0856
luck	-11.0857
seven	-11.0857
horse	-11.0857
night	-11.0857
spring	-11.0857
down	-11.0857
with	-11.0857
born	-11.0859
▁acknowledge	-11.0861
▁total	-11.0863
tree	-11.0868
thought	-11.0871
▁wicked	-11.0872
▁arrange	-11.0873
▁Tru	-11.0875
▁hemp	-11.0878
▁quarrel	-11.0879
▁knot	-11.0879
▁concentr	-11.088
▁repent	-11.088
▁Whi	-11.0881
▁differ	-11.0882
▁maxim	-11.0882
▁temple	-11.0882
]	-11.0882
knives	-11.0882
▁Agrippa	-11.0882
▁Black	-11.0882
▁Caterpillar	-11.0882
▁Duchess	-11.0882
▁Emperor	-11.0882
▁Equator	-11.0882
▁Holland	-11.0882
▁Krempe	-11.0882
▁Lambton	-11.0882
▁Manxman	-11.0882
▁Michael	-11.0882
▁Moreover	-11.0882
▁Reynolds	-11.0882
▁Scoresby	-11.0882
▁Second	-11.0882
▁Tahiti	-11.0882
▁Waldman	-11.0882
▁Wednesday	-11.0882
▁York	-11.0882
▁abundant	-11.0882
▁accordance	-11.0882
▁adventurous	-11.0882
▁arranging	-11.0882
▁assembled	-11.0882
▁bowsprit	-11.0882
▁colossal	-11.0882
▁commendation	-11.0882
▁congenial	-11.0882
▁connexion	-11.0882
▁continuous	-11.0882
▁depressed	-11.0882
▁dexterous	-11.0882
▁direful	-11.0882
▁disclose	-11.0882
▁dismay	-11.0882
▁dispute	-11.0882
▁district	-11.0882
▁dripping	-11.0882
▁drunk	-11.0882
▁dungeon	-11.0882
▁earthquake	-11.0882
▁ecstasy	-11.0882
▁empire	-11.0882
▁entangled	-11.0882
▁glorious	-11.0882
▁gloves	-11.0882
▁guinea	-11.0882
▁handkerchief	-11.0882
▁hatchway	-11.0882
▁hedgehog	-11.0882
▁hospital	-11.0882
▁hurt	-11.0882
▁immemorial	-11.0882
▁imminent	-11.0882
▁infancy	-11.0882
▁inference	-11.0882
▁infernal	-11.0882
▁innermost	-11.0882
▁insensible	-11.0882
▁integrity	-11.0882
▁intrepid	-11.0882
▁laboratory	-11.0882
▁loggerhead	-11.0882
▁meditation	-11.0882
▁miserably	-11.0882
▁muscle	-11.0882
▁mushroom	-11.0882
▁oppressed	-11.0882
▁overtake	-11.0882
▁peasants	-11.0882
▁perpetually	-11.0882
▁pilgrim	-11.0882
▁pillow	-11.0882
▁plentiful	-11.0882
▁polished	-11.0882
▁preference	-11.0882
▁promontory	-11.0882
▁proprietor	-11.0882
▁punctual	-11.0882
▁refusing	-11.0882
▁repetition	-11.0882
▁requiring	-11.0882
▁sagacious	-11.0882
▁securing	-11.0882
▁shaggy	-11.0882
▁shavings	-11.0882
▁somebody	-11.0882
▁soothing	-11.0882
▁specimen	-11.0882
▁studied	-11.0882
▁surgeon	-11.0882
▁suspense	-11.0882
▁swore	-11.0882
▁tattooed	-11.0882
▁torrent	-11.0882
▁trifling	-11.0882
▁trumpet	-11.0882
▁tumult	-11.0882
▁twisted	-11.0882
▁unequal	-11.0882
▁unfrequent	-11.0882
▁unprotected	-11.0882
▁welfare	-11.0882
▁whip	-11.0882
▁Alps	-11.0882
▁Lacey	-11.0882
▁Virgin	-11.0882
▁abrupt	-11.0882
▁array	-11.0882
▁brood	-11.0882
▁capstan	-11.0882
▁cattle	-11.0882
▁clung	-11.0882
▁cluster	-11.0882
▁condescend	-11.0882
▁conflict	-11.0882
▁constrain	-11.0882
▁detain	-11.0882
▁detect	-11.0882
▁drift	-11.0882
▁eluded	-11.0882
▁enraged	-11.0882
▁fibres	-11.0882
▁imposed	-11.0882
▁indefinite	-11.0882
▁mysteries	-11.0882
▁neighbor	-11.0882
▁obsolete	-11.0882
▁odious	-11.0882
▁overspread	-11.0882
▁relinquish	-11.0882
▁rugged	-11.0882
▁secluded	-11.0882
▁sweat	-11.0882
▁threads	-11.0882
▁transported	-11.0882
▁carpet	-11.0882
▁compact	-11.0882
▁decent	-11.0882
▁feast	-11.0882
▁group	-11.0882
▁kingdom	-11.0882
▁parson	-11.0882
▁pencil	-11.0882
▁purse	-11.0882
▁roast	-11.0882
ssault	-11.0882
▁drab	-11.0882
▁overthrow	-11.0882
▁anoint	-11.0882
▁crooked	-11.0882
▁management	-11.0882
▁shirt	-11.0882
▁slackened	-11.0882
▁southern	-11.0882
▁spilled	-11.0882
▁Southern	-11.0882
▁batter	-11.0882
▁sloping	-11.0882
educated	-11.0882
▁bethink	-11.0882
▁dedicat	-11.0882
▁Italian	-11.0882
▁justify	-11.0882
▁Hope	-11.0882
▁courtesy	-11.0882
▁lingering	-11.0882
▁sang	-11.0882
▁Peru	-11.0882
▁orphan	-11.0882
▁tusk	-11.0882
▁bump	-11.0882
▁implement	-11.0882
▁yoke	-11.0882
continent	-11.0882
▁income	-11.0882
▁Mont	-11.0882
▁unfolded	-11.0882
▁weaving	-11.0882
▁brit	-11.0882
▁farewell	-11.0882
▁nowhere	-11.0882
▁steal	-11.0882
▁madden	-11.0883
▁buy	-11.0883
▁defy	-11.0883
▁hooded	-11.0883
▁Sag	-11.0883
▁coral	-11.0883
▁rescue	-11.0883
▁wrist	-11.0883
watch	-11.0883
▁Other	-11.0883
▁inherit	-11.0883
▁vertical	-11.0883
▁Adam	-11.0883
▁Say	-11.0883
▁remainder	-11.0883
▁scrape	-11.0883
▁hut	-11.0883
▁stepping	-11.0883
▁bond	-11.0883
▁cheat	-11.0883
▁ugly	-11.0883
▁dismal	-11.0883
▁icy	-11.0883
▁fruit	-11.0883
▁sheath	-11.0884
▁folds	-11.0884
▁berth	-11.0884
▁sell	-11.0884
▁Plat	-11.0884
▁incidentally	-11.0884
▁Shall	-11.0884
▁snapped	-11.0885
▁abounding	-11.0885
▁encouragement	-11.0885
▁prick	-11.0885
▁sober	-11.0885
▁dirt	-11.0885
▁travelled	-11.0885
▁graze	-11.0885
▁foremast	-11.0885
▁sunrise	-11.0885
▁travelling	-11.0886
▁invade	-11.0886
▁missed	-11.0886
▁naturalists	-11.0886
▁missing	-11.0886
▁Italy	-11.0886
▁prime	-11.0886
▁fluid	-11.0886
▁failure	-11.0887
▁commencement	-11.0887
▁baleen	-11.0888
▁preside	-11.0888
▁vitality	-11.0888
▁beasts	-11.0888
▁shine	-11.0888
▁reverence	-11.0889
▁levelled	-11.0889
four	-11.089
▁diligently	-11.089
▁devilish	-11.089
▁renewal	-11.089
▁Bible	-11.0891
▁denote	-11.0891
▁fiendish	-11.0891
▁humor	-11.0891
▁curled	-11.0892
▁suitable	-11.0892
▁punch	-11.0893
▁Out	-11.0893
▁breakers	-11.0893
▁gallant	-11.0895
▁Hand	-11.0895
▁reasonably	-11.0895
▁diffused	-11.0896
▁Har	-11.0897
▁wisest	-11.0897
▁exile	-11.0897
▁mystical	-11.0898
▁Soup	-11.0899
▁breathless	-11.09
▁excitement	-11.09
▁obliquely	-11.09
▁laughter	-11.0901
▁entreaty	-11.0901
▁discoveries	-11.0901
▁daylight	-11.0902
▁arisen	-11.0903
▁Fate	-11.0903
▁tablets	-11.0903
▁bred	-11.0904
▁stave	-11.0905
▁steadfastly	-11.0905
▁mournful	-11.0908
▁momentary	-11.0909
▁whereby	-11.091
▁graceful	-11.0912
▁served	-11.0914
▁honourable	-11.0914
▁peculiarity	-11.0915
▁swiftness	-11.0917
▁government	-11.0918
▁conversed	-11.0918
▁sickness	-11.092
▁letting	-11.0921
Town	-11.0922
▁addresses	-11.0923
▁risen	-11.0924
▁earnestness	-11.0925
▁briefly	-11.0926
▁disk	-11.0927
▁revived	-11.0928
▁morrow	-11.093
▁speedy	-11.0931
unning	-11.0931
▁infinitely	-11.0931
▁brown	-11.0939
▁overwhelmed	-11.0941
▁conjectured	-11.0943
▁procession	-11.0945
▁Were	-11.0959
rise	-11.0984
▁heeded	-11.1002
mas	-11.1028
ria	-11.1042
▁apt	-11.112
stained	-11.1197
▁formation	-11.1294
▁magnetic	-11.1346
flung	-11.1596
wearied	-11.1643
denial	-11.1748
Sub	-11.1821
ER	-11.1821
▁sho	-11.1882
▁cell	-11.2044
tten	-11.2183
H	-11.2213
▁affect	-11.2356
▁league	-11.2365
▁fluke	-11.2371
▁nation	-11.2379
▁surround	-11.2394
rried	-11.2438
▁execut	-11.2481
▁connect	-11.2487
▁resign	-11.249
▁banish	-11.249
▁strand	-11.2491
▁vanish	-11.2493
▁stun	-11.2511
▁infidel	-11.2512
▁consume	-11.2518
▁propose	-11.2518
ridge	-11.2519
▁divide	-11.2519
▁compose	-11.2519
▁resolve	-11.252
eight	-11.2521
stricken	-11.2523
profit	-11.2523
field	-11.2523
fellow	-11.2524
sight	-11.2524
mother	-11.2524
which	-11.2524
path	-11.2524
about	-11.2525
▁revel	-11.2525
▁Sunda	-11.2533
▁labor	-11.2534
▁pla	-11.2537
▁equ	-11.254
▁rap	-11.254
▁corrupt	-11.2544
▁cultivat	-11.2544
▁avail	-11.2545
▁despond	-11.2546
▁confide	-11.2547
▁hypo	-11.2547
▁Green	-11.2548
ization	-11.2549
▁Japan	-11.2549
▁defend	-11.2549
▁Cabin	-11.2549
▁buffalo	-11.2549
rchipelagoes	-11.2549
▁Beaufort	-11.2549
▁Canallers	-11.2549
▁Cetology	-11.2549
▁Chief	-11.2549
▁Elijah	-11.2549
▁Enderby	-11.2549
▁Everybody	-11.2549
▁Gryphon	-11.2549
▁Lazarus	-11.2549
▁Lodge	-11.2549
▁Methinks	-11.2549
▁Moritz	-11.2549
▁Natural	-11.2549
▁Nearly	-11.2549
▁Pictures	-11.2549
▁Rachel	-11.2549
▁Rhine	-11.2549
▁Samuel	-11.2549
▁Sumatra	-11.2549
▁Temple	-11.2549
▁Typhoon	-11.2549
▁Whaling	-11.2549
▁accosted	-11.2549
▁accursed	-11.2549
▁adapted	-11.2549
▁adrift	-11.2549
▁advisable	-11.2549
▁alternate	-11.2549
▁anticipated	-11.2549
▁approbation	-11.2549
▁artificial	-11.2549
▁audacious	-11.2549
▁autumn	-11.2549
▁barrier	-11.2549
▁beggar	-11.2549
▁berries	-11.2549
▁bewildered	-11.2549
▁celebrat	-11.2549
▁circumference	-11.2549
▁commercial	-11.2549
▁competent	-11.2549
▁confound	-11.2549
▁conquered	-11.2549
▁continuing	-11.2549
▁contradict	-11.2549
▁coronation	-11.2549
▁crotch	-11.2549
▁dazzling	-11.2549
▁declaration	-11.2549
▁deference	-11.2549
▁deformed	-11.2549
▁deformity	-11.2549
▁delicious	-11.2549
▁desolation	-11.2549
▁disadvantage	-11.2549
▁disciple	-11.2549
▁disengaged	-11.2549
▁disinterested	-11.2549
▁distracted	-11.2549
▁dumplings	-11.2549
▁elevating	-11.2549
▁embalmed	-11.2549
▁embarrassed	-11.2549
▁encouraging	-11.2549
▁engaging	-11.2549
▁enlightened	-11.2549
▁estimation	-11.2549
▁examining	-11.2549
▁excellence	-11.2549
▁exclusion	-11.2549
▁exempt	-11.2549
▁exposing	-11.2549
▁extended	-11.2549
▁extending	-11.2549
▁facility	-11.2549
▁fervent	-11.2549
▁forbade	-11.2549
▁fragment	-11.2549
▁fragrant	-11.2549
▁gamesome	-11.2549
▁genuine	-11.2549
▁ghastly	-11.2549
▁girth	-11.2549
▁gravity	-11.2549
▁grievous	-11.2549
▁harbour	-11.2549
▁histories	-11.2549
▁identify	-11.2549
▁imperfect	-11.2549
▁impregna	-11.2549
▁inaccessible	-11.2549
▁independence	-11.2549
▁indignant	-11.2549
▁inexpressibl	-11.2549
▁innumerable	-11.2549
▁instantaneous	-11.2549
▁interchange	-11.2549
▁interfere	-11.2549
▁internal	-11.2549
▁interview	-11.2549
▁invaluable	-11.2549
▁jeopardy	-11.2549
▁kitchen	-11.2549
▁landscape	-11.2549
▁malignant	-11.2549
▁masonry	-11.2549
▁miracle	-11.2549
▁mirror	-11.2549
▁murmur	-11.2549
▁mutiny	-11.2549
▁narrated	-11.2549
▁narration	-11.2549
▁nostrils	-11.2549
▁novelty	-11.2549
▁opposing	-11.2549
▁overbearing	-11.2549
▁palpable	-11.2549
▁parlor	-11.2549
▁perverseness	-11.2549
▁phenomenon	-11.2549
▁phrase	-11.2549
▁pitiable	-11.2549
▁plunging	-11.2549
▁portentous	-11.2549
▁practice	-11.2549
▁precaution	-11.2549
▁precipitat	-11.2549
▁producing	-11.2549
▁pronouncing	-11.2549
▁purple	-11.2549
▁raising	-11.2549
▁receipt	-11.2549
▁refusal	-11.2549
▁regulate	-11.2549
▁relating	-11.2549
▁removal	-11.2549
▁repugnance	-11.2549
▁resembling	-11.2549
▁sallied	-11.2549
▁scolding	-11.2549
▁scraping	-11.2549
▁slippery	-11.2549
▁stubborn	-11.2549
▁student	-11.2549
▁subscribe	-11.2549
▁sucking	-11.2549
▁taffrail	-11.2549
▁tattooing	-11.2549
▁technically	-11.2549
▁tendency	-11.2549
▁testimony	-11.2549
▁thigh	-11.2549
▁throat	-11.2549
▁track	-11.2549
▁traditions	-11.2549
▁traversed	-11.2549
▁tribute	-11.2549
▁twain	-11.2549
▁twilight	-11.2549
▁unaffected	-11.2549
▁unceasing	-11.2549
▁undertake	-11.2549
▁university	-11.2549
▁vacancy	-11.2549
▁vexed	-11.2549
▁vibrating	-11.2549
▁violate	-11.2549
▁virgin	-11.2549
▁voluntary	-11.2549
▁vulture	-11.2549
▁warrior	-11.2549
▁wight	-11.2549
▁woollen	-11.2549
▁yourselves	-11.2549
feeder	-11.2549
▁Cologne	-11.2549
▁Several	-11.2549
▁Zealand	-11.2549
▁affront	-11.2549
▁apprehend	-11.2549
▁argue	-11.2549
▁ascertain	-11.2549
▁borrow	-11.2549
▁caution	-11.2549
▁churning	-11.2549
▁climes	-11.2549
▁conciliat	-11.2549
▁crazy	-11.2549
▁device	-11.2549
▁devout	-11.2549
▁dolphin	-11.2549
▁drench	-11.2549
▁essay	-11.2549
▁flitting	-11.2549
▁glimmer	-11.2549
▁jury	-11.2549
▁knight	-11.2549
▁livid	-11.2549
▁overheard	-11.2549
▁pallid	-11.2549
▁pertain	-11.2549
▁prince	-11.2549
▁profane	-11.2549
▁raft	-11.2549
▁reckon	-11.2549
▁roof	-11.2549
▁scratch	-11.2549
▁sensitive	-11.2549
▁slouched	-11.2549
▁splash	-11.2549
▁tapers	-11.2549
▁transition	-11.2549
▁universe	-11.2549
▁vault	-11.2549
▁veins	-11.2549
▁western	-11.2549
▁Mountains	-11.2549
▁bliss	-11.2549
▁bought	-11.2549
▁brook	-11.2549
▁brush	-11.2549
▁caprice	-11.2549
▁chapel	-11.2549
▁expanse	-11.2549
▁formidable	-11.2549
▁fuel	-11.2549
▁instinctively	-11.2549
▁mockery	-11.2549
▁outlandish	-11.2549
▁pallor	-11.2549
▁spinal	-11.2549
▁stories	-11.2549
▁submit	-11.2549
▁twig	-11.2549
▁insanity	-11.2549
▁complied	-11.2549
▁entry	-11.2549
▁recess	-11.2549
▁shuttle	-11.2549
▁steersman	-11.2549
▁sulk	-11.2549
▁deceit	-11.2549
▁flounder	-11.2549
▁replaced	-11.2549
▁Both	-11.2549
▁Surely	-11.2549
▁barren	-11.2549
▁slack	-11.2549
▁Down	-11.2549
▁envy	-11.2549
▁meditate	-11.2549
▁wail	-11.2549
▁wilt	-11.2549
▁imputed	-11.2549
▁subdued	-11.2549
▁raving	-11.2549
▁sleet	-11.2549
▁mingled	-11.2549
▁unfit	-11.2549
▁grinning	-11.2549
▁hoops	-11.2549
▁isolated	-11.2549
▁Woe	-11.2549
▁humming	-11.2549
▁dragging	-11.2549
▁kid	-11.2549
▁faded	-11.2549
▁colt	-11.2549
▁rifle	-11.2549
▁sharing	-11.2549
▁shallow	-11.2549
▁imitate	-11.2549
▁Islands	-11.2549
▁manager	-11.2549
▁reef	-11.2549
▁apology	-11.2549
▁hardships	-11.2549
▁swaying	-11.2549
▁pacing	-11.2549
▁shining	-11.2549
▁landsman	-11.255
▁unpleasant	-11.255
▁ingenious	-11.255
▁humility	-11.255
▁endued	-11.255
▁merry	-11.255
quietude	-11.255
Harbor	-11.255
▁heathenish	-11.255
▁discernible	-11.255
▁Curse	-11.2551
▁establishment	-11.2551
▁ninety	-11.2551
▁profile	-11.2551
▁acknowledgment	-11.2551
▁vale	-11.2551
▁June	-11.2551
▁omitted	-11.2551
▁alien	-11.2551
▁inscrutable	-11.2551
▁bony	-11.2551
▁cruelty	-11.2551
▁afore	-11.2551
▁complaints	-11.2552
▁anew	-11.2552
hawk	-11.2552
▁annihilation	-11.2552
▁foremost	-11.2553
▁swart	-11.2553
▁hellish	-11.2553
▁Turkish	-11.2553
▁antiquity	-11.2554
▁losing	-11.2554
▁posture	-11.2554
▁halt	-11.2555
▁5.	-11.2555
▁contemplation	-11.2555
▁Frenchman	-11.2555
▁attendance	-11.2555
Deck	-11.2555
▁entertainment	-11.2555
▁pasture	-11.2556
▁guiltless	-11.2556
▁abilities	-11.2557
▁outrage	-11.2557
▁demi	-11.2557
▁16	-11.2557
▁Hill	-11.2557
▁utterance	-11.2558
rigger	-11.2558
▁hempen	-11.2558
▁sunlight	-11.2558
▁sidelong	-11.2558
▁sorrowful	-11.2559
▁loveliness	-11.2559
▁sunny	-11.2559
▁Fri	-11.2561
▁gentlemanlike	-11.2561
▁Cook	-11.2561
▁headlong	-11.2561
▁rapidity	-11.2562
▁allowance	-11.2562
▁surviv	-11.2563
▁schoolmaster	-11.2564
▁rot	-11.2566
▁model	-11.2566
▁job	-11.2566
▁selfishness	-11.2567
▁carelessness	-11.2567
▁joist	-11.2568
erns	-11.2569
▁deliverer	-11.2569
▁watchful	-11.257
▁stark	-11.257
▁artist	-11.257
▁measureless	-11.257
ompanies	-11.2571
▁successive	-11.2572
▁Try	-11.2572
▁superiority	-11.2573
▁amaze	-11.2575
▁trip	-11.2575
▁solace	-11.2576
▁gardeners	-11.2577
▁eaten	-11.2578
▁restraint	-11.2581
▁scenery	-11.2582
▁planet	-11.2586
▁habitation	-11.2589
▁tough	-11.2589
▁fame	-11.2593
▁forests	-11.2597
fulfilled	-11.2599
▁Tea	-11.2605
putable	-11.2608
▁bark	-11.2626
▁angle	-11.2666
▁phrenolog	-11.2748
▁Hart	-11.2788
does	-11.2845
▁Pro	-11.3109
Head	-11.3186
▁envelop	-11.3367
lbs	-11.3622
awed	-11.3724
▁magnet	-11.3916
bolts	-11.4093
bearer	-11.4296
Inn	-11.4314
▁symptom	-11.4364
▁represent	-11.4396
faced	-11.4414
▁explo	-11.4421
▁repeat	-11.4431
spirited	-11.4485
▁attach	-11.449
▁exasperat	-11.449
▁drown	-11.4491
▁detach	-11.4491
▁dispos	-11.4493
▁corn	-11.4499
▁corps	-11.4507
▁steadfast	-11.4516
known	-11.4516
▁consequent	-11.4517
▁presume	-11.4518
▁communicate	-11.4519
▁revolve	-11.4519
▁grieve	-11.4519
▁deceive	-11.4519
▁elevate	-11.4519
▁invite	-11.4519
▁rouse	-11.4521
▁glide	-11.4522
chains	-11.4523
finished	-11.4523
captain	-11.4524
making	-11.4524
woman	-11.4524
felt	-11.4524
rolling	-11.4528
said	-11.453
door	-11.4531
▁extinct	-11.4544
▁eighteen	-11.4546
▁commit	-11.4546
▁circu	-11.4547
▁van	-11.4547
▁bale	-11.4547
▁forbear	-11.4547
acious	-11.4548
bject	-11.4548
▁transfer	-11.4548
Y	-11.4549
prudence	-11.4549
▁yaw	-11.4549
RPO	-11.4549
▁communi	-11.4549
▁Vineyard	-11.4549
▁acquiesce	-11.4549
▁desperado	-11.4549
Back	-11.4549
Illustration	-11.4549
QUE	-11.4549
apprehensive	-11.4549
eminent	-11.4549
fabulous	-11.4549
legged	-11.4549
substantial	-11.4549
▁Adieu	-11.4549
▁Alabama	-11.4549
▁August	-11.4549
▁Bachelor	-11.4549
▁Between	-11.4549
▁British	-11.4549
▁Bulkington	-11.4549
▁Chamounix	-11.4549
▁Commodore	-11.4549
▁Constantinople	-11.4549
▁Cornelius	-11.4549
▁Cuvier	-11.4549
▁Except	-11.4549
▁Farewell	-11.4549
▁Instantly	-11.4549
▁Jeroboam	-11.4549
▁Jones	-11.4549
▁Jove	-11.4549
▁KIN	-11.4549
▁Knave	-11.4549
▁Leghorn	-11.4549
▁Listen	-11.4549
▁Little	-11.4549
▁Madame	-11.4549
▁Matlock	-11.4549
▁Narwhale	-11.4549
▁Newcastle	-11.4549
▁Oriental	-11.4549
▁Oxford	-11.4549
▁Paracelsus	-11.4549
▁Perseus	-11.4549
▁Pliny	-11.4549
▁Professor	-11.4549
▁Scotch	-11.4549
▁September	-11.4549
▁Squire	-11.4549
▁Swiss	-11.4549
▁Tarshish	-11.4549
▁Tartar	-11.4549
▁Venetian	-11.4549
▁Vishnoo	-11.4549
▁WILL	-11.4549
▁Wood	-11.4549
▁XXX	-11.4549
▁abominabl	-11.4549
▁absorbed	-11.4549
▁achieved	-11.4549
▁acquired	-11.4549
▁adversary	-11.4549
▁aggregate	-11.4549
▁albatross	-11.4549
▁anatomical	-11.4549
▁antique	-11.4549
▁apothecary	-11.4549
▁apparel	-11.4549
▁avalanche	-11.4549
▁awhile	-11.4549
▁befriend	-11.4549
▁behaved	-11.4549
▁betoken	-11.4549
▁blazing	-11.4549
▁boisterous	-11.4549
▁bubbling	-11.4549
▁bustle	-11.4549
▁calculating	-11.4549
▁catastrophe	-11.4549
▁cavity	-11.4549
▁ceiling	-11.4549
▁censure	-11.4549
▁chemical	-11.4549
▁choked	-11.4549
▁circling	-11.4549
▁cliffs	-11.4549
▁climate	-11.4549
▁college	-11.4549
▁commerce	-11.4549
▁complacency	-11.4549
▁complicated	-11.4549
▁comprehensive	-11.4549
▁congratulate	-11.4549
▁congregation	-11.4549
▁credulous	-11.4549
▁defence	-11.4549
▁deficiency	-11.4549
▁definition	-11.4549
▁dejection	-11.4549
▁demoniac	-11.4549
▁depict	-11.4549
▁despatched	-11.4549
▁destination	-11.4549
▁destitute	-11.4549
▁detestation	-11.4549
▁development	-11.4549
▁dialogue	-11.4549
▁diffidence	-11.4549
▁diligence	-11.4549
▁disapprobation	-11.4549
▁dismissed	-11.4549
▁dispersed	-11.4549
▁displeasure	-11.4549
▁dusky	-11.4549
▁dyspepsia	-11.4549
▁eligible	-11.4549
▁eloquence	-11.4549
▁encompassed	-11.4549
▁enlarge	-11.4549
▁entitled	-11.4549
▁environs	-11.4549
▁essence	-11.4549
▁essential	-11.4549
▁examination	-11.4549
▁expedition	-11.4549
▁filthy	-11.4549
▁foreboding	-11.4549
▁frigate	-11.4549
▁furnace	-11.4549
▁gaiety	-11.4549
▁glistening	-11.4549
▁groove	-11.4549
▁guise	-11.4549
▁gurgling	-11.4549
▁havoc	-11.4549
▁hereditary	-11.4549
▁holiday	-11.4549
▁iceberg	-11.4549
▁identity	-11.4549
▁immovable	-11.4549
▁immutable	-11.4549
▁impertinence	-11.4549
▁impertinent	-11.4549
▁impotent	-11.4549
▁impropriety	-11.4549
▁inanimate	-11.4549
▁incredulity	-11.4549
▁indicating	-11.4549
▁ineffectual	-11.4549
▁inevitable	-11.4549
▁inevitably	-11.4549
▁inexplicable	-11.4549
▁insurmountable	-11.4549
▁intricacies	-11.4549
▁introducing	-11.4549
▁irrevocably	-11.4549
▁knelt	-11.4549
▁languor	-11.4549
▁loathsome	-11.4549
▁lounging	-11.4549
▁lustre	-11.4549
▁militia	-11.4549
▁millions	-11.4549
▁miscellaneous	-11.4549
▁monotonous	-11.4549
▁monument	-11.4549
▁mortifying	-11.4549
▁navies	-11.4549
▁nonsense	-11.4549
▁obstacle	-11.4549
▁obstinate	-11.4549
▁occupy	-11.4549
▁overflowing	-11.4549
▁parallel	-11.4549
▁parcel	-11.4549
▁parched	-11.4549
▁perplexity	-11.4549
▁perseverance	-11.4549
▁plaintiffs	-11.4549
▁policy	-11.4549
▁potency	-11.4549
▁precision	-11.4549
▁pretence	-11.4549
▁procedure	-11.4549
▁prosperity	-11.4549
▁puppy	-11.4549
▁rattling	-11.4549
▁refreshment	-11.4549
▁regulating	-11.4549
▁relics	-11.4549
▁resolutely	-11.4549
▁rubbing	-11.4549
▁salvation	-11.4549
▁savor	-11.4549
▁schooner	-11.4549
▁sensibility	-11.4549
▁sensibly	-11.4549
▁significance	-11.4549
▁sketch	-11.4549
▁smart	-11.4549
▁smiting	-11.4549
▁smitten	-11.4549
▁speculati	-11.4549
▁sprung	-11.4549
▁struggling	-11.4549
▁substantiate	-11.4549
▁substitute	-11.4549
▁subterranean	-11.4549
▁superfluous	-11.4549
▁superlative	-11.4549
▁surrender	-11.4549
▁swarming	-11.4549
▁swerve	-11.4549
▁symmetrical	-11.4549
▁tambourine	-11.4549
▁tobacco	-11.4549
▁trample	-11.4549
▁transcribe	-11.4549
▁triangular	-11.4549
▁unacquainted	-11.4549
▁unconditional	-11.4549
▁unguarded	-11.4549
▁unimaginable	-11.4549
▁unmolested	-11.4549
▁unparalleled	-11.4549
▁unsettled	-11.4549
▁unsolicited	-11.4549
▁unwonted	-11.4549
▁uprising	-11.4549
▁varied	-11.4549
▁varieties	-11.4549
▁vengeful	-11.4549
▁vestibule	-11.4549
▁vibration	-11.4549
▁vindictive	-11.4549
▁vintage	-11.4549
▁vivacity	-11.4549
▁wafted	-11.4549
▁withdrawing	-11.4549
▁woven	-11.4549
▁zeal	-11.4549
▁Pagan	-11.4549
▁Please	-11.4549
▁bridal	-11.4549
▁capacity	-11.4549
▁captive	-11.4549
▁caulk	-11.4549
▁chisel	-11.4549
▁coincid	-11.4549
▁complaisance	-11.4549
▁concert	-11.4549
▁consecrat	-11.4549
▁correspondence	-11.4549
▁crimson	-11.4549
▁dependence	-11.4549
▁detestable	-11.4549
▁dipped	-11.4549
▁discontent	-11.4549
▁elect	-11.4549
▁ensuing	-11.4549
▁fancies	-11.4549
▁festoon	-11.4549
▁fifth	-11.4549
▁forgetfulness	-11.4549
▁fossil	-11.4549
▁frock	-11.4549
▁genial	-11.4549
▁glories	-11.4549
▁hazard	-11.4549
▁ignit	-11.4549
▁larboard	-11.4549
▁lingered	-11.4549
▁moderation	-11.4549
▁modification	-11.4549
▁nibbl	-11.4549
▁organized	-11.4549
▁portents	-11.4549
▁stomach	-11.4549
▁stroll	-11.4549
▁surmount	-11.4549
▁synonymous	-11.4549
▁thrill	-11.4549
▁tragic	-11.4549
▁trifle	-11.4549
▁twitch	-11.4549
▁unresting	-11.4549
▁walrus	-11.4549
▁wreak	-11.4549
ological	-11.4549
▁Begone	-11.4549
▁Czar	-11.4549
▁cheap	-11.4549
▁cogent	-11.4549
▁combination	-11.4549
▁fluttering	-11.4549
▁mizen	-11.4549
▁modified	-11.4549
▁patent	-11.4549
▁predict	-11.4549
▁robust	-11.4549
▁unlucky	-11.4549
▁woof	-11.4549
▁Three	-11.4549
▁consort	-11.4549
▁expend	-11.4549
▁funeral	-11.4549
▁gasping	-11.4549
▁insolent	-11.4549
▁local	-11.4549
▁rays	-11.4549
▁sheltered	-11.4549
▁slender	-11.4549
▁trait	-11.4549
▁verdant	-11.4549
udding	-11.4549
▁Russia	-11.4549
▁ginger	-11.4549
▁pulse	-11.4549
▁trail	-11.4549
▁Since	-11.4549
▁Title	-11.4549
▁agonies	-11.4549
▁alleged	-11.4549
▁brick	-11.4549
▁exhale	-11.4549
▁gaunt	-11.4549
▁manifold	-11.4549
▁margin	-11.4549
▁plead	-11.4549
▁redeem	-11.4549
▁wallow	-11.4549
▁Owen	-11.4549
▁Tail	-11.4549
▁clue	-11.4549
▁cocoa	-11.4549
▁defendants	-11.4549
▁engrossed	-11.4549
▁hapless	-11.4549
▁seizing	-11.4549
▁fisherman	-11.4549
▁memories	-11.4549
▁modesty	-11.4549
▁wax	-11.4549
▁pledge	-11.4549
▁random	-11.4549
▁relish	-11.4549
▁splintered	-11.4549
▁Hearts	-11.4549
▁vial	-11.4549
▁Pray	-11.4549
▁settling	-11.4549
▁blot	-11.4549
▁implied	-11.4549
▁shreds	-11.4549
▁weakened	-11.4549
▁glaring	-11.4549
▁unbounded	-11.4549
▁tedious	-11.4549
▁olive	-11.4549
▁worshipping	-11.4549
▁assuring	-11.4549
▁slanting	-11.4549
▁Enter	-11.4549
▁dictate	-11.4549
▁azure	-11.4549
▁slew	-11.4549
▁candour	-11.4549
▁deaf	-11.4549
▁regal	-11.4549
▁splinters	-11.4549
▁Old	-11.4549
▁cooper	-11.4549
▁scent	-11.4549
▁dock	-11.4549
▁patroness	-11.4549
▁Mark	-11.4549
▁anvil	-11.4549
▁mock	-11.4549
▁dotted	-11.4549
▁oftentimes	-11.4549
▁Bay	-11.4549
▁Dodo	-11.4549
▁bellies	-11.4549
▁straightened	-11.4549
▁bidding	-11.4549
▁insect	-11.4549
▁tornado	-11.455
▁terra	-11.455
▁verbal	-11.455
▁ample	-11.455
▁Ireland	-11.455
▁cedar	-11.455
▁classification	-11.455
▁proofread	-11.455
▁counterpane	-11.455
▁chemistry	-11.455
▁equatorial	-11.455
▁amber	-11.455
▁falsehood	-11.455
▁thumb	-11.455
▁noisy	-11.455
▁rainbow	-11.455
▁construction	-11.455
▁string	-11.455
▁Likewise	-11.4551
▁hermit	-11.4551
▁shelf	-11.4551
▁yawned	-11.4551
▁yon	-11.4551
aloon	-11.4551
▁preferred	-11.4551
AN	-11.4551
barrel	-11.4551
▁impartial	-11.4552
▁repentance	-11.4552
politic	-11.4552
▁seething	-11.4552
▁accidentally	-11.4552
▁deliverance	-11.4552
▁eighteenth	-11.4552
▁midway	-11.4552
▁concentrated	-11.4553
▁resistance	-11.4553
elson	-11.4553
▁utilit	-11.4553
▁akin	-11.4553
▁barred	-11.4553
▁knotted	-11.4553
▁quarrelling	-11.4553
▁exhaustion	-11.4553
▁civilities	-11.4553
▁afar	-11.4554
▁authorities	-11.4554
control	-11.4554
▁accessible	-11.4554
Make	-11.4554
▁bridge	-11.4554
▁compress	-11.4554
▁extinction	-11.4554
▁clock	-11.4554
▁pursuers	-11.4555
▁carving	-11.4555
▁corruption	-11.4555
▁cultivation	-11.4555
▁diving	-11.4556
▁mask	-11.4556
▁comfortably	-11.4556
▁tired	-11.4556
▁solicitation	-11.4557
▁shipping	-11.4557
▁camp	-11.4557
▁FO	-11.4558
▁heedless	-11.456
▁tame	-11.4562
▁stating	-11.4563
▁Him	-11.4565
▁countless	-11.4566
▁revelation	-11.4578
▁department	-11.4601
▁epi	-11.4601
▁settlement	-11.4613
▁shameful	-11.4623
▁hateful	-11.4664
▁explore	-11.4678
tache	-11.4701
▁pitchpol	-11.4778
▁wag	-11.4811
obbed	-11.5086
RS	-11.5298
pass	-11.5386
▁pond	-11.5393
pence	-11.5418
▁digest	-11.5581
▁flip	-11.5733
judged	-11.5767
helter	-11.6328
taking	-11.6644
bag	-11.6697
fringe	-11.6794
tention	-11.6852
▁generation	-11.6867
▁parent	-11.6868
▁donation	-11.6871
well	-11.6952
cker	-11.6955
ostscript	-11.6983
▁exhaust	-11.6986
▁establish	-11.6989
▁mix	-11.6992
▁convuls	-11.7015
▁oblique	-11.7016
▁attribute	-11.7018
▁plunge	-11.7019
▁evince	-11.7019
▁pronounce	-11.7019
▁allude	-11.7019
▁oblige	-11.702
called	-11.702
gallant	-11.7022
chamber	-11.7023
ladder	-11.7023
X	-11.7023
thirst	-11.7023
break	-11.7023
importance	-11.7023
battle	-11.7023
measure	-11.7024
command	-11.7024
distribution	-11.7024
devil	-11.7024
monster	-11.7024
creatures	-11.7024
whale	-11.7024
(	-11.7024
tide	-11.7024
you	-11.7025
six	-11.7026
keeper	-11.7029
▁annihilat	-11.7044
cenes	-11.7045
tribution	-11.7046
▁omit	-11.7047
▁punish	-11.7047
▁heathen	-11.7047
▁equator	-11.7048
gencies	-11.7049
▁Plain	-11.7049
▁philosophi	-11.7049
)(3)	-11.7049
ABILITY	-11.7049
ATION	-11.7049
NCE	-11.7049
UND	-11.7049
articulate	-11.7049
cipher	-11.7049
cloak	-11.7049
cognit	-11.7049
comprehensible	-11.7049
deception	-11.7049
driver	-11.7049
dvocate	-11.7049
heelbarrow	-11.7049
imaginative	-11.7049
indiscriminately	-11.7049
inexperience	-11.7049
isphere	-11.7049
ography	-11.7049
ologies	-11.7049
relaxed	-11.7049
streaked	-11.7049
suspicious	-11.7049
unenforceability	-11.7049
▁2001,	-11.7049
▁64-6221541.	-11.7049
▁AGREEMENT	-11.7049
▁ANYTHING	-11.7049
▁Additional	-11.7049
▁Adventures	-11.7049
▁Alexander	-11.7049
▁Already	-11.7049
▁Antarctic	-11.7049
▁Arctic	-11.7049
▁Arsacidean	-11.7049
▁Arsacides	-11.7049
▁Author	-11.7049
▁BEFORE	-11.7049
▁BUT	-11.7049
▁Bishop	-11.7049
▁Britain	-11.7049
▁Broad	-11.7049
▁CON	-11.7049
▁CONTRACT	-11.7049
▁Chinese	-11.7049
▁Christendom	-11.7049
▁Church	-11.7049
▁Clapham	-11.7049
▁Compliance	-11.7049
▁Contributions	-11.7049
▁Creating	-11.7049
▁DAMAGES	-11.7049
▁DISTRIBUTE	-11.7049
▁DISTRIBUTOR	-11.7049
▁DONATIONS	-11.7049
▁Doubloon	-11.7049
▁EVEN	-11.7049
▁EXCEPT	-11.7049
▁EXPRESS	-11.7049
▁Elephant	-11.7049
▁Eliza	-11.7049
▁Erskine	-11.7049
▁FITNESS	-11.7049
▁Fielding	-11.7049
▁Fleece	-11.7049
▁Folio	-11.7049
▁Fossil	-11.7049
▁Fourth	-11.7049
▁Furthermore	-11.7049
▁GIVE	-11.7049
▁Garnery	-11.7049
▁Gracechurch	-11.7049
▁HAVE	-11.7049
▁Hercules	-11.7049
▁Hindoo	-11.7049
▁Hyena	-11.7049
▁INCIDENTAL	-11.7049
▁INCLUDING	-11.7049
▁INDEMNITY	-11.7049
▁Internal	-11.7049
▁International	-11.7049
▁Jungfrau	-11.7049
▁Jupiter	-11.7049
▁Knights	-11.7049
▁LIABLE	-11.7049
▁Langsdorff	-11.7049
▁Light	-11.7049
▁Lizard	-11.7049
▁MERCHANTABILITY	-11.7049
▁Macey	-11.7049
▁NOTICE	-11.7049
▁Nineveh	-11.7049
▁OTHER	-11.7049
▁Ottoman	-11.7049
▁PARAGRAPH	-11.7049
▁PLEASE	-11.7049
▁POSSIBILITY	-11.7049
▁PROVIDED	-11.7049
▁PUNITIVE	-11.7049
▁Patagonian	-11.7049
▁People	-11.7049
▁Polynesia	-11.7049
▁Prairie	-11.7049
▁Propontis	-11.7049
▁Providence	-11.7049
▁Quohog	-11.7049
▁READ	-11.7049
▁REFUND	-11.7049
▁REMEDIES	-11.7049
▁REPLACEMENT	-11.7049
▁RIGHT	-11.7049
▁Redistributing	-11.7049
▁SEND	-11.7049
▁STRICT	-11.7049
▁SUCH	-11.7049
▁Sabbath	-11.7049
▁Society	-11.7049
▁Special	-11.7049
▁Specksnyder	-11.7049
▁Spirit	-11.7049
▁Straits	-11.7049
▁Strasburgh	-11.7049
▁Swift	-11.7049
▁THOSE	-11.7049
▁TRADEMARK	-11.7049
▁Tertiary	-11.7049
▁Tranque	-11.7049
▁Tranquo	-11.7049
▁UNDER	-11.7049
▁Volunteers	-11.7049
▁WARRANTY	-11.7049
▁WORK	-11.7049
▁Washington	-11.7049
▁Yankee	-11.7049
▁aboriginal	-11.7049
▁absorbing	-11.7049
▁accelerate	-11.7049
▁accuracy	-11.7049
▁accurate	-11.7049
▁affability	-11.7049
▁affirmative	-11.7049
▁alacrity	-11.7049
▁alleviate	-11.7049
▁angular	-11.7049
▁announcing	-11.7049
▁annual	-11.7049
▁anticipating	-11.7049
▁apologize	-11.7049
▁apologizing	-11.7049
▁appellation	-11.7049
▁architect	-11.7049
▁arrested	-11.7049
▁arriving	-11.7049
▁asylum	-11.7049
▁atmospheric	-11.7049
▁authoritative	-11.7049
▁avowal	-11.7049
▁baffle	-11.7049
▁balancing	-11.7049
▁banquet	-11.7049
▁befitting	-11.7049
▁betake	-11.7049
▁billiard	-11.7049
▁braided	-11.7049
▁brisk	-11.7049
▁buoyancy	-11.7049
▁burglar	-11.7049
▁candidate	-11.7049
▁caravan	-11.7049
▁carcase	-11.7049
▁celerity	-11.7049
▁chancing	-11.7049
▁circumspect	-11.7049
▁collapsed	-11.7049
▁comprising	-11.7049
▁conceivable	-11.7049
▁concrete	-11.7049
▁conference	-11.7049
▁congregate	-11.7049
▁conspicuous	-11.7049
▁constellation	-11.7049
▁consummate	-11.7049
▁contemporary	-11.7049
▁convivial	-11.7049
▁corporation	-11.7049
▁corporeal	-11.7049
▁creaking	-11.7049
▁curtain	-11.7049
▁dauntless	-11.7049
▁decision	-11.7049
▁deductible	-11.7049
▁degradation	-11.7049
▁deletions	-11.7049
▁demeanour	-11.7049
▁diamond	-11.7049
▁dignified	-11.7049
▁disastrous	-11.7049
▁disconcerted	-11.7049
▁discontinue	-11.7049
▁discretion	-11.7049
▁disobey	-11.7049
▁distended	-11.7049
▁divulged	-11.7049
▁docile	-11.7049
▁dominion	-11.7049
▁eagle	-11.7049
▁eddying	-11.7049
▁effusion	-11.7049
▁elaborat	-11.7049
▁elevation	-11.7049
▁elucidat	-11.7049
▁email	-11.7049
▁emergencies	-11.7049
▁enchanting	-11.7049
▁enthusiastic	-11.7049
▁escaping	-11.7049
▁eternity	-11.7049
▁evangeli	-11.7049
▁exciting	-11.7049
▁exclude	-11.7049
▁facing	-11.7049
▁famine	-11.7049
▁fastidious	-11.7049
▁feminine	-11.7049
▁ferocity	-11.7049
▁fidget	-11.7049
▁financial	-11.7049
▁flavor	-11.7049
▁footsteps	-11.7049
▁forlorn	-11.7049
▁frenzy	-11.7049
▁frigid	-11.7049
▁frowning	-11.7049
▁generic	-11.7049
▁geological	-11.7049
▁giant	-11.7049
▁gratification	-11.7049
▁gull	-11.7049
▁heavier	-11.7049
▁horribly	-11.7049
▁hurricane	-11.7049
▁hypertext	-11.7049
▁idiot	-11.7049
▁ignoble	-11.7049
▁ignominy	-11.7049
▁illustrate	-11.7049
▁imbued	-11.7049
▁immaculate	-11.7049
▁impenetrable	-11.7049
▁impetuous	-11.7049
▁incarnate	-11.7049
▁incorporate	-11.7049
▁indemnify	-11.7049
▁indistinct	-11.7049
▁indulging	-11.7049
▁inexhaustible	-11.7049
▁inflamed	-11.7049
▁insensibility	-11.7049
▁insupportable	-11.7049
▁intelligible	-11.7049
▁intermediate	-11.7049
▁intervening	-11.7049
▁intolerably	-11.7049
▁intrude	-11.7049
▁intuitions	-11.7049
▁invalidity	-11.7049
▁invariable	-11.7049
▁invoked	-11.7049
▁invoking	-11.7049
▁involuntary	-11.7049
▁javelin	-11.7049
▁jib	-11.7049
▁journal	-11.7049
▁junk	-11.7049
▁languid	-11.7049
▁lazily	-11.7049
▁literally	-11.7049
▁locations	-11.7049
▁lodgings	-11.7049
▁manufactur	-11.7049
▁maritime	-11.7049
▁mathematics	-11.7049
▁membrane	-11.7049
▁meridian	-11.7049
▁moisture	-11.7049
▁mumbling	-11.7049
▁muslin	-11.7049
▁narwhale	-11.7049
▁naval	-11.7049
▁navy	-11.7049
▁newsletter	-11.7049
▁nominally	-11.7049
▁nonproprietary	-11.7049
▁nourishment	-11.7049
▁nowadays	-11.7049
▁nuptial	-11.7049
▁nursing	-11.7049
▁nurtured	-11.7049
▁oblong	-11.7049
▁offensive	-11.7049
▁opposition	-11.7049
▁oppressive	-11.7049
▁outstrip	-11.7049
▁participat	-11.7049
▁peeled	-11.7049
▁pepper	-11.7049
▁peremptorily	-11.7049
▁persecutor	-11.7049
▁pewter	-11.7049
▁phrens	-11.7049
▁physiognomical	-11.7049
▁pianoforte	-11.7049
▁piercing	-11.7049
▁pitiful	-11.7049
▁population	-11.7049
▁populous	-11.7049
▁preservation	-11.7049
▁primitive	-11.7049
▁production	-11.7049
▁profundities	-11.7049
▁prohibition	-11.7049
▁promoting	-11.7049
▁proprietary	-11.7049
▁prosecution	-11.7049
▁prosperous	-11.7049
▁provoking	-11.7049
▁puzzling	-11.7049
▁quadrant	-11.7049
▁quadrille	-11.7049
▁radiance	-11.7049
▁rallied	-11.7049
▁rampart	-11.7049
▁rascal	-11.7049
▁raven	-11.7049
▁reappear	-11.7049
▁recital	-11.7049
▁recurred	-11.7049
▁redistribute	-11.7049
▁referred	-11.7049
▁refreshed	-11.7049
▁registered	-11.7049
▁rejoicing	-11.7049
▁relapse	-11.7049
▁replete	-11.7049
▁reproof	-11.7049
▁reptile	-11.7049
▁repulsive	-11.7049
▁requisite	-11.7049
▁reservoir	-11.7049
▁respite	-11.7049
▁ripple	-11.7049
▁rippling	-11.7049
▁rubbed	-11.7049
▁ruthless	-11.7049
▁saluted	-11.7049
▁sauntering	-11.7049
▁scorched	-11.7049
▁scorching	-11.7049
▁seclusion	-11.7049
▁security	-11.7049
▁sepulchr	-11.7049
▁sequel	-11.7049
▁skiff	-11.7049
▁smelt	-11.7049
▁sneeze	-11.7049
▁sneezing	-11.7049
▁sphere	-11.7049
▁squalid	-11.7049
▁steak	-11.7049
▁straps	-11.7049
▁subterraneous	-11.7049
▁summons	-11.7049
▁sunshine	-11.7049
▁supplementary	-11.7049
▁supreme	-11.7049
▁swoop	-11.7049
▁sworn	-11.7049
▁sympathies	-11.7049
▁systematically	-11.7049
▁tacit	-11.7049
▁tarpaulin	-11.7049
▁tawny	-11.7049
▁telescope	-11.7049
▁temperature	-11.7049
▁tempestuous	-11.7049
▁terribly	-11.7049
▁thirteen	-11.7049
▁threshold	-11.7049
▁transactions	-11.7049
▁transcription	-11.7049
▁transitory	-11.7049
▁tumbling	-11.7049
▁unabated	-11.7049
▁unalterable	-11.7049
▁unattended	-11.7049
▁uncouth	-11.7049
▁underneath	-11.7049
▁unfavourable	-11.7049
▁unhallowed	-11.7049
▁unhappiness	-11.7049
▁unobstructed	-11.7049
▁unremitt	-11.7049
▁unsuccessful	-11.7049
▁untouched	-11.7049
▁urgent	-11.7049
▁usurpation	-11.7049
▁varying	-11.7049
▁vehement	-11.7049
▁velvet	-11.7049
▁veteran	-11.7049
▁vibrate	-11.7049
▁vile	-11.7049
▁virtuous	-11.7049
▁vivacious	-11.7049
▁volition	-11.7049
▁vulgar	-11.7049
▁waistcoat	-11.7049
▁wharves	-11.7049
▁whiskers	-11.7049
▁whither	-11.7049
▁wisdom	-11.7049
▁yarns	-11.7049
▁Chapel	-11.7049
▁Charity	-11.7049
▁Chili	-11.7049
▁History	-11.7049
▁Judge	-11.7049
▁Manilla	-11.7049
▁Shark	-11.7049
▁acquit	-11.7049
▁adoration	-11.7049
▁agonizing	-11.7049
▁authentic	-11.7049
▁banner	-11.7049
▁blunder	-11.7049
▁blunt	-11.7049
▁breeding	-11.7049
▁charities	-11.7049
▁composing	-11.7049
▁demonstra	-11.7049
▁desiring	-11.7049
▁domineer	-11.7049
▁dramatic	-11.7049
▁ensuring	-11.7049
▁flask	-11.7049
▁furthest	-11.7049
▁intercept	-11.7049
▁intermix	-11.7049
▁lounge	-11.7049
▁lumber	-11.7049
▁originator	-11.7049
▁palpitat	-11.7049
▁peered	-11.7049
▁perusal	-11.7049
▁predestinat	-11.7049
▁progeny	-11.7049
▁promote	-11.7049
▁review	-11.7049
▁rumbling	-11.7049
▁severity	-11.7049
▁shrine	-11.7049
▁sloop	-11.7049
▁smack	-11.7049
▁snort	-11.7049
▁starvation	-11.7049
▁stirred	-11.7049
▁subordinate	-11.7049
▁termination	-11.7049
▁tracing	-11.7049
▁umbrella	-11.7049
▁veritable	-11.7049
▁withheld	-11.7049
nomalous	-11.7049
tistical	-11.7049
▁Ground	-11.7049
▁Hosea	-11.7049
▁Rock	-11.7049
▁Thank	-11.7049
▁Walton	-11.7049
▁altar	-11.7049
▁castaway	-11.7049
▁clinch	-11.7049
▁comical	-11.7049
▁contributions	-11.7049
▁decease	-11.7049
▁dissect	-11.7049
▁dissembl	-11.7049
▁grizzl	-11.7049
▁hamper	-11.7049
▁insurance	-11.7049
▁marshal	-11.7049
▁mislead	-11.7049
▁purport	-11.7049
▁reliance	-11.7049
▁shrill	-11.7049
▁sobbing	-11.7049
▁teacup	-11.7049
▁thump	-11.7049
▁waking	-11.7049
▁width	-11.7049
▁Priest	-11.7049
▁idolator	-11.7049
▁pitied	-11.7049
▁plough	-11.7049
▁prompt	-11.7049
▁signify	-11.7049
▁unerring	-11.7049
rigged	-11.7049
▁Learn	-11.7049
▁crisis	-11.7049
▁cynic	-11.7049
▁evade	-11.7049
▁forsake	-11.7049
▁hostile	-11.7049
▁release	-11.7049
▁throbbing	-11.7049
NTI	-11.7049
cragg	-11.7049
▁IND	-11.7049
▁basis	-11.7049
▁brink	-11.7049
▁charity	-11.7049
▁copper	-11.7049
▁imposing	-11.7049
▁insular	-11.7049
▁inviting	-11.7049
▁knob	-11.7049
▁plaited	-11.7049
▁posterity	-11.7049
▁reliable	-11.7049
▁tierce	-11.7049
▁unlink	-11.7049
▁balanced	-11.7049
▁brass	-11.7049
▁changing	-11.7049
▁exporting	-11.7049
▁intervene	-11.7049
▁pleated	-11.7049
▁restoration	-11.7049
▁stool	-11.7049
▁vouch	-11.7049
▁Satan	-11.7049
▁mincer	-11.7049
▁consistent	-11.7049
▁crash	-11.7049
▁ebon	-11.7049
▁Lakes	-11.7049
▁dependent	-11.7049
▁echo	-11.7049
▁palace	-11.7049
▁strive	-11.7049
▁yawning	-11.7049
▁desist	-11.7049
▁skilful	-11.7049
▁cleat	-11.7049
▁firmament	-11.7049
▁memorable	-11.7049
▁proverb	-11.7049
▁surf	-11.7049
▁assailant	-11.7049
▁grain	-11.7049
▁resided	-11.7049
▁particle	-11.7049
▁uncontroll	-11.7049
▁donors	-11.7049
▁pondered	-11.7049
▁title	-11.7049
▁dubious	-11.7049
▁sincerity	-11.7049
▁pelt	-11.7049
▁thoughtfulness	-11.7049
▁inhuman	-11.7049
▁message	-11.7049
▁circulate	-11.7049
▁exploded	-11.7049
▁bison	-11.7049
▁wantonly	-11.7049
▁efface	-11.7049
▁scud	-11.7049
▁Tower	-11.7049
▁sickened	-11.7049
▁Arve	-11.7049
▁annoy	-11.7049
▁spasmodically	-11.7049
▁Day	-11.7049
▁loiter	-11.7049
▁resound	-11.7049
▁presentiment	-11.7049
▁vir	-11.7049
▁beware	-11.7049
▁duck	-11.7049
▁wilderness	-11.7049
▁slabs	-11.7049
▁Redistribution	-11.705
▁grunt	-11.705
▁resides	-11.705
▁cannon	-11.705
▁mercy	-11.705
▁deplored	-11.705
▁tingling	-11.705
▁inverted	-11.705
▁audibl	-11.705
▁bind	-11.705
▁enduring	-11.705
▁network	-11.705
▁melted	-11.705
▁waning	-11.705
▁Water	-11.705
▁transferred	-11.705
▁crane	-11.705
▁dainti	-11.705
▁castles	-11.705
▁lapse	-11.705
carnation	-11.7051
▁gin	-11.7051
▁premi	-11.7051
▁solve	-11.7051
▁Zo	-11.7051
engine	-11.7051
▁luna	-11.7051
▁abide	-11.7051
azza	-11.7051
▁opine	-11.7051
flake	-11.7051
▁steed	-11.7052
▁warring	-11.7052
▁idly	-11.7052
▁repine	-11.7052
▁clove	-11.7053
▁haze	-11.7053
subdu	-11.7055
▁patri	-11.7055
▁tilt	-11.7056
▁slope	-11.7056
plaster	-11.7062
▁pearl	-11.7067
▁butcher	-11.7076
mprove	-11.7082
▁wade	-11.7089
▁poise	-11.7098
ruit	-11.71
▁revolution	-11.715
▁wane	-11.7202
▁judg	-11.7212
ffectation	-11.7248
two	-11.7437
▁Remo	-11.747
RT	-11.759
ceremonious	-11.7651
▁circumnavigat	-11.8038
▁End	-11.83
maul	-11.8544
lipped	-11.8558
factori	-11.8745
▁unobserv	-11.9017
contracting	-11.9147
▁inglorious	-11.9187
clouded	-11.9509
basti	-11.9552
▁ceremoni	-11.96
mindful	-11.9737
▁opera	-11.9905
itchpoling	-11.9986
angles	-12.0144
volutions	-12.0186
▁strait	-12.0197
▁fathom	-12.0199
▁billow	-12.0202
▁accomplish	-12.0306
maker	-12.031
▁grip	-12.0323
▁recognise	-12.0352
▁convince	-12.0353
extinguish	-12.0356
gown	-12.0356
built	-12.0356
intelligent	-12.0356
screw	-12.0356
reproach	-12.0356
fleet	-12.0357
yellow	-12.0357
glass	-12.0357
doubted	-12.0357
provided	-12.0357
jacket	-12.0357
writing	-12.0357
grasp	-12.0357
canoe	-12.0357
third	-12.0357
father	-12.0357
money	-12.0357
craft	-12.0358
▁monomania	-12.0375
▁convict	-12.0377
ountain	-12.0379
Z	-12.038
▁School	-12.0381
▁deplo	-12.0382
splinter	-12.0382
▁disquiet	-12.0382
▁elope	-12.0382
▁restrict	-12.0382
gratulation	-12.0382
▁chron	-12.0382
▁ubiquit	-12.0382
susceptib	-12.0382
▁Frank	-12.0382
▁faculties	-12.0382
'	-12.0382
Albatross	-12.0382
Footman	-12.0382
Librar	-12.0382
Supplied	-12.0382
adamite	-12.0382
assock	-12.0382
bashed	-12.0382
clemency	-12.0382
coherent	-12.0382
cruet	-12.0382
daunted	-12.0382
eminence	-12.0382
emptied	-12.0382
fficiency	-12.0382
ffidavit	-12.0382
footed	-12.0382
graduate	-12.0382
haired	-12.0382
incumbent	-12.0382
integral	-12.0382
onsumpti	-12.0382
ountiful	-12.0382
practised	-12.0382
quari	-12.0382
reluctant	-12.0382
scrupulous	-12.0382
separable	-12.0382
vitiated	-12.0382
▁2026	-12.0382
▁550	-12.0382
▁Addison	-12.0382
▁Andromeda	-12.0382
▁April	-12.0382
▁Australia	-12.0382
▁Azores	-12.0382
▁Bashee	-12.0382
▁Belrive	-12.0382
▁Bethink	-12.0382
▁Blanket	-12.0382
▁Breakfast	-12.0382
▁Browne	-12.0382
▁Cadiz	-12.0382
▁Certain	-12.0382
▁Cetacean	-12.0382
▁Charles	-12.0382
▁Chowder	-12.0382
▁Clifford	-12.0382
▁Concerning	-12.0382
▁Crozetts	-12.0382
▁Cumberland	-12.0382
▁David	-12.0382
▁December	-12.0382
▁Dinah	-12.0382
▁Edinburgh	-12.0382
▁Essex	-12.0382
▁Euroclydon	-12.0382
▁February	-12.0382
▁Fortunately	-12.0382
▁Greece	-12.0382
▁Guinea	-12.0382
▁Halloa	-12.0382
▁Hampshire	-12.0382
▁Harpooneer	-12.0382
▁Huzza	-12.0382
▁Instead	-12.0382
▁Labrador	-12.0382
▁Lobster	-12.0382
▁MANX	-12.0382
▁MEMORY	-12.0382
▁Magnus	-12.0382
▁Malays	-12.0382
▁Mayhew	-12.0382
▁Mexico	-12.0382
▁Miserable	-12.0382
▁Mogul	-12.0382
▁Monsieur	-12.0382
▁Neither	-12.0382
▁November	-12.0382
▁OLD	-12.0382
▁Paradise	-12.0382
▁Parliament	-12.0382
▁Philistin	-12.0382
▁Physiognom	-12.0382
▁Pollard	-12.0382
▁Presbyterian	-12.0382
▁Pride	-12.0382
▁Prometheus	-12.0382
▁Prophet	-12.0382
▁Pupella	-12.0382
▁Quadrille	-12.0382
▁SACRED	-12.0382
▁Siamese	-12.0382
▁Sleep	-12.0382
▁Slowly	-12.0382
▁Squeeze	-12.0382
▁Strange	-12.0382
▁System	-12.0382
▁Teeth	-12.0382
▁Thursday	-12.0382
▁WHALE	-12.0382
▁Wollstonecraft	-12.0382
▁abundance	-12.0382
▁accompaniments	-12.0382
▁adjacent	-12.0382
▁alternating	-12.0382
▁ambiguous	-12.0382
▁anatomy	-12.0382
▁anecdote	-12.0382
▁animating	-12.0382
▁anticipation	-12.0382
▁ascendency	-12.0382
▁assassin	-12.0382
▁assemblage	-12.0382
▁assiduous	-12.0382
▁avenue	-12.0382
▁bankrupt	-12.0382
▁barbarians	-12.0382
▁barricade	-12.0382
▁befell	-12.0382
▁behooves	-12.0382
▁benefactor	-12.0382
▁beneficial	-12.0382
▁benignity	-12.0382
▁blaming	-12.0382
▁bracing	-12.0382
▁bundle	-12.0382
▁calabash	-12.0382
▁calamity	-12.0382
▁calculation	-12.0382
▁calves	-12.0382
▁capsized	-12.0382
▁captivat	-12.0382
▁causing	-12.0382
▁cemeter	-12.0382
▁census	-12.0382
▁chamois	-12.0382
▁chewed	-12.0382
▁chocks	-12.0382
▁circulation	-12.0382
▁circumstantial	-12.0382
▁collateral	-12.0382
▁commended	-12.0382
▁commentaries	-12.0382
▁communicating	-12.0382
▁competition	-12.0382
▁comprehension	-12.0382
▁concise	-12.0382
▁concussion	-12.0382
▁confiding	-12.0382
▁congratulatory	-12.0382
▁consecutive	-12.0382
▁consoling	-12.0382
▁consummation	-12.0382
▁continuance	-12.0382
▁contortions	-12.0382
▁convalescence	-12.0382
▁counteracted	-12.0382
▁creeping	-12.0382
▁crevice	-12.0382
▁cursory	-12.0382
▁decisive	-12.0382
▁declaring	-12.0382
▁deferred	-12.0382
▁deficient	-12.0382
▁degenerate	-12.0382
▁degraded	-12.0382
▁delusion	-12.0382
▁democracy	-12.0382
▁democrat	-12.0382
▁depression	-12.0382
▁desperation	-12.0382
▁determinate	-12.0382
▁determining	-12.0382
▁diameter	-12.0382
▁dictating	-12.0382
▁dictator	-12.0382
▁digging	-12.0382
▁dimensions	-12.0382
▁discharging	-12.0382
▁discompose	-12.0382
▁discomposure	-12.0382
▁disconsolate	-12.0382
▁discrimination	-12.0382
▁disease	-12.0382
▁disincline	-12.0382
▁dissolve	-12.0382
▁distorted	-12.0382
▁distraction	-12.0382
▁downstairs	-12.0382
▁dromedary	-12.0382
▁eccentric	-12.0382
▁economy	-12.0382
▁effeminacy	-12.0382
▁electricity	-12.0382
▁emaciated	-12.0382
▁embodiment	-12.0382
▁emperor	-12.0382
▁endangered	-12.0382
▁enormity	-12.0382
▁expatiate	-12.0382
▁exposure	-12.0382
▁exterminat	-12.0382
▁extremities	-12.0382
▁eyelashes	-12.0382
▁fantastic	-12.0382
▁ferocious	-12.0382
▁fervour	-12.0382
▁fidelity	-12.0382
▁folio	-12.0382
▁forbidden	-12.0382
▁forbidding	-12.0382
▁frivolous	-12.0382
▁fumbling	-12.0382
▁gallows	-12.0382
▁genealog	-12.0382
▁genteel	-12.0382
▁glistened	-12.0382
▁globular	-12.0382
▁glossy	-12.0382
▁grapple	-12.0382
▁gregarious	-12.0382
▁gulf	-12.0382
▁headstrong	-12.0382
▁hilarious	-12.0382
▁hilarity	-12.0382
▁historian	-12.0382
▁housekeeping	-12.0382
▁humiliation	-12.0382
▁illustration	-12.0382
▁illustrious	-12.0382
▁immeasurabl	-12.0382
▁immersed	-12.0382
▁impediment	-12.0382
▁imperceptibl	-12.0382
▁impersonal	-12.0382
▁incalculable	-12.0382
▁incommunicable	-12.0382
▁incompeten	-12.0382
▁inconceivable	-12.0382
▁inconsiderable	-12.0382
▁inconvenient	-12.0382
▁indefatigable	-12.0382
▁indications	-12.0382
▁indignity	-12.0382
▁indolence	-12.0382
▁ineffable	-12.0382
▁inequalit	-12.0382
▁inexorable	-12.0382
▁inferred	-12.0382
▁infiltrated	-12.0382
▁inflexibl	-12.0382
▁ingenuity	-12.0382
▁inherent	-12.0382
▁inordinate	-12.0382
▁inquisitive	-12.0382
▁insatiable	-12.0382
▁insatiate	-12.0382
▁insignificance	-12.0382
▁inspection	-12.0382
▁institut	-12.0382
▁intricate	-12.0382
▁invective	-12.0382
▁involving	-12.0382
▁invulnerable	-12.0382
▁irresolut	-12.0382
▁irretrievabl	-12.0382
▁irritation	-12.0382
▁jamming	-12.0382
▁juncture	-12.0382
▁junior	-12.0382
▁labyrinth	-12.0382
▁landlady	-12.0382
▁leaf	-12.0382
▁legendary	-12.0382
▁lexicon	-12.0382
▁limping	-12.0382
▁loftiest	-12.0382
▁luxury	-12.0382
▁maelstrom	-12.0382
▁magnificence	-12.0382
▁magnifying	-12.0382
▁majority	-12.0382
▁mechanism	-12.0382
▁member	-12.0382
▁mercenary	-12.0382
▁metropolitan	-12.0382
▁misanthrop	-12.0382
▁misgivings	-12.0382
▁monarch	-12.0382
▁multiplicity	-12.0382
▁multiplied	-12.0382
▁mundane	-12.0382
▁nautical	-12.0382
▁necessitate	-12.0382
▁necessities	-12.0382
▁nosegay	-12.0382
▁obstructed	-12.0382
▁omniscient	-12.0382
▁ordinarily	-12.0382
▁oysters	-12.0382
▁paddock	-12.0382
▁paltry	-12.0382
▁panegyric	-12.0382
▁paramount	-12.0382
▁parchment	-12.0382
▁pattering	-12.0382
▁pedestrian	-12.0382
▁perceptible	-12.0382
▁perfume	-12.0382
▁persevering	-12.0382
▁persuading	-12.0382
▁pertinaci	-12.0382
▁perturbation	-12.0382
▁petticoat	-12.0382
▁petulance	-12.0382
▁phaeton	-12.0382
▁phenomena	-12.0382
▁pittance	-12.0382
▁poignant	-12.0382
▁poultry	-12.0382
▁practicable	-12.0382
▁precipitanc	-12.0382
▁premature	-12.0382
▁pretension	-12.0382
▁probabilities	-12.0382
▁proclaim	-12.0382
▁procuring	-12.0382
▁proficien	-12.0382
▁profundity	-12.0382
▁province	-12.0382
▁provincial	-12.0382
▁psalmody	-12.0382
▁punchbowl	-12.0382
▁rabbit	-12.0382
▁radiant	-12.0382
▁rapturous	-12.0382
▁rattle	-12.0382
▁recurring	-12.0382
▁refreshing	-12.0382
▁remedy	-12.0382
▁reminiscence	-12.0382
▁repaid	-12.0382
▁repining	-12.0382
▁replacing	-12.0382
▁republic	-12.0382
▁requisition	-12.0382
▁retrospect	-12.0382
▁reverential	-12.0382
▁ruddy	-12.0382
▁rueful	-12.0382
▁sanguinary	-12.0382
▁scaffold	-12.0382
▁scalding	-12.0382
▁scanning	-12.0382
▁scraps	-12.0382
▁scroll	-12.0382
▁separating	-12.0382
▁shabby	-12.0382
▁shrubbery	-12.0382
▁similitude	-12.0382
▁sinews	-12.0382
▁skipper	-12.0382
▁sleeves	-12.0382
▁sluggish	-12.0382
▁snake	-12.0382
▁sociable	-12.0382
▁soliloquiz	-12.0382
▁spake	-12.0382
▁speck	-12.0382
▁spectral	-12.0382
▁spectre	-12.0382
▁spinning	-12.0382
▁sprain	-12.0382
▁sprinkled	-12.0382
▁squeezing	-12.0382
▁stabbing	-12.0382
▁staircase	-12.0382
▁stolidity	-12.0382
▁strenuously	-12.0382
▁striding	-12.0382
▁stupendous	-12.0382
▁sturgeon	-12.0382
▁subtile	-12.0382
▁suffice	-12.0382
▁suffocated	-12.0382
▁sultry	-12.0382
▁superficial	-12.0382
▁supremacy	-12.0382
▁surging	-12.0382
▁terminating	-12.0382
▁territori	-12.0382
▁thenceforth	-12.0382
▁tragedy	-12.0382
▁transcendent	-12.0382
▁transient	-12.0382
▁tremulous	-12.0382
▁trepidation	-12.0382
▁trotting	-12.0382
▁tucked	-12.0382
▁tutored	-12.0382
▁twinkling	-12.0382
▁tyrant	-12.0382
▁unassuming	-12.0382
▁unavoidable	-12.0382
▁unbidden	-12.0382
▁unbroken	-12.0382
▁unchange	-12.0382
▁uncivilized	-12.0382
▁uncompromised	-12.0382
▁unconcern	-12.0382
▁uncounted	-12.0382
▁undisturbed	-12.0382
▁undulated	-12.0382
▁undulations	-12.0382
▁unexampled	-12.0382
▁unfair	-12.0382
▁unfathomabl	-12.0382
▁ungracious	-12.0382
▁unheeded	-12.0382
▁uninterrupted	-12.0382
▁unmanufactured	-12.0382
▁unmingled	-12.0382
▁unmistakabl	-12.0382
▁unprecedented	-12.0382
▁unprejudiced	-12.0382
▁unprincipled	-12.0382
▁unquestionable	-12.0382
▁unreasonably	-12.0382
▁unrecorded	-12.0382
▁unrelieved	-12.0382
▁unsavory	-12.0382
▁unsocial	-12.0382
▁unsounded	-12.0382
▁unsupplied	-12.0382
▁unthinking	-12.0382
▁unwaning	-12.0382
▁unwelcome	-12.0382
▁vagabond	-12.0382
▁venison	-12.0382
▁veracity	-12.0382
▁vesture	-12.0382
▁vexatious	-12.0382
▁vigour	-12.0382
▁visage	-12.0382
▁visual	-12.0382
▁volcano	-12.0382
▁weltering	-12.0382
▁wintry	-12.0382
▁writhed	-12.0382
▁writhing	-12.0382
▁wrought	-12.0382
adjust	-12.0382
▁Burton	-12.0382
▁Despair	-12.0382
▁Expl	-12.0382
▁Grecian	-12.0382
▁LON	-12.0382
▁Power	-12.0382
▁Shaker	-12.0382
▁admonish	-12.0382
▁append	-12.0382
▁bayonet	-12.0382
▁cabalistic	-12.0382
▁capricious	-12.0382
▁cathedral	-12.0382
▁citadel	-12.0382
▁conflagration	-12.0382
▁consign	-12.0382
▁convent	-12.0382
▁corroborat	-12.0382
▁deprav	-12.0382
▁deprecat	-12.0382
▁disclosure	-12.0382
▁duplicate	-12.0382
▁encircl	-12.0382
▁enticement	-12.0382
▁evaporate	-12.0382
▁expostulat	-12.0382
▁extort	-12.0382
▁facilitat	-12.0382
▁fascinat	-12.0382
▁grotesque	-12.0382
▁housemaid	-12.0382
▁hymn	-12.0382
▁icicle	-12.0382
▁imbib	-12.0382
▁incantation	-12.0382
▁incommod	-12.0382
▁insinuat	-12.0382
▁jeer	-12.0382
▁juggler	-12.0382
▁meditative	-12.0382
▁obsequious	-12.0382
▁obtrud	-12.0382
▁pagoda	-12.0382
▁physician	-12.0382
▁provocation	-12.0382
▁quadruped	-12.0382
▁rambling	-12.0382
▁recompens	-12.0382
▁remonstrat	-12.0382
▁rosy	-12.0382
▁shovel	-12.0382
▁skewer	-12.0382
▁spangl	-12.0382
▁spindle	-12.0382
▁spiraliz	-12.0382
▁spurr	-12.0382
▁statue	-12.0382
▁succour	-12.0382
▁sympathetic	-12.0382
▁taunt	-12.0382
▁tyro	-12.0382
▁unsuspect	-12.0382
▁whetstone	-12.0382
subdivisi	-12.0382
▁Although	-12.0382
▁Devil	-12.0382
▁Duke	-12.0382
▁Gothic	-12.0382
▁Islanders	-12.0382
▁Massac	-12.0382
▁Observ	-12.0382
▁Return	-12.0382
▁Romish	-12.0382
▁Twice	-12.0382
▁appertain	-12.0382
▁appointed	-12.0382
▁beckon	-12.0382
▁beseech	-12.0382
▁blaze	-12.0382
▁busied	-12.0382
▁choking	-12.0382
▁concoct	-12.0382
▁crabs	-12.0382
▁craven	-12.0382
▁croquet	-12.0382
▁depose	-12.0382
▁descry	-12.0382
▁devotion	-12.0382
▁dilatory	-12.0382
▁dismember	-12.0382
▁embattl	-12.0382
▁forenoon	-12.0382
▁galliot	-12.0382
▁gills	-12.0382
▁humbug	-12.0382
▁inculcat	-12.0382
▁infatuat	-12.0382
▁likelihood	-12.0382
▁manipulat	-12.0382
▁masoned	-12.0382
▁mirth	-12.0382
▁mishap	-12.0382
▁mizzen	-12.0382
▁pioneer	-12.0382
▁prognostic	-12.0382
▁resort	-12.0382
▁sinister	-12.0382
▁spacious	-12.0382
▁tendinous	-12.0382
▁turtle	-12.0382
▁untoward	-12.0382
▁upbraid	-12.0382
▁84	-12.0382
▁Below	-12.0382
▁Cinque	-12.0382
▁Human	-12.0382
▁Lewis	-12.0382
▁National	-12.0382
▁Pardon	-12.0382
▁Taking	-12.0382
▁authorized	-12.0382
▁bleeding	-12.0382
▁brittle	-12.0382
▁burial	-12.0382
▁chorus	-12.0382
▁commentator	-12.0382
▁congeal	-12.0382
▁contradictory	-12.0382
▁deigned	-12.0382
▁diverted	-12.0382
▁embraces	-12.0382
▁fanatic	-12.0382
▁fought	-12.0382
▁furlongs	-12.0382
▁harmony	-12.0382
▁hesitation	-12.0382
▁massacr	-12.0382
▁predomina	-12.0382
▁refined	-12.0382
▁rehears	-12.0382
▁reiterat	-12.0382
▁residing	-12.0382
▁sinners	-12.0382
▁troop	-12.0382
▁undervalu	-12.0382
Buoy	-12.0382
blemish	-12.0382
digger	-12.0382
quenched	-12.0382
▁Blast	-12.0382
▁Emir	-12.0382
▁XXI	-12.0382
▁adhering	-12.0382
▁cruellest	-12.0382
▁grapes	-12.0382
▁grego	-12.0382
▁hawser	-12.0382
▁heroines	-12.0382
▁isinglass	-12.0382
▁lottery	-12.0382
▁mowers	-12.0382
▁muttered	-12.0382
▁razor	-12.0382
▁scope	-12.0382
▁shank	-12.0382
▁shelves	-12.0382
▁shipwrecked	-12.0382
▁tract	-12.0382
▁uneven	-12.0382
▁Gulf	-12.0382
▁Spain	-12.0382
▁Third	-12.0382
▁begging	-12.0382
▁breeds	-12.0382
▁cherry	-12.0382
▁collectively	-12.0382
▁eastern	-12.0382
▁flushed	-12.0382
▁fourteen	-12.0382
▁manhandle	-12.0382
▁merged	-12.0382
▁momentarily	-12.0382
▁pathetic	-12.0382
▁socks	-12.0382
▁Goney	-12.0382
▁Lima	-12.0382
▁Northern	-12.0382
▁Six	-12.0382
▁derange	-12.0382
▁infallible	-12.0382
▁menaced	-12.0382
▁plucked	-12.0382
▁soapstone	-12.0382
hirlpool	-12.0382
▁Titan	-12.0382
▁comment	-12.0382
▁compensate	-12.0382
▁facetious	-12.0382
▁imitation	-12.0382
▁loaf	-12.0382
▁vacat	-12.0382
▁89	-12.0382
▁Milan	-12.0382
▁Talk	-12.0382
▁abreast	-12.0382
▁alluding	-12.0382
▁cramped	-12.0382
▁crunched	-12.0382
▁gross	-12.0382
▁scarlet	-12.0382
▁scrambl	-12.0382
▁smothered	-12.0382
▁Batter	-12.0382
▁Honor	-12.0382
▁babe	-12.0382
▁bleeds	-12.0382
▁gaff	-12.0382
▁quoted	-12.0382
▁Sleet	-12.0382
▁frail	-12.0382
▁partake	-12.0382
▁undergone	-12.0382
balance	-12.0382
▁Dash	-12.0382
▁Latin	-12.0382
▁Shore	-12.0382
▁repast	-12.0382
▁Dante	-12.0382
▁Phil	-12.0382
▁dismasted	-12.0382
▁durst	-12.0382
▁riddle	-12.0382
▁tallow	-12.0382
iferous	-12.0382
▁chronicle	-12.0382
▁Nile	-12.0382
▁lawyers	-12.0382
▁Merry	-12.0382
▁copse	-12.0382
▁direst	-12.0382
▁instigate	-12.0382
▁shalt	-12.0382
▁groping	-12.0382
▁wedded	-12.0382
arius	-12.0382
▁hearken	-12.0382
▁enticing	-12.0383
▁repute	-12.0383
▁clump	-12.0383
▁stumble	-12.0383
▁shilling	-12.0383
▁marines	-12.0383
▁tinker	-12.0383
sanguine	-12.0383
▁bapti	-12.0383
▁habitual	-12.0383
skirted	-12.0383
▁deduce	-12.0383
▁quilt	-12.0383
▁Chart	-12.0383
▁systematiz	-12.0383
compatible	-12.0383
▁maze	-12.0383
peddling	-12.0383
▁stalk	-12.0383
consuming	-12.0384
forfeit	-12.0384
▁Angel	-12.0384
▁tickle	-12.0384
▁fence	-12.0384
▁flint	-12.0385
riety	-12.0385
▁dilat	-12.0385
twee	-12.0385
▁Born	-12.0386
▁renounc	-12.0386
▁hypothesi	-12.0386
▁sauc	-12.0386
oggy	-12.0387
comparable	-12.0388
▁Serious	-12.0388
Grace	-12.0389
▁inhale	-12.0389
espondency	-12.039
rontispiece	-12.0391
abiding	-12.0392
cuttle	-12.0394
▁Must	-12.0394
screen	-12.0394
bodied	-12.0396
thwart	-12.0397
▁rake	-12.0397
hooped	-12.042
▁tangle	-12.0437
ribbon	-12.044
▁obscur	-12.0448
glued	-12.0451
assi	-12.0472
mbay	-12.0673
▁Harri	-12.0973
methodically	-12.1345
cruisers	-12.1396
cellar	-12.1579
Iron	-12.1938
poetical	-12.2125
digestion	-12.2861
pretending	-12.4355
hrenologist	-12.4704
preserver	-12.4712
▁appropriate	-12.508
wheels	-12.511
hrouded	-12.5147
figured	-12.5175
mbergris	-12.5212
urmises	-12.5268
▁breez	-12.5272
ovok	-12.528
▁reviv	-12.5305
▁tempt	-12.5315
▁diffus	-12.5324
▁publish	-12.5325
▁acquaint	-12.5326
choolmasters	-12.5332
▁diligent	-12.535
▁simultaneous	-12.535
▁steadi	-12.535
▁gradual	-12.5351
▁especial	-12.5352
▁elapse	-12.5352
collected	-12.5353
▁influen	-12.5355
abilities	-12.5355
reverence	-12.5356
powder	-12.5356
staff	-12.5356
weigh	-12.5356
taught	-12.5357
century	-12.5357
owners	-12.5357
fowl	-12.5357
wreck	-12.5357
pocket	-12.5357
crossed	-12.5357
satisfaction	-12.5357
consequence	-12.5357
heavy	-12.5357
window	-12.5357
ivory	-12.5357
possessed	-12.5357
perhaps	-12.5358
▁semicirc	-12.5363
▁antiquit	-12.5366
▁felicit	-12.5367
▁genera	-12.5374
▁mechanic	-12.5375
hipmates	-12.5377
▁tack	-12.5377
lacksmith	-12.5378
▁unpleas	-12.538
▁chemist	-12.538
ounterpane	-12.538
▁clergy	-12.538
annibal	-12.5381
orecastle	-12.5381
iscovery	-12.5381
evolved	-12.5381
▁Christ	-12.5381
▁spasmodic	-12.5382
▁omni	-12.5382
engross	-12.5382
▁throb	-12.5382
▁Brahm	-12.5382
▁Scorpio	-12.5382
▁bribe	-12.5382
▁chastise	-12.5382
▁confedera	-12.5382
▁entrench	-12.5382
▁exempl	-12.5382
▁legislat	-12.5382
▁phosph	-12.5382
▁profliga	-12.5382
▁vacillati	-12.5382
1775	-12.5382
ANISH	-12.5382
CHARLES	-12.5382
DON	-12.5382
PRESS	-12.5382
amboo	-12.5382
brimmed	-12.5382
cheeked	-12.5382
christen	-12.5382
ctavo	-12.5382
decreasing	-12.5382
defunct	-12.5382
discriminating	-12.5382
dissoluble	-12.5382
dmiral	-12.5382
entangling	-12.5382
etacea	-12.5382
favouring	-12.5382
ferential	-12.5382
flexibility	-12.5382
foundered	-12.5382
gnashing	-12.5382
hesitatingly	-12.5382
iggledy	-12.5382
interpenetrat	-12.5382
ircumamb	-12.5382
irtue	-12.5382
kettle	-12.5382
mblazonings	-12.5382
monitions	-12.5382
monitory	-12.5382
nunciation	-12.5382
olluted	-12.5382
poplexy	-12.5382
rchbishop	-12.5382
responsible	-12.5382
retracing	-12.5382
squatting	-12.5382
tangible	-12.5382
turbaned	-12.5382
unctures	-12.5382
verjoyed	-12.5382
▁10,800	-12.5382
▁100.	-12.5382
▁101.	-12.5382
▁102.	-12.5382
▁104.	-12.5382
▁108.	-12.5382
▁109.	-12.5382
▁110.	-12.5382
▁111.	-12.5382
▁112.	-12.5382
▁114.	-12.5382
▁115.	-12.5382
▁116.	-12.5382
▁118.	-12.5382
▁119.	-12.5382
▁120.	-12.5382
▁123.	-12.5382
▁124.	-12.5382
▁125.	-12.5382
▁126.	-12.5382
▁128.	-12.5382
▁129.	-12.5382
▁130.	-12.5382
▁131.	-12.5382
▁132.	-12.5382
▁1894	-12.5382
▁Abraham	-12.5382
▁Absence	-12.5382
▁Advice	-12.5382
▁Alleghani	-12.5382
▁Annesley	-12.5382
▁Arabic	-12.5382
▁Archangel	-12.5382
▁Argemone	-12.5382
▁Aristotle	-12.5382
▁Arrived	-12.5382
▁Arthur	-12.5382
▁Austria	-12.5382
▁Babylon	-12.5382
▁Barbara	-12.5382
▁Barbary	-12.5382
▁Barrens	-12.5382
▁Bashaw	-12.5382
▁Beatrix	-12.5382
▁Beautiful	-12.5382
▁Beloved	-12.5382
▁Beneath	-12.5382
▁Beyond	-12.5382
▁Bolivia	-12.5382
▁Brother	-12.5382
▁CHANCERY	-12.5382
▁CHISWICK	-12.5382
▁Careful	-12.5382
▁Carrol	-12.5382
▁Cathedral	-12.5382
▁Catholic	-12.5382
▁Charley	-12.5382
▁Cistern	-12.5382
▁Cloud	-12.5382
▁Columbus	-12.5382
▁Commande	-12.5382
▁Common	-12.5382
▁Constable	-12.5382
▁Crack	-12.5382
▁Creator	-12.5382
▁Cretan	-12.5382
▁DUODECIMO	-12.5382
▁Daniel	-12.5382
▁Dardanelles	-12.5382
▁Darkness	-12.5382
▁Davis	-12.5382
▁Dovedale	-12.5382
▁EXTRACTS	-12.5382
▁Eaglet	-12.5382
▁Edmund	-12.5382
▁Ellenborough	-12.5382
▁Entreati	-12.5382
▁Erroneous	-12.5382
▁Esquimaux	-12.5382
[	-13.5376
7	-13.5377
K	-13.5378
Q	-13.5379
J	-13.538
j	-13.5381
q	-13.5382
